{
  "version": "1.0",
  "truncation": null,
  "padding": null,
  "added_tokens": [
    {
      "id": 0,
      "content": "<cls>",
      "single_word": false,
      "lstrip": false,
      "rstrip": false,
      "normalized": false,
      "special": true
    },
    {
      "id": 1,
      "content": "<sep>",
      "single_word": false,
      "lstrip": false,
      "rstrip": false,
      "normalized": false,
      "special": true
    },
    {
      "id": 2,
      "content": "<unk>",
      "single_word": false,
      "lstrip": false,
      "rstrip": false,
      "normalized": false,
      "special": true
    },
    {
      "id": 3,
      "content": "<pad>",
      "single_word": false,
      "lstrip": false,
      "rstrip": false,
      "normalized": false,
      "special": true
    },
    {
      "id": 4,
      "content": "<mask>",
      "single_word": false,
      "lstrip": false,
      "rstrip": false,
      "normalized": false,
      "special": true
    },
    {
      "id": 5,
      "content": "<s>",
      "single_word": false,
      "lstrip": false,
      "rstrip": false,
      "normalized": false,
      "special": true
    },
    {
      "id": 6,
      "content": "</s>",
      "single_word": false,
      "lstrip": false,
      "rstrip": false,
      "normalized": false,
      "special": true
    }
  ],
  "normalizer": {
    "type": "Sequence",
    "normalizers": [
      {
        "type": "Replace",
        "pattern": {
          "String": "``"
        },
        "content": "\""
      },
      {
        "type": "Replace",
        "pattern": {
          "String": "''"
        },
        "content": "\""
      },
      {
        "type": "NFKD"
      },
      {
        "type": "StripAccents"
      },
      {
        "type": "Replace",
        "pattern": {
          "Regex": " {2,}"
        },
        "content": " "
      }
    ]
  },
  "pre_tokenizer": {
    "type": "Metaspace",
    "replacement": "▁",
    "prepend_scheme": "always",
    "split": true
  },
  "post_processor": {
    "type": "TemplateProcessing",
    "single": [
      {
        "Sequence": {
          "id": "A",
          "type_id": 0
        }
      },
      {
        "SpecialToken": {
          "id": "<sep>",
          "type_id": 0
        }
      },
      {
        "SpecialToken": {
          "id": "<cls>",
          "type_id": 2
        }
      }
    ],
    "pair": [
      {
        "Sequence": {
          "id": "A",
          "type_id": 0
        }
      },
      {
        "SpecialToken": {
          "id": "<sep>",
          "type_id": 0
        }
      },
      {
        "Sequence": {
          "id": "B",
          "type_id": 1
        }
      },
      {
        "SpecialToken": {
          "id": "<sep>",
          "type_id": 1
        }
      },
      {
        "SpecialToken": {
          "id": "<cls>",
          "type_id": 2
        }
      }
    ],
    "special_tokens": {
      "<cls>": {
        "id": "<cls>",
        "ids": [
          0
        ],
        "tokens": [
          "<cls>"
        ]
      },
      "<sep>": {
        "id": "<sep>",
        "ids": [
          1
        ],
        "tokens": [
          "<sep>"
        ]
      }
    }
  },
  "decoder": {
    "type": "Metaspace",
    "replacement": "▁",
    "prepend_scheme": "always",
    "split": true
  },
  "model": {
    "type": "Unigram",
    "unk_id": 2,
    "vocab": [
      [
        "<cls>",
        0.0
      ],
      [
        "<sep>",
        0.0
      ],
      [
        "<unk>",
        0.0
      ],
      [
        "<pad>",
        0.0
      ],
      [
        "<mask>",
        0.0
      ],
      [
        "<s>",
        0.0
      ],
      [
        "</s>",
        0.0
      ],
      [
        "▁",
        -1.8204779029361475
      ],
      [
        "▁the",
        -3.228228338304712
      ],
      [
        ",",
        -3.3344462522607934
      ],
      [
        ".",
        -3.621311185619959
      ],
      [
        "s",
        -3.6868600564698735
      ],
      [
        "▁of",
        -3.959996808718282
      ],
      [
        "a",
        -4.034926607714677
      ],
      [
        "▁and",
        -4.053346361746758
      ],
      [
        "@",
        -4.101597502133174
      ],
      [
        "▁to",
        -4.2714286963480035
      ],
      [
        "▁in",
        -4.323483385315331
      ],
      [
        "ed",
        -4.408754409006461
      ],
      [
        "=",
        -4.584825359464059
      ],
      [
        "\"",
        -4.676100568632288
      ],
      [
        "d",
        -4.691706235855921
      ],
      [
        "\n",
        -4.8150446747437545
      ],
      [
        "▁was",
        -4.8902110322986125
      ],
      [
        "ing",
        -5.072529538994496
      ],
      [
        "-",
        -5.0737814950121045
      ],
      [
        "▁The",
        -5.111728497015889
      ],
      [
        "on",
        -5.159471463119797
      ],
      [
        "t",
        -5.217686784380177
      ],
      [
        "y",
        -5.227496862562834
      ],
      [
        "▁'s",
        -5.28573650938552
      ],
      [
        "▁for",
        -5.344529027304052
      ],
      [
        "▁that",
        -5.353799413907684
      ],
      [
        "ly",
        -5.365299935258781
      ],
      [
        "▁as",
        -5.371466991047319
      ],
      [
        "▁with",
        -5.425245612796402
      ],
      [
        "e",
        -5.4769841678451385
      ],
      [
        "▁by",
        -5.480671361976601
      ],
      [
        ")",
        -5.50583717667851
      ],
      [
        "(",
        -5.50644535541614
      ],
      [
        "is",
        -5.531464191045215
      ],
      [
        "▁his",
        -5.796140900195784
      ],
      [
        "▁from",
        -5.807322738455795
      ],
      [
        "o",
        -5.904310717794896
      ],
      [
        "it",
        -5.996619905319065
      ],
      [
        "▁were",
        -6.002695530147562
      ],
      [
        "n",
        -6.030993310760728
      ],
      [
        "he",
        -6.058910020937466
      ],
      [
        "▁an",
        -6.149080350714165
      ],
      [
        "▁In",
        -6.19097961710666
      ],
      [
        "▁had",
        -6.19549462491031
      ],
      [
        "▁which",
        -6.256139725960539
      ],
      [
        "▁be",
        -6.3707517912129354
      ],
      [
        "i",
        -6.493881214376634
      ],
      [
        "▁are",
        -6.541764342133829
      ],
      [
        "▁but",
        -6.558720752968549
      ],
      [
        "▁not",
        -6.563441779405
      ],
      [
        "or",
        -6.594990373859524
      ],
      [
        ";",
        -6.622971074101072
      ],
      [
        "▁first",
        -6.62786139393863
      ],
      [
        "▁their",
        -6.646194300048435
      ],
      [
        "–",
        -6.651577292496567
      ],
      [
        "'",
        -6.651942474444315
      ],
      [
        "▁her",
        -6.667133839638733
      ],
      [
        ":",
        -6.675610280871073
      ],
      [
        "▁also",
        -6.684080691359092
      ],
      [
        "one",
        -6.712208530460096
      ],
      [
        "▁its",
        -6.719876188129964
      ],
      [
        "▁have",
        -6.775188613954182
      ],
      [
        "▁who",
        -6.7955093882033175
      ],
      [
        "▁two",
        -6.819995185771242
      ],
      [
        "▁been",
        -6.850949589113688
      ],
      [
        "▁He",
        -6.850984307131814
      ],
      [
        "▁has",
        -6.855354118483293
      ],
      [
        "▁this",
        -6.8943227679135894
      ],
      [
        "▁I",
        -6.937581127647681
      ],
      [
        "1",
        -6.975257498124783
      ],
      [
        "▁A",
        -6.979573823794624
      ],
      [
        "▁after",
        -7.006857337946444
      ],
      [
        "▁would",
        -7.027495809621936
      ],
      [
        "▁time",
        -7.029055068268001
      ],
      [
        "▁into",
        -7.060990476091087
      ],
      [
        "▁It",
        -7.063475716715104
      ],
      [
        "▁other",
        -7.100375332630941
      ],
      [
        "m",
        -7.111470479309393
      ],
      [
        "2",
        -7.121112451668365
      ],
      [
        "▁more",
        -7.179457592155378
      ],
      [
        "▁over",
        -7.189043437090014
      ],
      [
        "▁they",
        -7.221570967092365
      ],
      [
        "f",
        -7.230678451928331
      ],
      [
        "▁when",
        -7.242044389104574
      ],
      [
        "▁she",
        -7.261852594049293
      ],
      [
        "▁up",
        -7.270868306938116
      ],
      [
        "▁him",
        -7.271985685506067
      ],
      [
        "▁all",
        -7.27592136674698
      ],
      [
        "ies",
        -7.28535109067368
      ],
      [
        "3",
        -7.289292780007795
      ],
      [
        "h",
        -7.295361239341402
      ],
      [
        "▁during",
        -7.308129529526406
      ],
      [
        "▁most",
        -7.333189177863414
      ],
      [
        "▁only",
        -7.3417704179126595
      ],
      [
        "▁out",
        -7.341923221895993
      ],
      [
        "▁game",
        -7.350283250458306
      ],
      [
        "l",
        -7.35338454445321
      ],
      [
        "▁film",
        -7.365255889993264
      ],
      [
        "er",
        -7.365304322894387
      ],
      [
        "▁than",
        -7.373743621967112
      ],
      [
        "▁about",
        -7.374223263628274
      ],
      [
        "▁between",
        -7.394799733898601
      ],
      [
        "▁On",
        -7.402279378122721
      ],
      [
        "▁later",
        -7.403639648511021
      ],
      [
        "5",
        -7.406481279511553
      ],
      [
        "▁three",
        -7.406889234361328
      ],
      [
        "r",
        -7.407896321942278
      ],
      [
        "▁new",
        -7.425837154792088
      ],
      [
        "4",
        -7.443024024614484
      ],
      [
        "▁while",
        -7.452673280465238
      ],
      [
        "▁where",
        -7.4961312570563585
      ],
      [
        "▁made",
        -7.51944875983714
      ],
      [
        "▁season",
        -7.536644516162953
      ],
      [
        "▁000",
        -7.548994570873216
      ],
      [
        "▁such",
        -7.555734337385387
      ],
      [
        "▁New",
        -7.556759382139692
      ],
      [
        "▁some",
        -7.566466096920978
      ],
      [
        "▁year",
        -7.569976512328076
      ],
      [
        "▁number",
        -7.573370352385151
      ],
      [
        "▁before",
        -7.574353947706827
      ],
      [
        "▁This",
        -7.608143949988573
      ],
      [
        "/",
        -7.609526138794344
      ],
      [
        "▁album",
        -7.61448079602587
      ],
      [
        "▁work",
        -7.618899331640341
      ],
      [
        "▁years",
        -7.625900174854557
      ],
      [
        "▁second",
        -7.629648743188628
      ],
      [
        "▁being",
        -7.661426376682588
      ],
      [
        "▁part",
        -7.667431513079491
      ],
      [
        "6",
        -7.668696718545554
      ],
      [
        "used",
        -7.670162579487162
      ],
      [
        "▁under",
        -7.674240730473125
      ],
      [
        "▁through",
        -7.676796083956891
      ],
      [
        "▁against",
        -7.682599634804888
      ],
      [
        "▁there",
        -7.688205072323445
      ],
      [
        "▁them",
        -7.691471154789978
      ],
      [
        "▁state",
        -7.693945882852699
      ],
      [
        "▁song",
        -7.694503051994932
      ],
      [
        "though",
        -7.694797290571408
      ],
      [
        "▁includ",
        -7.716047921844442
      ],
      [
        "▁became",
        -7.7197184824832465
      ],
      [
        "—",
        -7.734118584239967
      ],
      [
        "▁can",
        -7.736187871136837
      ],
      [
        "▁United",
        -7.743693019075705
      ],
      [
        "▁After",
        -7.750339665346262
      ],
      [
        "▁both",
        -7.757372245287112
      ],
      [
        "us",
        -7.7601128646069295
      ],
      [
        "▁well",
        -7.760794246194363
      ],
      [
        "▁series",
        -7.762851972363824
      ],
      [
        "▁team",
        -7.791380251502112
      ],
      [
        "7",
        -7.811031448055935
      ],
      [
        "▁four",
        -7.813912427232857
      ],
      [
        "▁episode",
        -7.81441167435236
      ],
      [
        "▁like",
        -7.832668365151619
      ],
      [
        "▁American",
        -7.84284466921501
      ],
      [
        "▁said",
        -7.8472766725632255
      ],
      [
        "▁many",
        -7.853387631528912
      ],
      [
        "in",
        -7.859576695388432
      ],
      [
        "▁several",
        -7.865662894695367
      ],
      [
        "▁found",
        -7.872185447185446
      ],
      [
        "▁place",
        -7.875845276847146
      ],
      [
        "▁known",
        -7.884731864866881
      ],
      [
        "▁could",
        -7.885272936722199
      ],
      [
        "8",
        -7.889720249133129
      ],
      [
        "▁did",
        -7.892550741745193
      ],
      [
        "able",
        -7.895166244879658
      ],
      [
        "▁use",
        -7.908543512845425
      ],
      [
        "▁return",
        -7.910522165937616
      ],
      [
        "▁began",
        -7.9127023878131535
      ],
      [
        "▁near",
        -7.921304254459942
      ],
      [
        "▁10",
        -7.937066465956072
      ],
      [
        "▁early",
        -7.94617167070963
      ],
      [
        "▁As",
        -7.955974605681021
      ],
      [
        "▁until",
        -7.95747520590044
      ],
      [
        "c",
        -7.960566899342325
      ],
      [
        "▁released",
        -7.960725347190173
      ],
      [
        "▁day",
        -7.961416154768452
      ],
      [
        "▁She",
        -7.967571870843743
      ],
      [
        "an",
        -7.979097444621969
      ],
      [
        "▁million",
        -7.986768219787516
      ],
      [
        "▁remain",
        -7.988912639740189
      ],
      [
        "w",
        -7.995012014591168
      ],
      [
        "▁end",
        -7.998613291935291
      ],
      [
        "9",
        -8.00221436968492
      ],
      [
        "▁along",
        -8.004265711842438
      ],
      [
        "▁show",
        -8.010735133782172
      ],
      [
        "▁British",
        -8.012996431248709
      ],
      [
        "▁group",
        -8.01626744481699
      ],
      [
        "▁form",
        -8.02166563584084
      ],
      [
        "$",
        -8.031084251684764
      ],
      [
        "▁these",
        -8.037271761481419
      ],
      [
        "▁long",
        -8.03863774153419
      ],
      [
        "▁At",
        -8.039346931566044
      ],
      [
        "▁original",
        -8.04708718067233
      ],
      [
        "▁people",
        -8.048148839610246
      ],
      [
        "u",
        -8.053580465860149
      ],
      [
        "▁September",
        -8.062911990240176
      ],
      [
        "▁World",
        -8.06963230928017
      ],
      [
        "▁same",
        -8.074102040916998
      ],
      [
        "▁large",
        -8.074566984685424
      ],
      [
        "0",
        -8.077835591535429
      ],
      [
        "▁music",
        -8.078079839734528
      ],
      [
        "▁final",
        -8.081555094957073
      ],
      [
        "▁States",
        -8.081772559479324
      ],
      [
        "▁War",
        -8.082929147493749
      ],
      [
        "▁because",
        -8.083495607044075
      ],
      [
        "▁August",
        -8.089181994575299
      ],
      [
        "▁back",
        -8.094108801333329
      ],
      [
        "▁May",
        -8.095963119724614
      ],
      [
        "▁around",
        -8.103656043787938
      ],
      [
        "▁may",
        -8.107328699112148
      ],
      [
        "▁took",
        -8.122909360082684
      ],
      [
        "▁John",
        -8.127529182114474
      ],
      [
        "▁following",
        -8.133416473960601
      ],
      [
        "▁support",
        -8.136143968404538
      ],
      [
        "▁However",
        -8.136201503521914
      ],
      [
        "▁October",
        -8.15176957673314
      ],
      [
        "th",
        -8.15605761631022
      ],
      [
        "g",
        -8.156901923128366
      ],
      [
        "k",
        -8.160754199404842
      ],
      [
        "▁system",
        -8.168660055792415
      ],
      [
        "▁each",
        -8.174444737834962
      ],
      [
        "▁any",
        -8.17565785483746
      ],
      [
        "▁km",
        -8.175833190849303
      ],
      [
        "▁five",
        -8.177163093462607
      ],
      [
        "▁century",
        -8.18323446256688
      ],
      [
        "▁main",
        -8.183457383468877
      ],
      [
        "▁off",
        -8.195654023855077
      ],
      [
        "▁high",
        -8.196738466342904
      ],
      [
        "]",
        -8.197587977523675
      ],
      [
        "[",
        -8.199662640818794
      ],
      [
        "▁life",
        -8.20038327859353
      ],
      [
        "▁US",
        -8.204900199551838
      ],
      [
        "▁June",
        -8.204975057568321
      ],
      [
        "▁single",
        -8.205617682340346
      ],
      [
        "▁war",
        -8.2105412975186
      ],
      [
        "▁city",
        -8.215084449937804
      ],
      [
        "▁B",
        -8.215667501536476
      ],
      [
        "%",
        -8.224952199815126
      ],
      [
        "▁July",
        -8.225096176905234
      ],
      [
        "▁November",
        -8.231754952580925
      ],
      [
        "▁down",
        -8.234606272932123
      ],
      [
        "man",
        -8.23662636762067
      ],
      [
        "▁since",
        -8.238052873424115
      ],
      [
        "▁April",
        -8.250764846764229
      ],
      [
        "re",
        -8.253164562311245
      ],
      [
        "▁March",
        -8.254760302428341
      ],
      [
        "▁area",
        -8.255141707387256
      ],
      [
        "▁York",
        -8.255213229402527
      ],
      [
        "▁order",
        -8.257487530076876
      ],
      [
        "▁call",
        -8.258949720090138
      ],
      [
        "▁set",
        -8.26616441574591
      ],
      [
        "▁continue",
        -8.266983166483772
      ],
      [
        "▁will",
        -8.269131673744166
      ],
      [
        "▁Al",
        -8.269937397582547
      ],
      [
        "led",
        -8.275347416422067
      ],
      [
        "▁small",
        -8.28348330705825
      ],
      [
        "▁name",
        -8.283703221030747
      ],
      [
        "▁12",
        -8.287072854192232
      ],
      [
        "▁result",
        -8.290905598510955
      ],
      [
        "▁attack",
        -8.293921356514407
      ],
      [
        "own",
        -8.295036592600205
      ],
      [
        "▁North",
        -8.296966999790001
      ],
      [
        "b",
        -8.299244229228742
      ],
      [
        "▁left",
        -8.300343846046927
      ],
      [
        "▁20",
        -8.300352616574866
      ],
      [
        "▁During",
        -8.301223582181413
      ],
      [
        "al",
        -8.301942214971858
      ],
      [
        "▁what",
        -8.303062066375924
      ],
      [
        "▁government",
        -8.303456936072935
      ],
      [
        "▁last",
        -8.307885917481265
      ],
      [
        "▁due",
        -8.30942907512327
      ],
      [
        "▁consider",
        -8.310626938596542
      ],
      [
        "▁December",
        -8.310686496893759
      ],
      [
        "▁third",
        -8.31134433379305
      ],
      [
        "▁They",
        -8.311371362478686
      ],
      [
        "▁al",
        -8.311821299652893
      ],
      [
        "▁character",
        -8.312948327432887
      ],
      [
        "▁...",
        -8.314121037608198
      ],
      [
        "▁line",
        -8.315825316854458
      ],
      [
        "▁much",
        -8.321616236996519
      ],
      [
        "▁another",
        -8.324989979215585
      ],
      [
        "▁receive",
        -8.326689942464354
      ],
      [
        "▁January",
        -8.326718661291588
      ],
      [
        "▁based",
        -8.33752589851142
      ],
      [
        "▁15",
        -8.341322826809598
      ],
      [
        "▁home",
        -8.342993646363697
      ],
      [
        "▁role",
        -8.34340727014686
      ],
      [
        "▁When",
        -8.344272781423742
      ],
      [
        "▁wrote",
        -8.344391427801492
      ],
      [
        "▁force",
        -8.348321552831173
      ],
      [
        "▁change",
        -8.351512213642017
      ],
      [
        "▁included",
        -8.357923360549384
      ],
      [
        "z",
        -8.358255849904776
      ],
      [
        "▁death",
        -8.359719370736531
      ],
      [
        "▁won",
        -8.361228999399149
      ],
      [
        "▁band",
        -8.363464736881655
      ],
      [
        "▁South",
        -8.367521491448164
      ],
      [
        "▁play",
        -8.372857734765592
      ],
      [
        "▁general",
        -8.376314857047824
      ],
      [
        "played",
        -8.381551584081762
      ],
      [
        "▁start",
        -8.386056487499587
      ],
      [
        "▁previous",
        -8.389195621002465
      ],
      [
        "▁family",
        -8.391706844431587
      ],
      [
        "▁described",
        -8.392553957906983
      ],
      [
        "▁30",
        -8.394053953262087
      ],
      [
        "▁title",
        -8.395624705626695
      ],
      [
        "▁become",
        -8.398020578427246
      ],
      [
        "▁record",
        -8.398958447682574
      ],
      [
        "▁just",
        -8.400802045675354
      ],
      [
        "▁develop",
        -8.403159292579254
      ],
      [
        "▁include",
        -8.404761586556445
      ],
      [
        "▁short",
        -8.406269359474397
      ],
      [
        "um",
        -8.406732813313504
      ],
      [
        "▁video",
        -8.407244626714379
      ],
      [
        "▁now",
        -8.407420686689976
      ],
      [
        "▁building",
        -8.4132820572936
      ],
      [
        "▁six",
        -8.413317797674088
      ],
      [
        "▁make",
        -8.417536621147203
      ],
      [
        "▁named",
        -8.420256016186485
      ],
      [
        "▁By",
        -8.420444986273752
      ],
      [
        "▁version",
        -8.42298463643315
      ],
      [
        "▁world",
        -8.423582559898716
      ],
      [
        "▁An",
        -8.428041037710896
      ],
      [
        "▁north",
        -8.42946666964468
      ],
      [
        "▁ship",
        -8.432306753180406
      ],
      [
        "▁great",
        -8.439566098931506
      ],
      [
        "▁very",
        -8.441356482941744
      ],
      [
        "those",
        -8.442892211805132
      ],
      [
        "▁public",
        -8.446290514833562
      ],
      [
        "▁Februar",
        -8.449509180019557
      ],
      [
        "▁still",
        -8.451351011915584
      ],
      [
        "next",
        -8.45546836885155
      ],
      [
        "▁11",
        -8.455485321560394
      ],
      [
        "▁perform",
        -8.456326797785009
      ],
      [
        "▁species",
        -8.458331248006147
      ],
      [
        "▁release",
        -8.458366750329846
      ],
      [
        "▁German",
        -8.45998680156448
      ],
      [
        "▁best",
        -8.461983153762644
      ],
      [
        "▁match",
        -8.475238841077209
      ],
      [
        "▁major",
        -8.475990454092392
      ],
      [
        "▁National",
        -8.480419573786477
      ],
      [
        "p",
        -8.482261422641821
      ],
      [
        "▁His",
        -8.486871230850124
      ],
      [
        "▁built",
        -8.489600367427347
      ],
      [
        "▁within",
        -8.492291587856972
      ],
      [
        "▁2010",
        -8.492748352743583
      ],
      [
        "▁un",
        -8.495494258099002
      ],
      [
        "▁held",
        -8.495696434192572
      ],
      [
        "▁former",
        -8.496006605380455
      ],
      [
        "▁French",
        -8.49887354255021
      ],
      [
        "▁There",
        -8.499562101450978
      ],
      [
        "▁late",
        -8.500038847066323
      ],
      [
        "▁issue",
        -8.502147054790663
      ],
      [
        "▁local",
        -8.502475520421973
      ],
      [
        "▁games",
        -8.50755887480241
      ],
      [
        "▁again",
        -8.511119584184831
      ],
      [
        "▁100",
        -8.516644930010315
      ],
      [
        "▁power",
        -8.521498729159115
      ],
      [
        "est",
        -8.52963270330322
      ],
      [
        "▁south",
        -8.529898902653331
      ],
      [
        "▁production",
        -8.540005426567593
      ],
      [
        "▁however",
        -8.540138694106412
      ],
      [
        "▁2008",
        -8.546463424925776
      ],
      [
        "▁period",
        -8.546646036841928
      ],
      [
        "▁even",
        -8.547692190754043
      ],
      [
        "▁18",
        -8.548503446243354
      ],
      [
        "▁2009",
        -8.551361288888428
      ],
      [
        "▁you",
        -8.556441850411714
      ],
      [
        "▁way",
        -8.559340329690423
      ],
      [
        "▁school",
        -8.559657592133883
      ],
      [
        "▁side",
        -8.56131988511345
      ],
      [
        "▁help",
        -8.5629885756628
      ],
      [
        "▁men",
        -8.564548657291912
      ],
      [
        "▁2011",
        -8.568331106792755
      ],
      [
        "▁often",
        -8.568464002888671
      ],
      [
        "▁among",
        -8.571354986826144
      ],
      [
        "▁days",
        -8.57184688961804
      ],
      [
        "▁career",
        -8.57197581481644
      ],
      [
        "▁25",
        -8.574145989536168
      ],
      [
        "▁16",
        -8.5755526640044
      ],
      [
        "old",
        -8.577601811046323
      ],
      [
        "▁members",
        -8.578565774466938
      ],
      [
        "▁came",
        -8.57914367105208
      ],
      [
        "▁top",
        -8.581845051814431
      ],
      [
        "▁follow",
        -8.58637892281918
      ],
      [
        "&",
        -8.586378983422113
      ],
      [
        "▁England",
        -8.586454817129649
      ],
      [
        "▁book",
        -8.587985313638502
      ],
      [
        "▁14",
        -8.588846209588803
      ],
      [
        "▁storm",
        -8.590470331365722
      ],
      [
        "▁13",
        -8.591304752643033
      ],
      [
        "▁we",
        -8.592094930951744
      ],
      [
        "▁further",
        -8.594395796484186
      ],
      [
        "▁water",
        -8.594559111763662
      ],
      [
        "▁level",
        -8.595428267083848
      ],
      [
        "▁De",
        -8.60112806156232
      ],
      [
        "▁take",
        -8.602859370692311
      ],
      [
        "▁For",
        -8.606389107065958
      ],
      [
        "▁All",
        -8.60641930168958
      ],
      [
        "▁2007",
        -8.609777173607366
      ],
      [
        "▁One",
        -8.615502367520833
      ],
      [
        "having",
        -8.615931635231235
      ],
      [
        "▁story",
        -8.618725289256512
      ],
      [
        "▁player",
        -8.622551141731815
      ],
      [
        "▁different",
        -8.623691355446395
      ],
      [
        "ity",
        -8.624055281947374
      ],
      [
        "▁half",
        -8.626292220885578
      ],
      [
        "▁City",
        -8.62670920919412
      ],
      [
        "▁position",
        -8.629431832053639
      ],
      [
        "▁similar",
        -8.62986629774137
      ],
      [
        "▁point",
        -8.629983755619232
      ],
      [
        "▁English",
        -8.630008377590233
      ],
      [
        "▁few",
        -8.633824476628442
      ],
      [
        "▁River",
        -8.635336516535709
      ],
      [
        "▁turn",
        -8.637857123049614
      ],
      [
        "▁total",
        -8.640482193293645
      ],
      [
        "▁without",
        -8.642131148901376
      ],
      [
        "▁produce",
        -8.642690684134632
      ],
      [
        "▁West",
        -8.643541191236892
      ],
      [
        "▁2012",
        -8.647676238920301
      ],
      [
        "▁II",
        -8.650298732686734
      ],
      [
        "▁history",
        -8.650419310620311
      ],
      [
        "▁C",
        -8.65396046578867
      ],
      [
        "▁London",
        -8.659013336349698
      ],
      [
        "moved",
        -8.666330085371424
      ],
      [
        "▁join",
        -8.667212318441974
      ],
      [
        "▁King",
        -8.670097343923409
      ],
      [
        "▁lead",
        -8.67043377068649
      ],
      [
        "▁club",
        -8.67641995752031
      ],
      [
        "ritten",
        -8.679008769375372
      ],
      [
        "▁reach",
        -8.688713714741066
      ],
      [
        "▁full",
        -8.689516896342978
      ],
      [
        "▁cause",
        -8.693863622419839
      ],
      [
        "▁design",
        -8.697713726853316
      ],
      [
        "▁given",
        -8.703741381341118
      ],
      [
        "▁U.S.",
        -8.706505001364683
      ],
      [
        "▁University",
        -8.708406208782776
      ],
      [
        "▁gave",
        -8.708440241446029
      ],
      [
        "▁control",
        -8.708739385344831
      ],
      [
        "▁east",
        -8.71520465592468
      ],
      [
        "▁While",
        -8.716026875390341
      ],
      [
        "▁17",
        -8.71620707349186
      ],
      [
        "▁track",
        -8.717061738413829
      ],
      [
        "▁create",
        -8.721807313323684
      ],
      [
        "▁O",
        -8.723832143131862
      ],
      [
        "▁service",
        -8.730536852366749
      ],
      [
        "▁company",
        -8.730638671420081
      ],
      [
        "▁per",
        -8.732987985086545
      ],
      [
        "▁case",
        -8.733994879326412
      ],
      [
        "▁initial",
        -8.734490049541849
      ],
      [
        "▁24",
        -8.740595916260833
      ],
      [
        "▁week",
        -8.74241831083328
      ],
      [
        "▁M",
        -8.744583716511622
      ],
      [
        "▁2006",
        -8.746932260416713
      ],
      [
        "▁went",
        -8.748489397754236
      ],
      [
        "▁lost",
        -8.74888721670543
      ],
      [
        "▁reported",
        -8.753521841890798
      ],
      [
        "▁west",
        -8.753617725840039
      ],
      [
        "▁particular",
        -8.75479277374718
      ],
      [
        "▁term",
        -8.759024737930273
      ],
      [
        "▁allow",
        -8.759601583241565
      ],
      [
        "▁performance",
        -8.760299168881534
      ],
      [
        "▁According",
        -8.762470952148087
      ],
      [
        "▁award",
        -8.76398332620669
      ],
      [
        "▁add",
        -8.768505348417396
      ],
      [
        "▁R",
        -8.769278576802552
      ],
      [
        "▁real",
        -8.769314003599701
      ],
      [
        "▁development",
        -8.769453627975096
      ],
      [
        "▁never",
        -8.77153038501599
      ],
      [
        "▁stage",
        -8.774332216133539
      ],
      [
        "▁General",
        -8.774351747886895
      ],
      [
        "▁list",
        -8.776002739235201
      ],
      [
        "▁direct",
        -8.776158847299676
      ],
      [
        "▁close",
        -8.776571763055916
      ],
      [
        "▁common",
        -8.776573406766316
      ],
      [
        "▁country",
        -8.777544190802056
      ],
      [
        "▁State",
        -8.779784661719283
      ],
      [
        "▁using",
        -8.784009996008606
      ],
      [
        "▁attempt",
        -8.785392554032331
      ],
      [
        "▁recorded",
        -8.785446695832999
      ],
      [
        "▁suggest",
        -8.78572434008312
      ],
      [
        "▁father",
        -8.789796409261198
      ],
      [
        "▁plan",
        -8.789922900731126
      ],
      [
        "▁These",
        -8.79246019223653
      ],
      [
        "▁low",
        -8.796699550752564
      ],
      [
        "▁strong",
        -8.797135882244186
      ],
      [
        "▁aircraft",
        -8.797734282944278
      ],
      [
        "▁himself",
        -8.797960176823382
      ],
      [
        "▁2013",
        -8.799037893999975
      ],
      [
        "▁Australia",
        -8.799626868049533
      ],
      [
        "▁making",
        -8.80012040274704
      ],
      [
        "▁military",
        -8.80026707337502
      ],
      [
        "▁pass",
        -8.8004591420706
      ],
      [
        "▁town",
        -8.801159199751856
      ],
      [
        "▁need",
        -8.80215673708285
      ],
      [
        "▁right",
        -8.80366159867267
      ],
      [
        "▁To",
        -8.804368698200998
      ],
      [
        "▁forces",
        -8.814021439322158
      ],
      [
        "▁present",
        -8.81421303333748
      ],
      [
        "▁run",
        -8.816068482472884
      ],
      [
        "▁ships",
        -8.816665090518379
      ],
      [
        "▁calle",
        -8.820921806587608
      ],
      [
        "▁S",
        -8.821494655396348
      ],
      [
        "▁James",
        -8.82451730372147
      ],
      [
        "▁William",
        -8.82531047516567
      ],
      [
        "▁21",
        -8.84024039055306
      ],
      [
        "▁fire",
        -8.841208854528189
      ],
      [
        "▁effect",
        -8.843568180708685
      ],
      [
        "▁America",
        -8.845787409533738
      ],
      [
        "▁Army",
        -8.847635635179959
      ],
      [
        "▁toward",
        -8.84791979034644
      ],
      [
        "mm",
        -8.848789813566338
      ],
      [
        "▁Division",
        -8.849506511305867
      ],
      [
        "▁Australian",
        -8.849613006934138
      ],
      [
        "▁age",
        -8.85186916077502
      ],
      [
        "▁good",
        -8.854789934057395
      ],
      [
        "▁died",
        -8.855653881891268
      ],
      [
        "▁air",
        -8.85570977890837
      ],
      [
        "▁range",
        -8.856114403966652
      ],
      [
        "▁22",
        -8.857685465346199
      ],
      [
        "▁League",
        -8.85905602828687
      ],
      [
        "▁how",
        -8.859673153252556
      ],
      [
        "▁class",
        -8.860925757955501
      ],
      [
        "▁political",
        -8.861700440978234
      ],
      [
        "▁land",
        -8.863074995005148
      ],
      [
        "▁George",
        -8.863969556626015
      ],
      [
        "▁months",
        -8.868397535073992
      ],
      [
        "▁influence",
        -8.870455726356983
      ],
      [
        "▁population",
        -8.871019550742874
      ],
      [
        "▁campaign",
        -8.872620980958185
      ],
      [
        "▁50",
        -8.872764358822815
      ],
      [
        "▁children",
        -8.873717579730199
      ],
      [
        "▁19",
        -8.874261492765411
      ],
      [
        "▁win",
        -8.875784884946835
      ],
      [
        "▁across",
        -8.87899119515775
      ],
      [
        "▁Street",
        -8.887211962588232
      ],
      [
        "▁away",
        -8.887406927921308
      ],
      [
        "▁songs",
        -8.887993575182255
      ],
      [
        "▁official",
        -8.888093505774604
      ],
      [
        "▁tour",
        -8.889674325573544
      ],
      [
        "▁characters",
        -8.890389110672492
      ],
      [
        "▁T",
        -8.890843048120129
      ],
      [
        "▁Park",
        -8.894885767100654
      ],
      [
        "▁felt",
        -8.894998882672118
      ],
      [
        "▁style",
        -8.895280229919456
      ],
      [
        "▁head",
        -8.895413883673848
      ],
      [
        "▁house",
        -8.896063594500413
      ],
      [
        "▁television",
        -8.904439079616273
      ],
      [
        "by",
        -8.904457700904901
      ],
      [
        "taken",
        -8.905053042434357
      ],
      [
        "▁appearance",
        -8.906748375097694
      ],
      [
        "▁believe",
        -8.90816188674881
      ],
      [
        "▁County",
        -8.909761594070481
      ],
      [
        "▁sent",
        -8.909967531624922
      ],
      [
        "▁Japanes",
        -8.916425829997605
      ],
      [
        "▁2005",
        -8.916471005734559
      ],
      [
        "▁should",
        -8.916895445734006
      ],
      [
        "▁successful",
        -8.91905917289941
      ],
      [
        "▁station",
        -8.919130905426295
      ],
      [
        "▁offer",
        -8.920281051088024
      ],
      [
        "▁eight",
        -8.921293453589618
      ],
      [
        "▁eventual",
        -8.922285995307563
      ],
      [
        "▁route",
        -8.922852024560964
      ],
      [
        "▁various",
        -8.925569649040947
      ],
      [
        "’",
        -8.925883347149988
      ],
      [
        "▁With",
        -8.926714275251538
      ],
      [
        "▁get",
        -8.92765473215174
      ],
      [
        "▁seen",
        -8.930368492158259
      ],
      [
        "ic",
        -8.934934168383453
      ],
      [
        "▁2014",
        -8.938069970555873
      ],
      [
        "▁less",
        -8.939587168795555
      ],
      [
        "▁receiv",
        -8.941899302346796
      ],
      [
        "▁command",
        -8.945405782487272
      ],
      [
        "▁thought",
        -8.945658224333398
      ],
      [
        "▁seven",
        -8.948331688200817
      ],
      [
        "▁feature",
        -8.95557624233148
      ],
      [
        "▁contain",
        -8.95708126307625
      ],
      [
        "▁Road",
        -8.95949772014373
      ],
      [
        "▁addition",
        -8.960279974517366
      ],
      [
        "▁battle",
        -8.962466062346003
      ],
      [
        "▁23",
        -8.962644665695413
      ],
      [
        "▁writing",
        -8.963512524840736
      ],
      [
        "served",
        -8.964191245313263
      ],
      [
        "▁areas",
        -8.964633332913102
      ],
      [
        "▁debut",
        -8.964770209636447
      ],
      [
        "▁throughout",
        -8.965195394629815
      ],
      [
        "▁national",
        -8.968862134126871
      ],
      [
        "▁complete",
        -8.970343460546724
      ],
      [
        "▁fight",
        -8.972663715166947
      ],
      [
        "killed",
        -8.972724973739135
      ],
      [
        "▁tropical",
        -8.972740408585045
      ],
      [
        "▁race",
        -8.973126121314865
      ],
      [
        "▁players",
        -8.973789843067049
      ],
      [
        "▁live",
        -8.974026224218031
      ],
      [
        "▁little",
        -8.97548039916053
      ],
      [
        "▁white",
        -8.975525080410314
      ],
      [
        "▁member",
        -8.975963237843489
      ],
      [
        "▁look",
        -8.9765546201952
      ],
      [
        "▁road",
        -8.978065227197469
      ],
      [
        "ally",
        -8.980862921816824
      ],
      [
        "▁discover",
        -8.981838146204574
      ],
      [
        "▁times",
        -8.986010116517841
      ],
      [
        "▁40",
        -8.986528337111103
      ],
      [
        "▁success",
        -8.987511660009806
      ],
      [
        "ness",
        -8.988367973216647
      ],
      [
        "▁28",
        -8.989486112301881
      ],
      [
        "▁does",
        -8.989492174591769
      ],
      [
        "▁established",
        -8.9907921555204
      ],
      [
        "!",
        -8.992394195198788
      ],
      [
        "ism",
        -8.992581582043462
      ],
      [
        "▁example",
        -8.99676873549947
      ],
      [
        "▁appeared",
        -8.999738914162144
      ],
      [
        "▁miles",
        -9.001630587706636
      ],
      [
        "▁Royal",
        -9.002355175881334
      ],
      [
        "▁face",
        -9.003599687496232
      ],
      [
        "▁women",
        -9.00475758739474
      ],
      [
        "▁D",
        -9.006115764188868
      ],
      [
        "▁decided",
        -9.0119349511857
      ],
      [
        "▁experience",
        -9.011988820005516
      ],
      [
        "▁House",
        -9.015090452717736
      ],
      [
        "▁average",
        -9.015700744382098
      ],
      [
        "▁East",
        -9.017802719912243
      ],
      [
        "men",
        -9.021974455738343
      ],
      [
        "▁E",
        -9.025932972394482
      ],
      [
        "▁post",
        -9.027682844750778
      ],
      [
        "▁noted",
        -9.02789048836872
      ],
      [
        "▁David",
        -9.028263942946191
      ],
      [
        "▁black",
        -9.028662664040132
      ],
      [
        "▁points",
        -9.030829535317894
      ],
      [
        "▁feet",
        -9.031574069970652
      ],
      [
        "▁Air",
        -9.031667966836151
      ],
      [
        "▁entire",
        -9.031783846033347
      ],
      [
        "▁26",
        -9.0338158651668
      ],
      [
        "▁light",
        -9.033872228435287
      ],
      [
        "v",
        -9.03409393356407
      ],
      [
        "▁once",
        -9.035153594051769
      ],
      [
        "▁action",
        -9.035247551102856
      ],
      [
        "▁damage",
        -9.03615370453302
      ],
      [
        "▁sold",
        -9.037507026211882
      ],
      [
        "▁night",
        -9.038945546527373
      ],
      [
        "▁features",
        -9.039421956521588
      ],
      [
        "▁publishe",
        -9.041390309380423
      ],
      [
        "▁France",
        -9.041547763645688
      ],
      [
        "▁give",
        -9.042134885936296
      ],
      [
        "▁together",
        -9.043996730405466
      ],
      [
        "▁ten",
        -9.04453648330362
      ],
      [
        "▁body",
        -9.045428952079426
      ],
      [
        "▁report",
        -9.04571170211093
      ],
      [
        "▁instead",
        -9.046708663971728
      ],
      [
        "▁locate",
        -9.04704822912524
      ],
      [
        "▁Michael",
        -9.05044261783578
      ],
      [
        "▁important",
        -9.051521625298571
      ],
      [
        "▁mi",
        -9.05248597123494
      ],
      [
        "▁27",
        -9.05433148567758
      ],
      [
        "▁man",
        -9.054396305132848
      ],
      [
        "▁site",
        -9.055779257016043
      ],
      [
        "▁visit",
        -9.056781819347348
      ],
      [
        "▁non",
        -9.05682728407075
      ],
      [
        "▁law",
        -9.057849945030693
      ],
      [
        "▁crew",
        -9.06155145982343
      ],
      [
        "▁F",
        -9.062853325094595
      ],
      [
        "▁front",
        -9.064237527238683
      ],
      [
        "▁every",
        -9.06637349433807
      ],
      [
        "▁popular",
        -9.066737253419836
      ],
      [
        "▁2004",
        -9.068951923667484
      ],
      [
        "x",
        -9.070628726072185
      ],
      [
        "▁completed",
        -9.07146795181377
      ],
      [
        "▁announce",
        -9.071576446818415
      ],
      [
        "rather",
        -9.072282465051254
      ],
      [
        "▁playing",
        -9.075319573308226
      ],
      [
        "▁behind",
        -9.080308978787576
      ],
      [
        "▁open",
        -9.081393069870238
      ],
      [
        "▁ground",
        -9.082960656694985
      ],
      [
        "spite",
        -9.083568912904246
      ],
      [
        "▁peak",
        -9.084787875366398
      ],
      [
        "▁cover",
        -9.086177589085608
      ],
      [
        "▁project",
        -9.086783108202496
      ],
      [
        "▁opened",
        -9.091232733340997
      ],
      [
        "▁construction",
        -9.092168021976834
      ],
      [
        "▁see",
        -9.0928119566708
      ],
      [
        "▁2015",
        -9.092812095611292
      ],
      [
        "▁Robert",
        -9.094888264077492
      ],
      [
        "▁my",
        -9.095352518804434
      ],
      [
        "▁saw",
        -9.09938408407434
      ],
      [
        "▁appear",
        -9.102207620053385
      ],
      [
        "▁free",
        -9.103987001709545
      ],
      [
        "▁subsequent",
        -9.104864850767324
      ],
      [
        "▁highway",
        -9.105179997682075
      ],
      [
        "▁difficult",
        -9.106243426665865
      ],
      [
        "▁scene",
        -9.109681968375872
      ],
      [
        "▁rest",
        -9.109709539537832
      ],
      [
        "▁relationship",
        -9.110143023607078
      ],
      [
        "▁section",
        -9.110218198292207
      ],
      [
        "▁claim",
        -9.11030294566047
      ],
      [
        "▁structure",
        -9.110373053040869
      ],
      [
        "▁29",
        -9.11091545000139
      ],
      [
        "▁You",
        -9.111010956894102
      ],
      [
        "▁heavy",
        -9.111775562566594
      ],
      [
        "▁event",
        -9.112130274090672
      ],
      [
        "▁Some",
        -9.112672584431325
      ],
      [
        "▁son",
        -9.113924358559728
      ],
      [
        "▁love",
        -9.11488698345604
      ],
      [
        "▁guns",
        -9.116062957655084
      ],
      [
        "▁ask",
        -9.116827495191188
      ],
      [
        "▁San",
        -9.117745749090414
      ],
      [
        "▁party",
        -9.118630540974412
      ],
      [
        "▁Henry",
        -9.119152171336008
      ],
      [
        "▁interest",
        -9.119940599233349
      ],
      [
        "▁almost",
        -9.12102624587243
      ],
      [
        "▁Star",
        -9.124580489760548
      ],
      [
        "▁lack",
        -9.125736555879271
      ],
      [
        "▁go",
        -9.126614683320035
      ],
      [
        "▁fourth",
        -9.128428112803268
      ],
      [
        "▁born",
        -9.131292318342624
      ],
      [
        "▁Best",
        -9.131412209913336
      ],
      [
        "▁put",
        -9.132025752473258
      ],
      [
        "▁program",
        -9.133116872201722
      ],
      [
        "▁Battle",
        -9.13326908458698
      ],
      [
        "▁process",
        -9.13407583554526
      ],
      [
        "▁young",
        -9.13444377977298
      ],
      [
        "▁current",
        -9.13521518483702
      ],
      [
        "▁leave",
        -9.135590343246974
      ],
      [
        "▁rock",
        -9.137093148564391
      ],
      [
        "▁region",
        -9.138751001206904
      ],
      [
        "▁office",
        -9.139644411453345
      ],
      [
        "▁scored",
        -9.139715413913237
      ],
      [
        "▁School",
        -9.139976932275989
      ],
      [
        "▁rank",
        -9.14062275653408
      ],
      [
        "brought",
        -9.141527914081584
      ],
      [
        "▁provided",
        -9.141601288765363
      ],
      [
        "▁200",
        -9.142941262391655
      ],
      [
        "▁Other",
        -9.145033350633923
      ],
      [
        "▁extend",
        -9.146221531051143
      ],
      [
        "▁mother",
        -9.147141131403536
      ],
      [
        "▁weeks",
        -9.148006785398042
      ],
      [
        "▁least",
        -9.148968739366255
      ],
      [
        "▁special",
        -9.149024317406118
      ],
      [
        "▁individual",
        -9.150450596601717
      ],
      [
        "▁hit",
        -9.150863772829911
      ],
      [
        "▁view",
        -9.152079394734551
      ],
      [
        "▁problem",
        -9.154019232628489
      ],
      [
        "▁P",
        -9.155877665422468
      ],
      [
        "▁Washington",
        -9.158234522900802
      ],
      [
        "▁working",
        -9.1590006253678
      ],
      [
        "▁modern",
        -9.159805790499096
      ],
      [
        "▁novel",
        -9.161566287243057
      ],
      [
        "▁chart",
        -9.16219848517534
      ],
      [
        "▁review",
        -9.1630593330028
      ],
      [
        "▁wanted",
        -9.164667360258012
      ],
      [
        "▁recording",
        -9.16542111830793
      ],
      [
        "▁We",
        -9.166825339817745
      ],
      [
        "▁Music",
        -9.167211023758089
      ],
      [
        "▁500",
        -9.169358635637956
      ],
      [
        "▁European",
        -9.170842703168766
      ],
      [
        "▁Man",
        -9.172305378673784
      ],
      [
        "▁Europe",
        -9.17293931166112
      ],
      [
        "▁wife",
        -9.172989510773276
      ],
      [
        "mph",
        -9.173254619093074
      ],
      [
        "▁critics",
        -9.173284653113248
      ],
      [
        "▁troops",
        -9.17582033208044
      ],
      [
        "▁studio",
        -9.175898618744252
      ],
      [
        "▁field",
        -9.17822901876849
      ],
      [
        "leading",
        -9.178406678104595
      ],
      [
        "▁army",
        -9.17976142565306
      ],
      [
        "▁2003",
        -9.182138369515767
      ],
      [
        "▁Follow",
        -9.183321481361988
      ],
      [
        "▁me",
        -9.184029865075562
      ],
      [
        "▁quick",
        -9.185757755367735
      ],
      [
        "▁President",
        -9.192726377565997
      ],
      [
        "▁Paul",
        -9.19283396519611
      ],
      [
        "▁co",
        -9.194659933352362
      ],
      [
        "▁material",
        -9.195106894109134
      ],
      [
        "▁mid",
        -9.19574857047096
      ],
      [
        "her",
        -9.199609490071431
      ],
      [
        "▁hurricane",
        -9.20025957025783
      ],
      [
        "▁Force",
        -9.201440089669456
      ],
      [
        "▁capture",
        -9.202049532253058
      ],
      [
        "▁runs",
        -9.204107060887385
      ],
      [
        "▁First",
        -9.204894377117606
      ],
      [
        "▁agree",
        -9.204997007896235
      ],
      [
        "▁island",
        -9.20547522464062
      ],
      [
        "▁opening",
        -9.20726119018946
      ],
      [
        "ers",
        -9.20775873446056
      ],
      [
        "▁ever",
        -9.208306237028028
      ],
      [
        "▁Black",
        -9.20858314129027
      ],
      [
        "▁Japan",
        -9.209640538305273
      ],
      [
        "▁Cup",
        -9.20977580167478
      ],
      [
        "▁Great",
        -9.211901037185578
      ],
      [
        "▁victory",
        -9.212324184869011
      ],
      [
        "▁location",
        -9.213706800380582
      ],
      [
        "▁wide",
        -9.21681070026536
      ],
      [
        "▁Two",
        -9.21701949224654
      ],
      [
        "▁works",
        -9.217666000057209
      ],
      [
        "▁reveal",
        -9.220289987666916
      ],
      [
        "▁either",
        -9.22167754667224
      ],
      [
        "▁far",
        -9.221719155743015
      ],
      [
        "▁2000",
        -9.222032779138196
      ],
      [
        "▁business",
        -9.225746739695143
      ],
      [
        "▁events",
        -9.226282182702809
      ],
      [
        "▁accept",
        -9.228573980298965
      ],
      [
        "▁move",
        -9.22907504222324
      ],
      [
        "▁sound",
        -9.22940944903466
      ],
      [
        "▁month",
        -9.230016214375103
      ],
      [
        "▁met",
        -9.230389399288727
      ],
      [
        "▁model",
        -9.230573770093908
      ],
      [
        "▁designed",
        -9.234345702347373
      ],
      [
        "▁Route",
        -9.235525787056249
      ],
      [
        "▁finished",
        -9.2356523798889
      ],
      [
        "▁usual",
        -9.23653093597651
      ],
      [
        "▁saying",
        -9.236533319031755
      ],
      [
        "▁hours",
        -9.237207671813376
      ],
      [
        "▁soon",
        -9.237246590505311
      ],
      [
        "▁featur",
        -9.238105552103262
      ],
      [
        "▁division",
        -9.239166920529511
      ],
      [
        "▁length",
        -9.246561262686708
      ],
      [
        "▁largest",
        -9.25077383018624
      ],
      [
        "▁replace",
        -9.25085461949146
      ],
      [
        "▁though",
        -9.251053334469962
      ],
      [
        "▁shot",
        -9.251628604707058
      ],
      [
        "▁possible",
        -9.251855651351336
      ],
      [
        "▁No",
        -9.252264405655104
      ],
      [
        "▁southern",
        -9.252439378780831
      ],
      [
        "▁director",
        -9.252625704658952
      ],
      [
        "▁gun",
        -9.252788743415245
      ],
      [
        "▁room",
        -9.25394959543249
      ],
      [
        "▁person",
        -9.254108452799391
      ],
      [
        "▁movement",
        -9.256114659550216
      ],
      [
        "▁From",
        -9.257903559037794
      ],
      [
        "▁highest",
        -9.257956571470991
      ],
      [
        "▁earlier",
        -9.25837833762792
      ],
      [
        "▁International",
        -9.259208872694549
      ],
      [
        "allowed",
        -9.259368499792616
      ],
      [
        "▁2001",
        -9.259828744855955
      ],
      [
        "▁Charles",
        -9.261144402739196
      ],
      [
        "▁availabl",
        -9.262733433553054
      ],
      [
        "▁goal",
        -9.26301514659725
      ],
      [
        "▁U",
        -9.263914082674583
      ],
      [
        "▁significant",
        -9.264504579806518
      ],
      [
        "▁training",
        -9.265698441117012
      ],
      [
        "▁minutes",
        -9.26975757602648
      ],
      [
        "▁Kingdom",
        -9.271266241436155
      ],
      [
        "▁31",
        -9.272234879664127
      ],
      [
        "▁White",
        -9.272450539752109
      ],
      [
        "▁Thomas",
        -9.272702680018089
      ],
      [
        "▁Navy",
        -9.273035780305278
      ],
      [
        "°",
        -9.274375490926246
      ],
      [
        "▁creat",
        -9.275457356377055
      ],
      [
        "▁decision",
        -9.276819954993767
      ],
      [
        "▁defeat",
        -9.278735522802954
      ],
      [
        "▁vocal",
        -9.278739298816884
      ],
      [
        "▁court",
        -9.28039350191928
      ],
      [
        "▁magazine",
        -9.280852605351043
      ],
      [
        "▁gain",
        -9.281023414484997
      ],
      [
        "▁caus",
        -9.282040888390796
      ],
      [
        "▁lower",
        -9.283158011124565
      ],
      [
        "▁others",
        -9.283941574659767
      ],
      [
        "▁maintain",
        -9.285418958074493
      ],
      [
        "▁contract",
        -9.28665798845247
      ],
      [
        "▁base",
        -9.288980407296764
      ],
      [
        "side",
        -9.293198980959769
      ],
      [
        "▁northern",
        -9.294234521560554
      ],
      [
        "▁Indian",
        -9.294974843809923
      ],
      [
        "▁human",
        -9.29502201485452
      ],
      [
        "ability",
        -9.29662489858416
      ],
      [
        "▁2002",
        -9.29783200408381
      ],
      [
        "▁piece",
        -9.298490445430494
      ],
      [
        "▁international",
        -9.298711944836588
      ],
      [
        "▁Canada",
        -9.299697467722742
      ],
      [
        "▁explain",
        -9.300836256751964
      ],
      [
        "▁surface",
        -9.301368944022547
      ],
      [
        "▁increased",
        -9.30142332603207
      ],
      [
        "▁size",
        -9.302137065367983
      ],
      [
        "▁K",
        -9.302287005099018
      ],
      [
        "▁cast",
        -9.302419697874733
      ],
      [
        "▁approach",
        -9.303112940028743
      ],
      [
        "▁language",
        -9.303353209165603
      ],
      [
        "▁league",
        -9.304791777771444
      ],
      [
        "▁X",
        -9.30544490963435
      ],
      [
        "▁sea",
        -9.305458716207232
      ],
      [
        "▁study",
        -9.308469273969797
      ],
      [
        "▁Hall",
        -9.30882437486798
      ],
      [
        "▁carrie",
        -9.309414145987862
      ],
      [
        "▁central",
        -9.313935444639592
      ],
      [
        "▁hand",
        -9.314692450051837
      ],
      [
        "▁California",
        -9.31473194921974
      ],
      [
        "▁La",
        -9.314974102498429
      ],
      [
        "our",
        -9.314990038079577
      ],
      [
        "▁advance",
        -9.31628914718472
      ],
      [
        "▁No.",
        -9.31680432366086
      ],
      [
        "▁immediate",
        -9.318822328348766
      ],
      [
        "▁share",
        -9.319016903937468
      ],
      [
        "▁taking",
        -9.319113044388454
      ],
      [
        "▁regard",
        -9.319590025956405
      ],
      [
        "▁car",
        -9.32337934013284
      ],
      [
        "▁praise",
        -9.32388264797424
      ],
      [
        "▁ended",
        -9.326133624878349
      ],
      [
        "▁units",
        -9.326230367691927
      ],
      [
        "▁come",
        -9.328125515285814
      ],
      [
        "▁letter",
        -9.329142928109995
      ],
      [
        "▁must",
        -9.32998285341615
      ],
      [
        "▁find",
        -9.329999600118557
      ],
      [
        "▁activit",
        -9.330231800316431
      ],
      [
        "▁better",
        -9.330692769545644
      ],
      [
        "upon",
        -9.331671459174377
      ],
      [
        "▁Award",
        -9.331684457752305
      ],
      [
        "▁Court",
        -9.331736520251331
      ],
      [
        "▁positive",
        -9.332762358619854
      ],
      [
        "▁St",
        -9.336221113125758
      ],
      [
        "▁act",
        -9.337720311375504
      ],
      [
        "▁Union",
        -9.339877753646162
      ],
      [
        "less",
        -9.34035596270935
      ],
      [
        "▁friend",
        -9.340480904981058
      ],
      [
        "▁enough",
        -9.343426737121256
      ],
      [
        "▁clear",
        -9.34374753500547
      ],
      [
        "▁India",
        -9.3460760010798
      ],
      [
        "▁according",
        -9.346598775771968
      ],
      [
        "signed",
        -9.3474305302296
      ],
      [
        "▁commercial",
        -9.34758643944662
      ],
      [
        "▁Peter",
        -9.347751446318735
      ],
      [
        "▁church",
        -9.348287400079249
      ],
      [
        "▁above",
        -9.348817500147158
      ],
      [
        "told",
        -9.349041509685016
      ],
      [
        "▁outside",
        -9.35097670759094
      ],
      [
        "▁voice",
        -9.3524968936202
      ],
      [
        "▁beginning",
        -9.353004996024668
      ],
      [
        "▁social",
        -9.353199042982316
      ],
      [
        "▁relative",
        -9.355638401694028
      ],
      [
        "▁additional",
        -9.355976588536665
      ],
      [
        "▁going",
        -9.356894575436284
      ],
      [
        "▁nine",
        -9.357450972111282
      ],
      [
        "▁winds",
        -9.358232124891655
      ],
      [
        "▁round",
        -9.358334259436576
      ],
      [
        "▁Island",
        -9.3591809169607
      ],
      [
        "▁daughter",
        -9.359422914034376
      ],
      [
        "▁Smith",
        -9.359785510725924
      ],
      [
        "▁conduct",
        -9.361301954365697
      ],
      [
        "▁animal",
        -9.362902501171307
      ],
      [
        "▁slow",
        -9.364047559369542
      ],
      [
        "▁Company",
        -9.36623105171028
      ],
      [
        "▁response",
        -9.368276459698796
      ],
      [
        "▁Her",
        -9.372097236786086
      ],
      [
        "▁required",
        -9.372183201371303
      ],
      [
        "▁Act",
        -9.373547188510845
      ],
      [
        "▁College",
        -9.373822724247958
      ],
      [
        "▁star",
        -9.375625372334806
      ],
      [
        "▁Red",
        -9.375991747172275
      ],
      [
        "▁elements",
        -9.376746958308509
      ],
      [
        "▁pressure",
        -9.376794101705812
      ],
      [
        "▁focus",
        -9.376864819594449
      ],
      [
        "▁evidence",
        -9.377105839913671
      ],
      [
        "▁itself",
        -9.377215218260998
      ],
      [
        "▁score",
        -9.377480727957398
      ],
      [
        "▁sometime",
        -9.378229521492225
      ],
      [
        "▁Church",
        -9.379128093197515
      ],
      [
        "ar",
        -9.381217688486355
      ],
      [
        "▁art",
        -9.381452622421047
      ],
      [
        "▁coast",
        -9.382413036812432
      ],
      [
        "▁despite",
        -9.38280350731742
      ],
      [
        "▁Germany",
        -9.38555964000541
      ],
      [
        "▁Game",
        -9.385734805436272
      ],
      [
        "▁exist",
        -9.386105937400185
      ],
      [
        "?",
        -9.38801729318288
      ],
      [
        "£",
        -9.388516108506565
      ],
      [
        "A",
        -9.388611644888814
      ],
      [
        "▁spen",
        -9.389544906276106
      ],
      [
        "▁keep",
        -9.390172582910422
      ],
      [
        "▁theme",
        -9.390178186178112
      ],
      [
        "▁village",
        -9.39073572323661
      ],
      [
        "▁musical",
        -9.392769411955848
      ],
      [
        "▁soldier",
        -9.395833565285375
      ],
      [
        "▁prevent",
        -9.396053141264876
      ],
      [
        "▁subject",
        -9.396276706107829
      ],
      [
        "elected",
        -9.396501000394691
      ],
      [
        "▁brother",
        -9.398174811147168
      ],
      [
        "▁idea",
        -9.398282665906908
      ],
      [
        "▁poor",
        -9.39961063777273
      ],
      [
        "▁UK",
        -9.400089420029923
      ],
      [
        "▁interview",
        -9.40041765820802
      ],
      [
        "▁High",
        -9.40091410325641
      ],
      [
        "▁Western",
        -9.40522146760636
      ],
      [
        "▁reviews",
        -9.405394065466446
      ],
      [
        "▁future",
        -9.405541009181109
      ],
      [
        "▁Times",
        -9.405985725454766
      ],
      [
        "▁consist",
        -9.406110446855118
      ],
      [
        "▁Final",
        -9.406121155128616
      ],
      [
        "▁increase",
        -9.40768288648498
      ],
      [
        "▁recent",
        -9.408846970180504
      ],
      [
        "▁produc",
        -9.409015824444316
      ],
      [
        "▁election",
        -9.409890062506571
      ],
      [
        "▁speed",
        -9.412511965957671
      ],
      [
        "other",
        -9.413140167385311
      ],
      [
        "▁Richard",
        -9.414705839047308
      ],
      [
        "▁Up",
        -9.419063280053246
      ],
      [
        "▁Los",
        -9.419554485564564
      ],
      [
        "▁football",
        -9.419909003876842
      ],
      [
        "▁engine",
        -9.421247608374882
      ],
      [
        "▁That",
        -9.42287824762968
      ],
      [
        "▁whom",
        -9.42399196453959
      ],
      [
        "▁police",
        -9.424125846606984
      ],
      [
        "▁female",
        -9.424192090475676
      ],
      [
        "▁anti",
        -9.427295999104723
      ],
      [
        "▁suffer",
        -9.427741849337778
      ],
      [
        "▁center",
        -9.4281932676472
      ],
      [
        "▁attend",
        -9.428949958821688
      ],
      [
        "▁already",
        -9.42900091520293
      ],
      [
        "▁NY",
        -9.429446492395138
      ],
      [
        "▁rule",
        -9.43063218431302
      ],
      [
        "▁space",
        -9.431231077842863
      ],
      [
        "▁cost",
        -9.4332073241607
      ],
      [
        "▁loss",
        -9.43355782331462
      ],
      [
        "▁host",
        -9.434527724714323
      ],
      [
        "▁king",
        -9.43476752434948
      ],
      [
        "▁L",
        -9.435721689911166
      ],
      [
        "▁Championship",
        -9.435848407769148
      ],
      [
        "▁Most",
        -9.436102410870944
      ],
      [
        "▁travel",
        -9.438781515852265
      ],
      [
        "▁involv",
        -9.440786583116903
      ],
      [
        "▁meeting",
        -9.440793870002414
      ],
      [
        "▁western",
        -9.441891913246348
      ],
      [
        "▁cut",
        -9.443983864547654
      ],
      [
        "▁Britain",
        -9.444259769567816
      ],
      [
        "▁protect",
        -9.445362714484244
      ],
      [
        "▁Hill",
        -9.445560009904584
      ],
      [
        "▁Awards",
        -9.447531232867876
      ],
      [
        "▁president",
        -9.447788633594635
      ],
      [
        "▁arrive",
        -9.44967288507018
      ],
      [
        "▁money",
        -9.452474583804754
      ],
      [
        "▁Virginia",
        -9.45745222917561
      ],
      [
        "▁summer",
        -9.457635991655131
      ],
      [
        "▁Later",
        -9.458119322399336
      ],
      [
        "to",
        -9.461550188842375
      ],
      [
        "▁past",
        -9.465205512364902
      ],
      [
        "▁Sea",
        -9.466050520454692
      ],
      [
        "▁community",
        -9.466485536918205
      ],
      [
        "▁G",
        -9.46710811879751
      ],
      [
        "▁fleet",
        -9.467151915324004
      ],
      [
        "▁Roman",
        -9.467922808245476
      ],
      [
        "▁especiall",
        -9.468200976537956
      ],
      [
        "▁write",
        -9.468678916160554
      ],
      [
        "▁want",
        -9.46969279219293
      ],
      [
        "▁audience",
        -9.47008800162829
      ],
      [
        "▁estimated",
        -9.4704161697286
      ],
      [
        "▁1999",
        -9.47064567783023
      ],
      [
        "▁eastern",
        -9.471005883229916
      ],
      [
        "▁St.",
        -9.473994267682109
      ],
      [
        "▁practice",
        -9.474582589036668
      ],
      [
        "▁cross",
        -9.474964738598535
      ],
      [
        "▁media",
        -9.475502795350073
      ],
      [
        "▁actual",
        -9.475797775556854
      ],
      [
        "▁God",
        -9.476942644809982
      ],
      [
        "▁sell",
        -9.476962431188076
      ],
      [
        "▁becoming",
        -9.477848470530176
      ],
      [
        "▁Early",
        -9.47788441876537
      ],
      [
        "▁larger",
        -9.478366223453172
      ],
      [
        "▁park",
        -9.47901051952722
      ],
      [
        "▁might",
        -9.479103837063288
      ],
      [
        "▁bridge",
        -9.479991953408982
      ],
      [
        "▁provide",
        -9.480204283317043
      ],
      [
        "▁percent",
        -9.483018779565269
      ],
      [
        "▁60",
        -9.484132698279144
      ],
      [
        "▁research",
        -9.484202383909466
      ],
      [
        "▁date",
        -9.48532218040584
      ],
      [
        "▁specific",
        -9.48808426669909
      ],
      [
        "▁trade",
        -9.48855413140843
      ],
      [
        "▁latter",
        -9.488759648041295
      ],
      [
        "▁Me",
        -9.490155767024586
      ],
      [
        "claimed",
        -9.490795221143062
      ],
      [
        "▁Jackson",
        -9.491911797950738
      ],
      [
        "▁reason",
        -9.492816176233951
      ],
      [
        "▁operate",
        -9.493389015480927
      ],
      [
        "▁winning",
        -9.493576926207435
      ],
      [
        "▁market",
        -9.494150947915603
      ],
      [
        "▁fact",
        -9.494410941857629
      ],
      [
        "▁writer",
        -9.495597521991506
      ],
      [
        "▁certain",
        -9.49586107797841
      ],
      [
        "▁entered",
        -9.496025250308197
      ],
      [
        "▁personal",
        -9.496184244154612
      ],
      [
        "▁reference",
        -9.496368195424726
      ],
      [
        "▁radio",
        -9.497551772582964
      ],
      [
        "▁lines",
        -9.498137221940516
      ],
      [
        "land",
        -9.498154353454114
      ],
      [
        "appointed",
        -9.499080480491743
      ],
      [
        "▁red",
        -9.500239953282897
      ],
      [
        "▁referr",
        -9.501569664058938
      ],
      [
        "▁Soviet",
        -9.50221446519368
      ],
      [
        "▁H",
        -9.502453993543218
      ],
      [
        "▁serve",
        -9.502730373208587
      ],
      [
        "▁type",
        -9.502899289133463
      ],
      [
        "▁If",
        -9.503459492500212
      ],
      [
        "▁Christian",
        -9.504911876027142
      ],
      [
        "▁amount",
        -9.50562348273396
      ],
      [
        "▁students",
        -9.5068904268716
      ],
      [
        "▁food",
        -9.508459448782382
      ],
      [
        "▁associate",
        -9.509194912993994
      ],
      [
        "▁leaving",
        -9.5099386781149
      ],
      [
        "▁Club",
        -9.512200602721764
      ],
      [
        "▁N",
        -9.514173510637704
      ],
      [
        "▁Spanish",
        -9.515116314568331
      ],
      [
        "▁destroyed",
        -9.516842715997708
      ],
      [
        "▁seem",
        -9.517661608875738
      ],
      [
        "▁Bay",
        -9.518185020013837
      ],
      [
        "▁approximate",
        -9.519149572505256
      ],
      [
        "▁authorit",
        -9.519430099133984
      ],
      [
        "▁Association",
        -9.521079823683955
      ],
      [
        "▁question",
        -9.523774867630008
      ],
      [
        "▁Grand",
        -9.524079974689272
      ],
      [
        "▁river",
        -9.524180391839568
      ],
      [
        "▁limited",
        -9.524235332002204
      ],
      [
        "▁overall",
        -9.525584214374106
      ],
      [
        "▁Party",
        -9.52612938240332
      ],
      [
        "▁staff",
        -9.52664177679381
      ],
      [
        "▁occurr",
        -9.526937450853758
      ],
      [
        "▁Edward",
        -9.52849907698226
      ],
      [
        "▁parts",
        -9.529302630632891
      ],
      [
        "▁brief",
        -9.531058131893936
      ],
      [
        "▁private",
        -9.533631033258612
      ],
      [
        "▁regular",
        -9.534689199636324
      ],
      [
        "▁charge",
        -9.536038007676003
      ],
      [
        "▁Chicago",
        -9.536194792992388
      ],
      [
        "▁course",
        -9.53797976432644
      ],
      [
        "▁broadcast",
        -9.538159934887457
      ],
      [
        "▁rating",
        -9.538554153869317
      ],
      [
        "field",
        -9.538879169348244
      ],
      [
        "▁running",
        -9.539461851936084
      ],
      [
        "▁states",
        -9.540176264839642
      ],
      [
        "▁intended",
        -9.540767863617
      ],
      [
        "▁studie",
        -9.540778113852149
      ],
      [
        "▁And",
        -9.544183547828473
      ],
      [
        "▁stay",
        -9.544862766095546
      ],
      [
        "▁My",
        -9.54499461000112
      ],
      [
        "▁pre",
        -9.545883552455772
      ],
      [
        "▁35",
        -9.546414187345698
      ],
      [
        "▁married",
        -9.546808931551476
      ],
      [
        "▁1998",
        -9.5469657487357
      ],
      [
        "▁scenes",
        -9.54708213925591
      ],
      [
        "▁Chinese",
        -9.547146509801848
      ],
      [
        "▁tell",
        -9.548198903035184
      ],
      [
        "▁Council",
        -9.548315695794615
      ],
      [
        "▁Many",
        -9.54848103997849
      ],
      [
        "▁Lake",
        -9.549176264072331
      ],
      [
        "▁detail",
        -9.549195544183537
      ],
      [
        "▁Brown",
        -9.550045224278492
      ],
      [
        "▁Second",
        -9.550654711384649
      ],
      [
        "▁commander",
        -9.552114529120264
      ],
      [
        "▁image",
        -9.552117626316749
      ],
      [
        "▁films",
        -9.553422544053106
      ],
      [
        "▁Love",
        -9.553517154450764
      ],
      [
        "▁producer",
        -9.555015976850756
      ],
      [
        "▁know",
        -9.555043524053197
      ],
      [
        "▁forward",
        -9.555925901526662
      ],
      [
        "▁V",
        -9.556882845582622
      ],
      [
        "▁Mary",
        -9.558017237828764
      ],
      [
        "▁Russian",
        -9.558067141989955
      ],
      [
        "defeated",
        -9.561891036875918
      ],
      [
        "▁critical",
        -9.563032719323374
      ],
      [
        "▁fall",
        -9.563405892226363
      ],
      [
        "▁introduce",
        -9.564004074086432
      ],
      [
        "▁Day",
        -9.566577474451336
      ],
      [
        "▁trial",
        -9.566798248301351
      ],
      [
        "▁longer",
        -9.567393094195827
      ],
      [
        "▁unit",
        -9.56847860286345
      ],
      [
        "▁natural",
        -9.568931137817511
      ],
      [
        "▁higher",
        -9.569033365027208
      ],
      [
        "▁increasing",
        -9.569516348237489
      ],
      [
        "▁planned",
        -9.56988427635459
      ],
      [
        "▁rights",
        -9.570042478687451
      ],
      [
        "▁traditional",
        -9.57127597699862
      ],
      [
        "▁reduce",
        -9.571291746283046
      ],
      [
        "▁Johnson",
        -9.571533250638817
      ],
      [
        "▁enter",
        -9.571988261390263
      ],
      [
        "▁Pacific",
        -9.57342402948403
      ],
      [
        "▁living",
        -9.573743075979472
      ],
      [
        "▁self",
        -9.573781858835876
      ],
      [
        "▁guitar",
        -9.575632209562684
      ],
      [
        "▁fifth",
        -9.576015071816052
      ],
      [
        "▁Rock",
        -9.576498506588717
      ],
      [
        "▁themselves",
        -9.576650270600403
      ],
      [
        "▁mix",
        -9.577697390703808
      ],
      [
        "▁History",
        -9.577841246158826
      ],
      [
        "▁related",
        -9.578088153373152
      ],
      [
        "▁shows",
        -9.578579832971512
      ],
      [
        "▁singer",
        -9.579594227538523
      ],
      [
        "▁active",
        -9.582580355970748
      ],
      [
        "▁professional",
        -9.58287238836656
      ],
      [
        "▁Billboard",
        -9.583474198875953
      ],
      [
        "▁rate",
        -9.583586066292645
      ],
      [
        "▁pair",
        -9.58531783299815
      ],
      [
        "▁thus",
        -9.58672645869858
      ],
      [
        "▁grant",
        -9.586833835562905
      ],
      [
        "▁leader",
        -9.588242690930876
      ],
      [
        "▁Canadian",
        -9.5886328817308
      ],
      [
        "▁competition",
        -9.589141238270772
      ],
      [
        "▁whet",
        -9.592507073097206
      ],
      [
        "▁coach",
        -9.592722255212369
      ],
      [
        "▁fans",
        -9.594355483636027
      ],
      [
        "▁probabl",
        -9.5956773432326
      ],
      [
        "▁artist",
        -9.597326717510455
      ],
      [
        "▁think",
        -9.59757733491392
      ],
      [
        "▁manager",
        -9.59761808355922
      ],
      [
        "▁child",
        -9.598957134476189
      ],
      [
        "ation",
        -9.599180508438796
      ],
      [
        "▁script",
        -9.599625760226434
      ],
      [
        "▁deal",
        -9.600562537534053
      ],
      [
        "▁Since",
        -9.602546404840313
      ],
      [
        "▁copies",
        -9.604094362539414
      ],
      [
        "▁separate",
        -9.604160288872349
      ],
      [
        "▁Squadron",
        -9.604193412784428
      ],
      [
        "▁typical",
        -9.604963038036848
      ],
      [
        "▁1997",
        -9.605035074231326
      ],
      [
        "▁Atlantic",
        -9.605221458502957
      ],
      [
        "▁done",
        -9.60591668792354
      ],
      [
        "▁propose",
        -9.607140065245709
      ],
      [
        "▁Martin",
        -9.60716048774555
      ],
      [
        "▁continu",
        -9.607235889282284
      ],
      [
        "▁gold",
        -9.60772747586933
      ],
      [
        "▁value",
        -9.60781741012272
      ],
      [
        "▁lyrics",
        -9.608101299146924
      ],
      [
        "▁Record",
        -9.608164261761104
      ],
      [
        "▁flood",
        -9.608489832115646
      ],
      [
        "▁woman",
        -9.610576844278103
      ],
      [
        "▁countries",
        -9.610821650498242
      ],
      [
        "▁operations",
        -9.612002436885913
      ],
      [
        "▁via",
        -9.612160935062644
      ],
      [
        "▁Florida",
        -9.613940171858845
      ],
      [
        "▁Queen",
        -9.615469791973888
      ],
      [
        "▁300",
        -9.61548186692194
      ],
      [
        "▁deep",
        -9.615925448015885
      ],
      [
        "▁Lord",
        -9.618665967055676
      ],
      [
        "▁involve",
        -9.619276956002398
      ],
      [
        "▁Highway",
        -9.619342960507414
      ],
      [
        "▁pay",
        -9.619883416585624
      ],
      [
        "▁80",
        -9.62109811531499
      ],
      [
        "▁double",
        -9.621145975850986
      ],
      [
        "▁pilot",
        -9.621226494788768
      ],
      [
        "▁stars",
        -9.62222041637296
      ],
      [
        "▁request",
        -9.6225193790472
      ],
      [
        "▁Both",
        -9.62342994565127
      ],
      [
        "▁Mark",
        -9.623539912158495
      ],
      [
        "▁edition",
        -9.624301035420425
      ],
      [
        "▁break",
        -9.624852208283754
      ],
      [
        "▁minor",
        -9.626941320868031
      ],
      [
        "▁fell",
        -9.626960903660338
      ],
      [
        "▁Italian",
        -9.628189074105087
      ],
      [
        "▁prior",
        -9.6288894215992
      ],
      [
        "▁Texas",
        -9.630546775569618
      ],
      [
        "▁expand",
        -9.63064309014336
      ],
      [
        "▁teams",
        -9.631036800927866
      ],
      [
        "▁test",
        -9.632904722768872
      ],
      [
        "▁portion",
        -9.633697436503672
      ],
      [
        "▁cm",
        -9.633780302367786
      ],
      [
        "▁minute",
        -9.633973584242044
      ],
      [
        "▁health",
        -9.634061506618576
      ],
      [
        "▁China",
        -9.634772938615733
      ],
      [
        "▁historian",
        -9.63510211098878
      ],
      [
        "▁cyclone",
        -9.635108095289826
      ],
      [
        "▁removed",
        -9.63589607805678
      ],
      [
        "▁alway",
        -9.636949497350152
      ],
      [
        "▁network",
        -9.637338949601784
      ],
      [
        "▁status",
        -9.63823751613775
      ],
      [
        "▁Center",
        -9.640745960603295
      ],
      [
        "▁tracks",
        -9.642032623386248
      ],
      [
        "▁stop",
        -9.643318583379878
      ],
      [
        "▁episodes",
        -9.645647386923368
      ],
      [
        "▁officers",
        -9.646649787547288
      ],
      [
        "▁something",
        -9.649315138740764
      ],
      [
        "▁Africa",
        -9.649960402680335
      ],
      [
        "▁avoid",
        -9.653683060155869
      ],
      [
        "▁assist",
        -9.653767145862966
      ],
      [
        "▁drive",
        -9.653941290133954
      ],
      [
        "▁majority",
        -9.65550231315228
      ],
      [
        "▁escape",
        -9.659887726601454
      ],
      [
        "▁Jack",
        -9.660168572723462
      ],
      [
        "▁flight",
        -9.664665834665104
      ],
      [
        "▁nature",
        -9.669306732174553
      ],
      [
        "ville",
        -9.670302864437229
      ],
      [
        "ance",
        -9.670517919918458
      ],
      [
        "▁But",
        -9.671431874739874
      ],
      [
        "▁got",
        -9.671712794095788
      ],
      [
        "▁tons",
        -9.671935442573863
      ],
      [
        "▁composed",
        -9.672146515084384
      ],
      [
        "▁Earth",
        -9.672410339793794
      ],
      [
        "▁credit",
        -9.673552020553924
      ],
      [
        "▁parent",
        -9.674553093640256
      ],
      [
        "▁potential",
        -9.674939420758854
      ],
      [
        "▁45",
        -9.675163731018651
      ],
      [
        "▁Empire",
        -9.675380881379166
      ],
      [
        "▁Tour",
        -9.676254754392408
      ],
      [
        "▁Year",
        -9.67629946778418
      ],
      [
        "▁hour",
        -9.677695837082055
      ],
      [
        "▁Central",
        -9.678376504755946
      ],
      [
        "▁Angele",
        -9.678751436848207
      ],
      [
        "▁respectively",
        -9.678952832011866
      ],
      [
        "▁numerous",
        -9.681269920718462
      ],
      [
        "▁culture",
        -9.681425882004374
      ],
      [
        "time",
        -9.681467000101769
      ],
      [
        "▁1995",
        -9.681853334114567
      ],
      [
        "▁impact",
        -9.683016739445767
      ],
      [
        "▁III",
        -9.686640021913677
      ],
      [
        "▁damaged",
        -9.686961536481542
      ],
      [
        "▁inspired",
        -9.687121201106944
      ],
      [
        "▁yet",
        -9.688633895189646
      ],
      [
        "▁Congress",
        -9.692932957577446
      ],
      [
        "▁moving",
        -9.694765555743304
      ],
      [
        "▁Sir",
        -9.695138031131426
      ],
      [
        "▁launched",
        -9.695307460389248
      ],
      [
        "▁centre",
        -9.695430558521254
      ],
      [
        "▁hard",
        -9.69598888834111
      ],
      [
        "raised",
        -9.696062890322665
      ],
      [
        "▁Test",
        -9.697790860952594
      ],
      [
        "▁press",
        -9.698523439361736
      ],
      [
        "▁upper",
        -9.699219180263198
      ],
      [
        "ten",
        -9.699508587722953
      ],
      [
        "▁W",
        -9.700238556386852
      ],
      [
        "▁occur",
        -9.700356964628078
      ],
      [
        "▁Group",
        -9.701117844382798
      ],
      [
        "▁services",
        -9.701485992694677
      ],
      [
        "▁plot",
        -9.701553879348046
      ],
      [
        "▁treat",
        -9.70181863462802
      ],
      [
        "▁college",
        -9.701987678360922
      ],
      [
        "▁2016",
        -9.702611527752438
      ],
      [
        "▁information",
        -9.70381228992195
      ],
      [
        "▁goals",
        -9.704205984412464
      ],
      [
        "▁1996",
        -9.704286386440724
      ],
      [
        "▁Big",
        -9.704804247253454
      ],
      [
        "▁ran",
        -9.705049804445206
      ],
      [
        "▁access",
        -9.70610812454024
      ],
      [
        "▁shown",
        -9.70621875895355
      ],
      [
        "▁depression",
        -9.706437326853438
      ],
      [
        "▁collection",
        -9.706920891461504
      ],
      [
        "▁lived",
        -9.706924766448358
      ],
      [
        "▁191",
        -9.706973372045214
      ],
      [
        "▁Greek",
        -9.70746499313424
      ],
      [
        "▁capital",
        -9.707718657802925
      ],
      [
        "▁vehicle",
        -9.709868927743862
      ],
      [
        "▁conditions",
        -9.71117194206155
      ],
      [
        "▁whole",
        -9.712102954066804
      ],
      [
        "ary",
        -9.71229431200955
      ],
      [
        "▁legal",
        -9.713191158728453
      ],
      [
        "▁19th",
        -9.71387130618042
      ],
      [
        "▁defend",
        -9.715404024915278
      ],
      [
        "▁direction",
        -9.716315862066509
      ],
      [
        "▁hold",
        -9.716459525402094
      ],
      [
        "▁observe",
        -9.717451709152453
      ],
      [
        "▁castle",
        -9.71748520711416
      ],
      [
        "▁dark",
        -9.718913515997476
      ],
      [
        "▁operation",
        -9.718989355188024
      ],
      [
        "▁severe",
        -9.719447328321715
      ],
      [
        "▁70",
        -9.720177679534055
      ],
      [
        "▁sister",
        -9.720441954080677
      ],
      [
        "▁TV",
        -9.721171407301858
      ],
      [
        "▁transport",
        -9.723084528211167
      ],
      [
        "▁Green",
        -9.72324594769426
      ],
      [
        "▁industry",
        -9.723260188626352
      ],
      [
        "▁1994",
        -9.723402795501572
      ],
      [
        "▁variet",
        -9.723988739045677
      ],
      [
        "▁session",
        -9.724170694243856
      ],
      [
        "▁male",
        -9.724964868484516
      ],
      [
        "▁Corps",
        -9.725991885415985
      ],
      [
        "▁officer",
        -9.726934017327295
      ],
      [
        "▁feel",
        -9.728294602993763
      ],
      [
        "ley",
        -9.728504608044132
      ],
      [
        "▁attention",
        -9.72955574275545
      ],
      [
        "▁yards",
        -9.730453830555629
      ],
      [
        "▁economic",
        -9.731412111704282
      ],
      [
        "earned",
        -9.73316817517614
      ],
      [
        "▁DVD",
        -9.73388579684638
      ],
      [
        "▁author",
        -9.73446119220929
      ],
      [
        "▁expected",
        -9.734956279713389
      ],
      [
        "▁assigned",
        -9.73562107026282
      ],
      [
        "▁display",
        -9.735652473521458
      ],
      [
        "▁mission",
        -9.73565581356072
      ],
      [
        "▁improve",
        -9.736575499130115
      ],
      [
        "▁matter",
        -9.736818946687244
      ],
      [
        "▁commented",
        -9.73908753532834
      ],
      [
        "▁education",
        -9.740964351001384
      ],
      [
        "▁sales",
        -9.74189078584589
      ],
      [
        "▁wind",
        -9.744566461793442
      ],
      [
        "▁ball",
        -9.745071667738554
      ],
      [
        "▁moment",
        -9.745530280395696
      ],
      [
        "▁primary",
        -9.745947263252331
      ],
      [
        "▁newspaper",
        -9.74606483212653
      ],
      [
        "▁border",
        -9.746309416380734
      ],
      [
        "▁Film",
        -9.746353253645792
      ],
      [
        "giving",
        -9.746799919572636
      ],
      [
        "▁Michigan",
        -9.748207534653972
      ],
      [
        "▁pop",
        -9.74869851352622
      ],
      [
        "▁Team",
        -9.74875404437649
      ],
      [
        "▁board",
        -9.75040961370804
      ],
      [
        "▁learn",
        -9.750571560754812
      ],
      [
        "▁confirm",
        -9.75092244080243
      ],
      [
        "▁below",
        -9.752739519416789
      ],
      [
        "▁manage",
        -9.752800045334151
      ],
      [
        "▁Minister",
        -9.752871566201309
      ],
      [
        "▁express",
        -9.75345761007206
      ],
      [
        "▁refuse",
        -9.75378353027673
      ],
      [
        "▁1940",
        -9.754450893936534
      ],
      [
        "▁adult",
        -9.754661686474552
      ],
      [
        "▁demand",
        -9.755117027191492
      ],
      [
        "▁link",
        -9.75524750432651
      ],
      [
        "▁Wales",
        -9.75583691232132
      ],
      [
        "▁distance",
        -9.758018353861187
      ],
      [
        "▁engineer",
        -9.75825062297381
      ],
      [
        "ous",
        -9.758428278386278
      ],
      [
        "▁concept",
        -9.759776043399857
      ],
      [
        "▁takes",
        -9.760418907089225
      ],
      [
        "▁standard",
        -9.76053747449312
      ],
      [
        "▁product",
        -9.762157743927045
      ],
      [
        "▁scale",
        -9.762595592315172
      ],
      [
        "▁marriage",
        -9.763092389545664
      ],
      [
        "▁word",
        -9.763334313640478
      ],
      [
        "▁object",
        -9.764184824582593
      ],
      [
        "▁African",
        -9.764593138402018
      ],
      [
        "▁religious",
        -9.765209245675656
      ],
      [
        "▁75",
        -9.765836993493984
      ],
      [
        "▁Time",
        -9.766136628806462
      ],
      [
        "▁purchase",
        -9.767758156662362
      ],
      [
        "▁Le",
        -9.77134927426932
      ],
      [
        "▁matches",
        -9.771612669971152
      ],
      [
        "▁rapid",
        -9.771841063229534
      ],
      [
        "▁retain",
        -9.771914256763552
      ],
      [
        "▁ultimate",
        -9.772692657449475
      ],
      [
        "▁dead",
        -9.773003464247482
      ],
      [
        "▁actor",
        -9.77319707205423
      ],
      [
        "▁normal",
        -9.773810717664349
      ],
      [
        "▁science",
        -9.774190050883892
      ],
      [
        "▁describe",
        -9.77568148612071
      ],
      [
        "▁wound",
        -9.775853267673588
      ],
      [
        "▁attacks",
        -9.776476642187168
      ],
      [
        "▁Major",
        -9.77717994461626
      ],
      [
        "▁middle",
        -9.77734273758467
      ],
      [
        "▁facilit",
        -9.778293097378247
      ],
      [
        "▁Chris",
        -9.778507968493944
      ],
      [
        "▁serious",
        -9.778816939879768
      ],
      [
        "▁Hot",
        -9.778859267477973
      ],
      [
        "▁closed",
        -9.77927760222784
      ],
      [
        "▁Don",
        -9.77974129535395
      ],
      [
        "▁friends",
        -9.780653241061696
      ],
      [
        "▁Scott",
        -9.781387128740858
      ],
      [
        "▁Several",
        -9.78288785393597
      ],
      [
        "▁1992",
        -9.783791037647124
      ],
      [
        "▁save",
        -9.785539661844156
      ],
      [
        "▁financial",
        -9.785720556268313
      ],
      [
        "▁key",
        -9.786451913084557
      ],
      [
        "▁energy",
        -9.787206165805443
      ],
      [
        "▁Sun",
        -9.787458292040323
      ],
      [
        "▁Old",
        -9.787935795885163
      ],
      [
        "▁heavi",
        -9.788436433672102
      ],
      [
        "▁Bridge",
        -9.791569257041091
      ],
      [
        "▁adopt",
        -9.791784426896491
      ],
      [
        "▁port",
        -9.792016176486351
      ],
      [
        "▁schedule",
        -9.792043903003975
      ],
      [
        "ham",
        -9.793823700231638
      ],
      [
        "and",
        -9.794933200961294
      ],
      [
        "▁select",
        -9.795040852753408
      ],
      [
        "▁decade",
        -9.795360518802006
      ],
      [
        "▁account",
        -9.795541057171969
      ],
      [
        "▁contact",
        -9.796041850554474
      ],
      [
        "▁enjoy",
        -9.79674991812098
      ],
      [
        "▁read",
        -9.7974183427823
      ],
      [
        "▁El",
        -9.798640154140209
      ],
      [
        "▁constructed",
        -9.799137255925364
      ],
      [
        "▁Tom",
        -9.800499364708806
      ],
      [
        "▁complex",
        -9.800630124029068
      ],
      [
        "▁Mexico",
        -9.801180126603052
      ],
      [
        "▁annual",
        -9.801273746577245
      ],
      [
        "▁mass",
        -9.804187162826056
      ],
      [
        "▁temperature",
        -9.805333928163469
      ],
      [
        "▁Stone",
        -9.807100147583297
      ],
      [
        "▁movie",
        -9.807984402829875
      ],
      [
        "▁horse",
        -9.809008578448658
      ],
      [
        "▁sign",
        -9.80912419119671
      ],
      [
        "▁Like",
        -9.809394006899568
      ],
      [
        "ha",
        -9.810812087092753
      ],
      [
        "▁00",
        -9.810968253223349
      ],
      [
        "▁conflict",
        -9.813421420770192
      ],
      [
        "▁1st",
        -9.81351889540085
      ],
      [
        "▁makes",
        -9.81437577916558
      ],
      [
        "▁whos",
        -9.814430821998291
      ],
      [
        "▁abandon",
        -9.81454616647674
      ],
      [
        "▁rare",
        -9.815283993593637
      ],
      [
        "▁effort",
        -9.815584545105096
      ],
      [
        "▁function",
        -9.817462124224978
      ],
      [
        "▁source",
        -9.818572818739764
      ],
      [
        "▁deliver",
        -9.818668762190436
      ],
      [
        "▁transferr",
        -9.81881029304365
      ],
      [
        "▁draft",
        -9.819006999358376
      ],
      [
        "age",
        -9.819490643188232
      ],
      [
        "▁metal",
        -9.819619497371107
      ],
      [
        "▁screen",
        -9.819704854254155
      ],
      [
        "▁physical",
        -9.819739316673244
      ],
      [
        "▁Fox",
        -9.820170360754195
      ],
      [
        "▁Madonna",
        -9.821871467758504
      ],
      [
        "▁twenty",
        -9.822641987149456
      ],
      [
        "tried",
        -9.823199333981613
      ],
      [
        "▁1993",
        -9.823958941841497
      ],
      [
        "▁defense",
        -9.824396273789938
      ],
      [
        "stating",
        -9.825512572781491
      ],
      [
        "▁decline",
        -9.825580883745443
      ],
      [
        "▁1991",
        -9.826030133678662
      ],
      [
        "▁directly",
        -9.826754513921571
      ],
      [
        "▁kind",
        -9.827023270636316
      ],
      [
        "▁20th",
        -9.827069221997846
      ],
      [
        "▁Under",
        -9.827240915674132
      ],
      [
        "▁Jones",
        -9.827474191870962
      ],
      [
        "▁highly",
        -9.827706641112366
      ],
      [
        "▁performances",
        -9.828227955999806
      ],
      [
        "▁Scotland",
        -9.830504053653334
      ],
      [
        "▁90",
        -9.830601209268458
      ],
      [
        "▁challenge",
        -9.83247994572626
      ],
      [
        "▁Service",
        -9.832955275844755
      ],
      [
        "▁combat",
        -9.83351600590673
      ],
      [
        "▁notes",
        -9.834325990220847
      ],
      [
        "▁means",
        -9.834648870555728
      ],
      [
        "▁Department",
        -9.835300519617206
      ],
      [
        "▁plant",
        -9.836607358781626
      ],
      [
        "▁Their",
        -9.83673501406786
      ],
      [
        "▁concert",
        -9.837633879411785
      ],
      [
        "▁oil",
        -9.838575636516362
      ],
      [
        "▁fund",
        -9.839122622637522
      ],
      [
        "▁Hurricane",
        -9.83933771621871
      ],
      [
        "▁fish",
        -9.84059562371528
      ],
      [
        "▁morning",
        -9.84064465389464
      ],
      [
        "▁executive",
        -9.841433875591605
      ],
      [
        "+",
        -9.842344254425909
      ],
      [
        "▁Three",
        -9.842869796513412
      ],
      [
        "▁publish",
        -9.84322436283484
      ],
      [
        "▁Zealand",
        -9.84359318338054
      ],
      [
        "▁replac",
        -9.844074927077893
      ],
      [
        "▁train",
        -9.847117721834664
      ],
      [
        "way",
        -9.847261839183831
      ],
      [
        "▁guest",
        -9.847486105522371
      ],
      [
        "▁build",
        -9.847557511479597
      ],
      [
        "▁nation",
        -9.849282698383195
      ],
      [
        "▁Prince",
        -9.849307422055883
      ],
      [
        "▁droppe",
        -9.849442413203104
      ],
      [
        "▁universit",
        -9.849818747203988
      ],
      [
        "▁responsible",
        -9.850512770032566
      ],
      [
        "▁captain",
        -9.850593829549954
      ],
      [
        "▁32",
        -9.85096162764126
      ],
      [
        "▁Infantry",
        -9.851418601068586
      ],
      [
        "▁Creek",
        -9.85182333520629
      ],
      [
        "▁stone",
        -9.851919190963091
      ],
      [
        "C",
        -9.85256162160339
      ],
      [
        "▁kept",
        -9.853402095207272
      ],
      [
        "▁Catholic",
        -9.853799285876397
      ],
      [
        "▁400",
        -9.8554193220553
      ],
      [
        "wood",
        -9.855868138023654
      ],
      [
        "▁dance",
        -9.856079690026286
      ],
      [
        "▁yard",
        -9.856198863921314
      ],
      [
        "▁indicate",
        -9.856258577895709
      ],
      [
        "▁bill",
        -9.857911487703234
      ],
      [
        "▁represent",
        -9.85846695571393
      ],
      [
        "▁Bill",
        -9.858535495510983
      ],
      [
        "B",
        -9.85890349248846
      ],
      [
        "▁paper",
        -9.859637307200384
      ],
      [
        "▁chief",
        -9.86039702483626
      ],
      [
        "inches",
        -9.860457783516942
      ],
      [
        "covered",
        -9.8605738500773
      ],
      [
        "▁depict",
        -9.860573897036383
      ],
      [
        "▁ending",
        -9.86145562618589
      ],
      [
        "▁machine",
        -9.86291967001556
      ],
      [
        "▁Over",
        -9.862961083199217
      ],
      [
        "town",
        -9.864032491862938
      ],
      [
        "▁Committee",
        -9.866336530701474
      ],
      [
        "▁Frank",
        -9.8675473211226
      ],
      [
        "▁efforts",
        -9.869747170373726
      ],
      [
        "▁inside",
        -9.86981819242231
      ],
      [
        "▁agent",
        -9.869910802400844
      ],
      [
        "▁squadron",
        -9.87197457281614
      ],
      [
        "▁marked",
        -9.872018322851648
      ],
      [
        "▁records",
        -9.873982499418783
      ],
      [
        "▁books",
        -9.87416740691079
      ],
      [
        "▁battalion",
        -9.874268277024967
      ],
      [
        "▁Battalion",
        -9.875891496932988
      ],
      [
        "▁Latin",
        -9.876320620261776
      ],
      [
        "▁bad",
        -9.876396226758285
      ],
      [
        "▁resulting",
        -9.87693553967519
      ],
      [
        "▁figure",
        -9.877231018256134
      ],
      [
        "▁meant",
        -9.87733523829642
      ],
      [
        "▁qualit",
        -9.878073246964794
      ],
      [
        "▁formation",
        -9.878268985897412
      ],
      [
        "▁begins",
        -9.879314439804288
      ],
      [
        "▁Fort",
        -9.880784933712938
      ],
      [
        "era",
        -9.88106910761043
      ],
      [
        "▁So",
        -9.882607352412297
      ],
      [
        "I",
        -9.882717898735685
      ],
      [
        "▁J.",
        -9.88288764659063
      ],
      [
        "▁portray",
        -9.883389110523968
      ],
      [
        "▁fast",
        -9.883671917827076
      ],
      [
        "▁Williams",
        -9.884213390096154
      ],
      [
        "▁presence",
        -9.885414097455284
      ],
      [
        "▁Louis",
        -9.886235161696462
      ],
      [
        "▁Society",
        -9.88691801432096
      ],
      [
        "▁scor",
        -9.886972905121889
      ],
      [
        "▁engage",
        -9.887562304538688
      ],
      [
        "▁1942",
        -9.887930374586334
      ],
      [
        "▁content",
        -9.889634221335395
      ],
      [
        "▁achieve",
        -9.891523877940546
      ],
      [
        "▁forest",
        -9.89163591152514
      ],
      [
        "▁defence",
        -9.89185799077437
      ],
      [
        "▁words",
        -9.892287367963652
      ],
      [
        "▁viewers",
        -9.89381233725131
      ],
      [
        "▁arriv",
        -9.894383985019596
      ],
      [
        "▁painting",
        -9.894554433052807
      ],
      [
        "▁seat",
        -9.894721604161337
      ],
      [
        "▁positions",
        -9.895834172510694
      ],
      [
        "▁metres",
        -9.89732504535096
      ],
      [
        "▁situation",
        -9.897518993722056
      ],
      [
        "▁identifie",
        -9.897652308654266
      ],
      [
        "▁color",
        -9.898342553382728
      ],
      [
        "▁speech",
        -9.89959066666908
      ],
      [
        "▁Saint",
        -9.899838581480452
      ],
      [
        "▁Oxford",
        -9.900430374531572
      ],
      [
        "▁extreme",
        -9.9007008798836
      ],
      [
        "▁search",
        -9.900771651673834
      ],
      [
        "▁Captain",
        -9.901673189860755
      ],
      [
        "▁hundred",
        -9.902076108857976
      ],
      [
        "▁wing",
        -9.902826830631868
      ],
      [
        "▁concern",
        -9.902874281194254
      ],
      [
        "▁enemy",
        -9.9032020976343
      ],
      [
        "▁square",
        -9.903364260823988
      ],
      [
        "▁arrest",
        -9.903471832948531
      ],
      [
        "▁delay",
        -9.903939083656974
      ],
      [
        "▁traffic",
        -9.904432209431846
      ],
      [
        "▁foot",
        -9.904547878916947
      ],
      [
        "▁obtain",
        -9.905430666273697
      ],
      [
        "▁Republican",
        -9.908149823071543
      ],
      [
        "▁compare",
        -9.908320123515011
      ],
      [
        "▁contemporar",
        -9.909342650825025
      ],
      [
        "▁multiple",
        -9.909369686267922
      ],
      [
        "▁Southern",
        -9.910499828314173
      ],
      [
        "ford",
        -9.911645971502828
      ],
      [
        "▁starting",
        -9.911806208853465
      ],
      [
        "▁property",
        -9.912583658291956
      ],
      [
        "▁stories",
        -9.912912476382466
      ],
      [
        "▁meaning",
        -9.91305336658308
      ],
      [
        "▁encounter",
        -9.913129471647146
      ],
      [
        "▁Manchester",
        -9.914128016468949
      ],
      [
        "▁Lee",
        -9.91429544400676
      ],
      [
        "▁independent",
        -9.914356357815397
      ],
      [
        "▁risk",
        -9.91467921998333
      ],
      [
        "▁Chief",
        -9.914694618117904
      ],
      [
        "▁concluded",
        -9.914706557580434
      ],
      [
        "▁Harrison",
        -9.915454487446818
      ],
      [
        "▁Super",
        -9.915459288982593
      ],
      [
        "▁pitch",
        -9.91560721935599
      ],
      [
        "▁target",
        -9.915698462144537
      ],
      [
        "▁prominent",
        -9.915943798593904
      ],
      [
        "▁primarily",
        -9.915982810979214
      ],
      [
        "▁royal",
        -9.916526723645967
      ],
      [
        "ecause",
        -9.917038770168272
      ],
      [
        "▁setting",
        -9.917530804465857
      ],
      [
        "▁faile",
        -9.917603186778564
      ],
      [
        "▁Boston",
        -9.917644275845674
      ],
      [
        "▁threat",
        -9.918897252245532
      ],
      [
        "▁Brigade",
        -9.918909281324536
      ],
      [
        "▁weaken",
        -9.918915010895464
      ],
      [
        "▁Games",
        -9.919103781658164
      ],
      [
        "▁extensive",
        -9.91919029769009
      ],
      [
        "▁wall",
        -9.919256359063503
      ],
      [
        "▁Before",
        -9.920867945437434
      ],
      [
        "▁Regiment",
        -9.92202186375275
      ],
      [
        "▁Life",
        -9.92220401149476
      ],
      [
        "▁Vietnam",
        -9.92376474396037
      ],
      [
        "▁1990",
        -9.924284434393176
      ],
      [
        "▁things",
        -9.925293830525598
      ],
      [
        "▁job",
        -9.9258933244499
      ],
      [
        "▁Little",
        -9.926005361880735
      ],
      [
        "▁camp",
        -9.926396450609367
      ],
      [
        "▁federal",
        -9.926780264509802
      ],
      [
        "▁1944",
        -9.927321158809988
      ],
      [
        "▁Line",
        -9.92967091516931
      ],
      [
        "▁schools",
        -9.93084437632108
      ],
      [
        "ill",
        -9.930942764451531
      ],
      [
        "▁houses",
        -9.931122463158328
      ],
      [
        "ring",
        -9.93158830493893
      ],
      [
        "▁Cross",
        -9.931717857550945
      ],
      [
        "▁paid",
        -9.931790367587585
      ],
      [
        "▁reache",
        -9.931976713601747
      ],
      [
        "▁onto",
        -9.933530860389594
      ],
      [
        "▁invasion",
        -9.934432584812996
      ],
      [
        "▁passenger",
        -9.93472289882459
      ],
      [
        "▁companies",
        -9.93673191175152
      ],
      [
        "▁Academ",
        -9.93714163287502
      ],
      [
        "▁quarter",
        -9.937891265754548
      ],
      [
        "▁couple",
        -9.93808538625318
      ],
      [
        "▁measure",
        -9.938175014101317
      ],
      [
        "▁honor",
        -9.938497189580795
      ],
      [
        "▁Post",
        -9.939853140624038
      ],
      [
        "▁tradition",
        -9.940719433976648
      ],
      [
        "aid",
        -9.94088288448884
      ],
      [
        "▁historical",
        -9.941153400116791
      ],
      [
        "▁sense",
        -9.94142802911577
      ],
      [
        "▁participate",
        -9.941602137679489
      ],
      [
        "▁rough",
        -9.942054966882008
      ],
      [
        "▁Live",
        -9.942199885721068
      ],
      [
        "▁slightly",
        -9.94259880110483
      ],
      [
        "▁broke",
        -9.944439214612336
      ],
      [
        "▁powerful",
        -9.944727310123625
      ],
      [
        "▁inch",
        -9.944833910464148
      ],
      [
        "▁reception",
        -9.94521827630196
      ],
      [
        "▁winter",
        -9.94526317251914
      ],
      [
        "▁worker",
        -9.94626142621372
      ],
      [
        "▁volume",
        -9.94641839763374
      ],
      [
        "▁poem",
        -9.946563837337136
      ],
      [
        "▁meet",
        -9.946931308819131
      ],
      [
        "▁degree",
        -9.948087755895958
      ],
      [
        "Series",
        -9.948489397763778
      ],
      [
        "S",
        -9.948773140277366
      ],
      [
        "▁BBC",
        -9.948919084435625
      ],
      [
        "▁reject",
        -9.949680645461866
      ],
      [
        "▁innings",
        -9.951753278463125
      ],
      [
        "▁today",
        -9.951807615545745
      ],
      [
        "▁maximum",
        -9.952842223056669
      ],
      [
        "▁say",
        -9.954003334654567
      ],
      [
        "▁blood",
        -9.954709952604652
      ],
      [
        "▁Joseph",
        -9.956360631606596
      ],
      [
        "▁More",
        -9.957510555355231
      ],
      [
        "▁document",
        -9.958094068452162
      ],
      [
        "▁names",
        -9.958364953336666
      ],
      [
        "▁1920",
        -9.958723360603782
      ],
      [
        "▁1945",
        -9.95873944047243
      ],
      [
        "▁disease",
        -9.959137977645806
      ],
      [
        "▁Museum",
        -9.95944197004288
      ],
      [
        "owned",
        -9.959605291366096
      ],
      [
        "▁Z",
        -9.959899047864663
      ],
      [
        "▁Paris",
        -9.960331168899778
      ],
      [
        "▁policy",
        -9.961013674602356
      ],
      [
        "▁society",
        -9.961330337409798
      ],
      [
        "▁Entertainment",
        -9.961347423085
      ],
      [
        "▁hospital",
        -9.961666905909626
      ],
      [
        "▁label",
        -9.961910104085815
      ],
      [
        "▁'m",
        -9.963422053864608
      ],
      [
        "1941",
        -9.964120315379157
      ],
      [
        "▁writers",
        -9.96480937352866
      ],
      [
        "▁struck",
        -9.967904533542988
      ],
      [
        "▁opportunit",
        -9.969044656384238
      ],
      [
        "▁task",
        -9.969734290979684
      ],
      [
        "▁thousand",
        -9.97082948376476
      ],
      [
        "▁combined",
        -9.97092045494968
      ],
      [
        "▁convert",
        -9.971435005844867
      ],
      [
        "▁Italy",
        -9.971498258954089
      ],
      [
        "▁heart",
        -9.972205960763596
      ],
      [
        "▁murder",
        -9.973513167048727
      ],
      [
        "▁strength",
        -9.974470004259375
      ],
      [
        "▁fill",
        -9.975261107964837
      ],
      [
        "▁reflect",
        -9.975634526552026
      ],
      [
        "▁battleship",
        -9.976605872722974
      ],
      [
        "▁background",
        -9.9779531578206
      ],
      [
        "▁sexual",
        -9.97797683324537
      ],
      [
        "appears",
        -9.97963842914559
      ],
      [
        "▁contrast",
        -9.979694524927485
      ],
      [
        "▁Avenue",
        -9.979801464927268
      ],
      [
        "▁railway",
        -9.980301519042076
      ],
      [
        "▁Production",
        -9.980409168729564
      ],
      [
        "▁your",
        -9.983042801136996
      ],
      [
        "▁naval",
        -9.983113091619847
      ],
      [
        "▁nominated",
        -9.983911116762783
      ],
      [
        "older",
        -9.983938866360289
      ],
      [
        "▁foreign",
        -9.984732320723255
      ],
      [
        "▁repair",
        -9.98474567063382
      ],
      [
        "▁33",
        -9.984862229088948
      ],
      [
        "▁pick",
        -9.985918106769406
      ],
      [
        "▁succeed",
        -9.98643248852724
      ],
      [
        "▁treatment",
        -9.988304240587729
      ],
      [
        "▁150",
        -9.988421517817011
      ],
      [
        "▁Ireland",
        -9.988855133199404
      ],
      [
        "▁weather",
        -9.98895511011657
      ],
      [
        "▁husband",
        -9.98946125093264
      ],
      [
        "▁bring",
        -9.98981438629916
      ],
      [
        "▁incident",
        -9.991275111401578
      ],
      [
        "▁blue",
        -9.992837474148908
      ],
      [
        "▁attempts",
        -9.9933046110109
      ],
      [
        "▁proved",
        -9.993404646760569
      ],
      [
        "▁secure",
        -9.995491207033863
      ],
      [
        "▁electric",
        -9.995706654325664
      ],
      [
        "▁Republic",
        -9.995728464801015
      ],
      [
        "▁promoted",
        -9.995973257165897
      ],
      [
        "▁widely",
        -9.99611490620178
      ],
      [
        "▁Stephen",
        -9.996335412224475
      ],
      [
        "acting",
        -9.997133190753546
      ],
      [
        "▁1989",
        -9.997557924543868
      ],
      [
        "▁block",
        -9.997598866552735
      ],
      [
        "▁Victoria",
        -9.998350870645558
      ],
      [
        "▁calling",
        -9.99910074965168
      ],
      [
        "▁Long",
        -9.999684328120429
      ],
      [
        "▁native",
        -10.000038491229413
      ],
      [
        "▁surrounding",
        -10.000300822136923
      ],
      [
        "▁difference",
        -10.000681595936886
      ],
      [
        "▁respond",
        -10.00079659564178
      ],
      [
        "▁sixth",
        -10.000900821309864
      ],
      [
        "▁theory",
        -10.001246636260966
      ],
      [
        "▁raid",
        -10.001447623930076
      ],
      [
        "▁Home",
        -10.001596341759832
      ],
      [
        "▁1943",
        -10.003563162567794
      ],
      [
        "▁Jim",
        -10.003575332596652
      ],
      [
        "▁box",
        -10.004787085216655
      ],
      [
        "▁platform",
        -10.00510444752147
      ],
      [
        "▁fail",
        -10.005443679914332
      ],
      [
        "▁sources",
        -10.005853025747214
      ],
      [
        "▁sides",
        -10.00594262245606
      ],
      [
        "▁landing",
        -10.006336451243882
      ],
      [
        "▁county",
        -10.006542164410217
      ],
      [
        "▁effective",
        -10.006654226247605
      ],
      [
        "▁cruiser",
        -10.007478081506497
      ],
      [
        "presented",
        -10.009397578853998
      ],
      [
        "▁floor",
        -10.01055838290788
      ],
      [
        "▁passing",
        -10.011834184863693
      ],
      [
        "▁website",
        -10.012164963470608
      ],
      [
        "▁Tropical",
        -10.012174076386644
      ],
      [
        "▁student",
        -10.013330985144028
      ],
      [
        "▁soundtrack",
        -10.01387330874504
      ],
      [
        "▁36",
        -10.014162603599305
      ],
      [
        "▁true",
        -10.01428760384789
      ],
      [
        "▁secret",
        -10.01508478410462
      ],
      [
        "▁actions",
        -10.01514451448717
      ],
      [
        "▁Valley",
        -10.015275217801756
      ],
      [
        "▁cities",
        -10.015312899478324
      ],
      [
        "▁believ",
        -10.015666758131257
      ],
      [
        "▁divide",
        -10.016317481168803
      ],
      [
        "▁Parliament",
        -10.016368606933188
      ],
      [
        "▁establish",
        -10.016806068618529
      ],
      [
        "▁attract",
        -10.016831565219505
      ],
      [
        "▁lot",
        -10.016963138637372
      ],
      [
        "▁37",
        -10.017097818627134
      ],
      [
        "▁premiere",
        -10.017284943307724
      ],
      [
        "▁district",
        -10.017365118369684
      ],
      [
        "▁sex",
        -10.017834925424632
      ],
      [
        "▁ice",
        -10.018215782479572
      ],
      [
        "▁declare",
        -10.018262873068318
      ],
      [
        "▁Be",
        -10.018867106872566
      ],
      [
        "▁agreement",
        -10.02270724651984
      ],
      [
        "un",
        -10.02280917836587
      ],
      [
        "▁'re",
        -10.0231072196475
      ],
      [
        "▁Dutch",
        -10.023133136781956
      ],
      [
        "▁begin",
        -10.024278456987348
      ],
      [
        "▁organization",
        -10.02579382855245
      ],
      [
        "▁nomination",
        -10.026080045655556
      ],
      [
        "▁kg",
        -10.02683992533197
      ],
      [
        "▁Dr.",
        -10.028018811958464
      ],
      [
        "▁fuel",
        -10.028260850672924
      ],
      [
        "▁38",
        -10.028453718675726
      ],
      [
        "▁artillery",
        -10.028903359596086
      ],
      [
        "▁comment",
        -10.032394025099498
      ],
      [
        "▁says",
        -10.032932938293344
      ],
      [
        "▁weight",
        -10.033447088840973
      ],
      [
        "▁ahead",
        -10.034515355326665
      ],
      [
        "▁factor",
        -10.035074974661743
      ],
      [
        "▁Carolina",
        -10.035235396311185
      ],
      [
        "▁forms",
        -10.03542843667504
      ],
      [
        "▁armor",
        -10.03555373974858
      ],
      [
        "▁Show",
        -10.037598938641908
      ],
      [
        "▁failure",
        -10.038433365356122
      ],
      [
        "▁coin",
        -10.038983485720506
      ],
      [
        "▁reign",
        -10.03900585812384
      ],
      [
        "▁negative",
        -10.039051790969856
      ],
      [
        "▁vote",
        -10.039849649247197
      ],
      [
        "▁senior",
        -10.04080641071416
      ],
      [
        "▁appeal",
        -10.04124869852117
      ],
      [
        "▁apparent",
        -10.041285471049529
      ],
      [
        "▁34",
        -10.041361066554126
      ],
      [
        "▁prais",
        -10.04141039197901
      ],
      [
        "▁officials",
        -10.04154145287269
      ],
      [
        "▁seek",
        -10.043198388071191
      ],
      [
        "▁represented",
        -10.043764314042583
      ],
      [
        "▁Fleet",
        -10.044917664911097
      ],
      [
        "▁weapons",
        -10.045108895106868
      ],
      [
        "▁What",
        -10.045155598176688
      ],
      [
        "▁C.",
        -10.04518026703932
      ],
      [
        "▁girl",
        -10.046064401734649
      ],
      [
        "▁alone",
        -10.046833744481347
      ],
      [
        "▁kilometre",
        -10.047213053469374
      ],
      [
        "▁injury",
        -10.049145764981228
      ],
      [
        "▁equipment",
        -10.049174623774205
      ],
      [
        "▁Korean",
        -10.051211667683846
      ],
      [
        "▁pattern",
        -10.052719974319364
      ],
      [
        "▁Though",
        -10.05309156121879
      ],
      [
        "▁tournament",
        -10.054022645607308
      ],
      [
        "▁strike",
        -10.05415395747647
      ],
      [
        "▁doing",
        -10.054603774146708
      ],
      [
        "▁Young",
        -10.05548401926852
      ],
      [
        "▁2nd",
        -10.055554323163188
      ],
      [
        "passes",
        -10.056168656045044
      ],
      [
        "▁growth",
        -10.056328015816703
      ],
      [
        "▁Governor",
        -10.05806775266485
      ],
      [
        "▁Football",
        -10.058485439141824
      ],
      [
        "▁1980s",
        -10.05860238040735
      ],
      [
        "▁medical",
        -10.05969684835913
      ],
      [
        "▁Duke",
        -10.060003130201828
      ],
      [
        "▁Castle",
        -10.06130454536286
      ],
      [
        "▁except",
        -10.061374336891266
      ],
      [
        "▁equal",
        -10.06237676494012
      ],
      [
        "▁surviv",
        -10.06292176456198
      ],
      [
        "residents",
        -10.063312287763576
      ],
      [
        "▁Northern",
        -10.063584643477496
      ],
      [
        "▁discuss",
        -10.066133056370823
      ],
      [
        "▁Government",
        -10.067178099326927
      ],
      [
        "be",
        -10.067209698514512
      ],
      [
        "▁wicket",
        -10.068156622477476
      ],
      [
        "▁meter",
        -10.068390409287977
      ],
      [
        "▁laid",
        -10.068610151660469
      ],
      [
        "▁Homer",
        -10.068907012302684
      ],
      [
        "▁affected",
        -10.071437582382286
      ],
      [
        "▁destroy",
        -10.071724485932238
      ],
      [
        "▁care",
        -10.07208374429007
      ],
      [
        "▁District",
        -10.072598855494531
      ],
      [
        "▁Port",
        -10.072761039203044
      ],
      [
        "▁championship",
        -10.072803433262552
      ],
      [
        "▁formal",
        -10.072863715895862
      ],
      [
        "▁designate",
        -10.073272365791048
      ],
      [
        "▁committee",
        -10.073416111347289
      ],
      [
        "▁offensive",
        -10.073918214862978
      ],
      [
        "ch",
        -10.074056547805997
      ],
      [
        "▁Its",
        -10.074877574620457
      ],
      [
        "▁recall",
        -10.075407112976666
      ],
      [
        "▁birth",
        -10.075882099996774
      ],
      [
        "▁big",
        -10.076314247606298
      ],
      [
        "▁plays",
        -10.077553388441055
      ],
      [
        "▁Van",
        -10.077899496021317
      ],
      [
        "▁prisoner",
        -10.078238415556449
      ],
      [
        "▁Art",
        -10.078729091804345
      ],
      [
        "▁governor",
        -10.079792203251005
      ],
      [
        "▁killing",
        -10.080362835445422
      ],
      [
        "▁Storm",
        -10.080802778896093
      ],
      [
        "▁Admiral",
        -10.081124181938328
      ],
      [
        "▁Scottish",
        -10.083373130726288
      ],
      [
        "▁figures",
        -10.084163449086224
      ],
      [
        "▁push",
        -10.084186344965618
      ],
      [
        "▁1987",
        -10.084237178927935
      ],
      [
        "▁fired",
        -10.084291608602898
      ],
      [
        "▁1970s",
        -10.084314041189131
      ],
      [
        "▁aspect",
        -10.085371952735771
      ],
      [
        "▁worldwide",
        -10.085797614860736
      ],
      [
        "▁Operation",
        -10.085984686259838
      ],
      [
        "▁territory",
        -10.08603856875892
      ],
      [
        "▁1988",
        -10.087574962658811
      ],
      [
        "▁Top",
        -10.08765813914347
      ],
      [
        "▁1960s",
        -10.087789536846834
      ],
      [
        "▁stand",
        -10.088378668285872
      ],
      [
        "▁interchange",
        -10.089574667195244
      ],
      [
        "▁Fantasy",
        -10.09039411865711
      ],
      [
        "▁proposal",
        -10.090978319660772
      ],
      [
        "▁chance",
        -10.09130435134159
      ],
      [
        "▁statement",
        -10.091358094260585
      ],
      [
        "▁intersection",
        -10.091778948227738
      ],
      [
        "▁Bond",
        -10.09181670892652
      ],
      [
        "▁trying",
        -10.092058024508123
      ],
      [
        "▁Background",
        -10.092080099852136
      ],
      [
        "▁sequence",
        -10.092329172653615
      ],
      [
        "▁green",
        -10.09246142113482
      ],
      [
        "ment",
        -10.09355418077046
      ],
      [
        "▁Short",
        -10.09435709046458
      ],
      [
        "▁thick",
        -10.095093597553124
      ],
      [
        "▁wave",
        -10.095129131789188
      ],
      [
        "▁famous",
        -10.09526837308184
      ],
      [
        "▁eye",
        -10.095371101370704
      ],
      [
        "▁rainfall",
        -10.09544464773729
      ],
      [
        "well",
        -10.095905262057538
      ],
      [
        "▁600",
        -10.097280724961182
      ],
      [
        "▁therefore",
        -10.097462944759254
      ],
      [
        "▁Ben",
        -10.099124996516307
      ],
      [
        "▁Prime",
        -10.099231157470706
      ],
      [
        "▁composition",
        -10.099272279596542
      ],
      [
        "▁System",
        -10.099828595689283
      ],
      [
        "▁chosen",
        -10.10082742196258
      ],
      [
        "▁twice",
        -10.100857531923753
      ],
      [
        "▁Polish",
        -10.10101870941205
      ],
      [
        "▁supply",
        -10.103101655388924
      ],
      [
        "▁Senate",
        -10.10493148219594
      ],
      [
        "▁trees",
        -10.10537808420832
      ],
      [
        "▁Co",
        -10.105456805987815
      ],
      [
        "▁leaders",
        -10.106338317432208
      ],
      [
        "▁Christmas",
        -10.107652650845967
      ],
      [
        "▁billion",
        -10.10818511043981
      ],
      [
        "▁controll",
        -10.108386216684154
      ],
      [
        "▁consecutive",
        -10.108505053511331
      ],
      [
        "▁Mike",
        -10.1086482022032
      ],
      [
        "▁frequently",
        -10.108753392456205
      ],
      [
        "▁Eastern",
        -10.108822876097936
      ],
      [
        "losing",
        -10.108851535977712
      ],
      [
        "▁Festival",
        -10.109191174974823
      ],
      [
        "▁Studios",
        -10.109842561095917
      ],
      [
        "▁sail",
        -10.10992435842308
      ],
      [
        "▁Blue",
        -10.11155418778606
      ],
      [
        "▁Chart",
        -10.111765126025125
      ],
      [
        "▁Joe",
        -10.1123149672102
      ],
      [
        "▁49",
        -10.112574551252925
      ],
      [
        "▁estate",
        -10.112895800477247
      ],
      [
        "▁coming",
        -10.113171362232643
      ],
      [
        "▁headquarter",
        -10.113300687058992
      ],
      [
        "heard",
        -10.113506773456768
      ],
      [
        "▁page",
        -10.114462151617902
      ],
      [
        "▁birds",
        -10.114534181915904
      ],
      [
        "▁Wilson",
        -10.114554563314105
      ],
      [
        "▁herself",
        -10.115715822201343
      ],
      [
        "▁Pennsylvania",
        -10.11656761826748
      ],
      [
        "wise",
        -10.117116306292283
      ],
      [
        "▁boat",
        -10.11713386935803
      ],
      [
        "▁origin",
        -10.118077041961133
      ],
      [
        "▁grew",
        -10.118366260162077
      ],
      [
        "▁Middle",
        -10.11878134797264
      ],
      [
        "▁opinion",
        -10.11880443992817
      ],
      [
        "▁Taylor",
        -10.118985945152902
      ],
      [
        "▁connect",
        -10.11953292106919
      ],
      [
        "▁genre",
        -10.120563430872572
      ],
      [
        "▁simply",
        -10.120882343835104
      ],
      [
        "▁argue",
        -10.121298641854793
      ],
      [
        "▁Allied",
        -10.12149819486786
      ],
      [
        "reaching",
        -10.12296014666572
      ],
      [
        "▁serving",
        -10.125389631837969
      ],
      [
        "▁chose",
        -10.125767372287914
      ],
      [
        "▁comes",
        -10.1259266598981
      ],
      [
        "▁1986",
        -10.126137377036253
      ],
      [
        "▁storyline",
        -10.126292514588728
      ],
      [
        "▁Alexander",
        -10.127476775433616
      ],
      [
        "▁nothing",
        -10.127801285290913
      ],
      [
        "▁drama",
        -10.12792815875154
      ],
      [
        "▁Olympic",
        -10.12855828576438
      ],
      [
        "▁firm",
        -10.12899998035058
      ],
      [
        "▁assault",
        -10.129407714423314
      ],
      [
        "▁camera",
        -10.129460198897316
      ],
      [
        "▁condition",
        -10.130810100434442
      ],
      [
        "▁Each",
        -10.131009012133314
      ],
      [
        "▁connection",
        -10.132491303014255
      ],
      [
        "▁progress",
        -10.1327182343447
      ],
      [
        "▁Mount",
        -10.134167330604749
      ],
      [
        "▁unknown",
        -10.135180965874856
      ],
      [
        "▁simple",
        -10.135234606214508
      ],
      [
        "▁Tech",
        -10.135941425285518
      ],
      [
        "▁expansion",
        -10.137792997607669
      ],
      [
        "▁opposition",
        -10.138331768196569
      ],
      [
        "▁northeast",
        -10.138733873493152
      ],
      [
        "▁Civil",
        -10.139185712667445
      ],
      [
        "▁growing",
        -10.139683138707625
      ],
      [
        "▁environment",
        -10.140090421466011
      ],
      [
        "▁Song",
        -10.14030942869519
      ],
      [
        "▁fiction",
        -10.140403486238892
      ],
      [
        "▁canno",
        -10.140497973680723
      ],
      [
        "▁tower",
        -10.140664550092843
      ],
      [
        "▁mean",
        -10.142080901023313
      ],
      [
        "▁walls",
        -10.142182833146247
      ],
      [
        "▁arms",
        -10.142436658392125
      ],
      [
        "▁opponent",
        -10.143624506018693
      ],
      [
        "▁gas",
        -10.143703466061432
      ],
      [
        "▁favor",
        -10.144679786966805
      ],
      [
        "▁fellow",
        -10.147520742966584
      ],
      [
        "▁Of",
        -10.147748385068308
      ],
      [
        "▁tax",
        -10.147870867191982
      ],
      [
        "▁basis",
        -10.147973610302552
      ],
      [
        "▁expedition",
        -10.14809740376367
      ],
      [
        "▁civil",
        -10.148445136518772
      ],
      [
        "▁reserve",
        -10.148568684656214
      ],
      [
        "▁capacity",
        -10.148691233525357
      ],
      [
        "▁kill",
        -10.149614223720668
      ],
      [
        "▁Reception",
        -10.14965877758453
      ],
      [
        "▁Railway",
        -10.15003232037975
      ],
      [
        "▁B.",
        -10.150656431897064
      ],
      [
        "▁budget",
        -10.150766798893184
      ],
      [
        "▁crossing",
        -10.150804437530171
      ],
      [
        "N",
        -10.15104802826663
      ],
      [
        "▁hire",
        -10.152678276721185
      ],
      [
        "▁contained",
        -10.15286013797413
      ],
      [
        "▁Irish",
        -10.153661594485811
      ],
      [
        "▁leg",
        -10.153938054182788
      ],
      [
        "▁Further",
        -10.153942107341376
      ],
      [
        "▁Institute",
        -10.154987784650196
      ],
      [
        "▁starr",
        -10.157168884010131
      ],
      [
        "▁55",
        -10.15741341199569
      ],
      [
        "▁hands",
        -10.158081723801317
      ],
      [
        "▁Harry",
        -10.160180138009697
      ],
      [
        "▁message",
        -10.160338574835048
      ],
      [
        "▁standing",
        -10.160821688360862
      ],
      [
        "▁purpose",
        -10.161751700646787
      ],
      [
        "▁Jersey",
        -10.161837693737535
      ],
      [
        "▁Spain",
        -10.162060352439838
      ],
      [
        "▁administration",
        -10.162198491111198
      ],
      [
        "▁flying",
        -10.163053863038408
      ],
      [
        "▁exchange",
        -10.164221981981395
      ],
      [
        "▁introduc",
        -10.165640877079866
      ],
      [
        "▁Ocean",
        -10.165749926326855
      ],
      [
        "▁respect",
        -10.1657637287947
      ],
      [
        "▁trip",
        -10.165831620813185
      ],
      [
        "▁criticism",
        -10.16589423941605
      ],
      [
        "▁beyond",
        -10.167271531683662
      ],
      [
        "▁walk",
        -10.167328947813022
      ],
      [
        "▁Due",
        -10.167604371919436
      ],
      [
        "▁tree",
        -10.168132062957657
      ],
      [
        "▁deck",
        -10.168263978424465
      ],
      [
        "▁Coast",
        -10.16910285691284
      ],
      [
        "▁count",
        -10.169118241237864
      ],
      [
        "▁Sam",
        -10.16989954727772
      ],
      [
        "▁convince",
        -10.170706505788289
      ],
      [
        "▁spread",
        -10.171181644874888
      ],
      [
        "▁Doctor",
        -10.171948336407466
      ],
      [
        "▁stations",
        -10.17199067584102
      ],
      [
        "▁unique",
        -10.172017315513754
      ],
      [
        "▁S.",
        -10.173404651540524
      ],
      [
        "▁Mr.",
        -10.173604455697244
      ],
      [
        "▁Town",
        -10.173967124077269
      ],
      [
        "▁assume",
        -10.174198220493397
      ],
      [
        "▁1939",
        -10.174753324827291
      ],
      [
        "▁silver",
        -10.17500815548617
      ],
      [
        "possibly",
        -10.175224550559772
      ],
      [
        "▁spring",
        -10.17666860772429
      ],
      [
        "▁compar",
        -10.176815236227355
      ],
      [
        "▁Four",
        -10.17742753559494
      ],
      [
        "▁fear",
        -10.178326900118613
      ],
      [
        "▁196",
        -10.178475933628343
      ],
      [
        "▁1970",
        -10.178645182196526
      ],
      [
        "▁'ve",
        -10.178694706783084
      ],
      [
        "▁occupie",
        -10.178834084852465
      ],
      [
        "▁Ma",
        -10.17962584400568
      ],
      [
        "▁struggle",
        -10.180081577136791
      ],
      [
        "▁recognize",
        -10.18035672997092
      ],
      [
        "▁Elizabeth",
        -10.180929359920077
      ],
      [
        "▁retreat",
        -10.181306990349796
      ],
      [
        "▁Light",
        -10.18292320618434
      ],
      [
        "▁segment",
        -10.182952843082772
      ],
      [
        "▁producers",
        -10.183051964466513
      ],
      [
        "▁greates",
        -10.183762609184445
      ],
      [
        "more",
        -10.183793782095764
      ],
      [
        "▁bodies",
        -10.184338742796337
      ],
      [
        "▁choice",
        -10.18559775226962
      ],
      [
        "▁data",
        -10.185810104745956
      ],
      [
        "▁horses",
        -10.18599794442374
      ],
      [
        "▁advantage",
        -10.188069288553804
      ],
      [
        "ship",
        -10.18881806099281
      ],
      [
        "▁Commission",
        -10.18888309316933
      ],
      [
        "▁warning",
        -10.189150592087609
      ],
      [
        "either",
        -10.189364281696752
      ],
      [
        "▁flag",
        -10.19124705007709
      ],
      [
        "▁creation",
        -10.19127824941192
      ],
      [
        "▁split",
        -10.19169698783066
      ],
      [
        "▁protest",
        -10.19177882758835
      ],
      [
        "bound",
        -10.19204197952894
      ],
      [
        "▁Single",
        -10.192164311585046
      ],
      [
        "▁Cambridge",
        -10.19220970104416
      ],
      [
        "P",
        -10.19251807285348
      ],
      [
        "▁cultural",
        -10.19264728920124
      ],
      [
        "▁selection",
        -10.19319890438092
      ],
      [
        "▁visual",
        -10.193207391781243
      ],
      [
        "head",
        -10.193512554223842
      ],
      [
        "▁1985",
        -10.19356536563742
      ],
      [
        "▁1968",
        -10.193703627935042
      ],
      [
        "▁necessar",
        -10.19390178431158
      ],
      [
        "▁item",
        -10.194103155465363
      ],
      [
        "▁article",
        -10.196253649194512
      ],
      [
        "▁personnel",
        -10.196861434091074
      ],
      [
        "▁Meanwhile",
        -10.19816953425978
      ],
      [
        "▁hop",
        -10.198624725282707
      ],
      [
        "▁approve",
        -10.19870409942055
      ],
      [
        "▁twelve",
        -10.19891634210638
      ],
      [
        "▁1990s",
        -10.199335956512344
      ],
      [
        "▁repeated",
        -10.200998143470567
      ],
      [
        "▁arrangement",
        -10.201009498654535
      ],
      [
        "ur",
        -10.201559454193353
      ],
      [
        "▁48",
        -10.201651727878607
      ],
      [
        "▁surrender",
        -10.202100460314456
      ],
      [
        "▁leadership",
        -10.202171309442146
      ],
      [
        "▁Bob",
        -10.202177097702153
      ],
      [
        "▁Album",
        -10.2023418110273
      ],
      [
        "▁Also",
        -10.202444353574885
      ],
      [
        "▁armed",
        -10.20254759518641
      ],
      [
        "▁beat",
        -10.203028831274851
      ],
      [
        "▁characteristic",
        -10.203846122221185
      ],
      [
        "▁Islands",
        -10.203959675527456
      ],
      [
        "▁narrow",
        -10.204494291538474
      ],
      [
        "▁Board",
        -10.204681290622062
      ],
      [
        "▁inform",
        -10.205303392802504
      ],
      [
        "▁management",
        -10.205553833037058
      ],
      [
        "▁torpedo",
        -10.206111382317667
      ],
      [
        "▁Point",
        -10.20636768990492
      ],
      [
        "▁infantry",
        -10.206990973488072
      ],
      [
        "▁threaten",
        -10.207586552747154
      ],
      [
        "▁lives",
        -10.208191482754051
      ],
      [
        "▁broad",
        -10.208255807876013
      ],
      [
        "▁tail",
        -10.2084695606023
      ],
      [
        "▁Order",
        -10.20857275693141
      ],
      [
        "j",
        -10.209548118275984
      ],
      [
        "▁description",
        -10.209821779050444
      ],
      [
        "▁conference",
        -10.21005011716404
      ],
      [
        "▁Secretary",
        -10.210414807679582
      ],
      [
        "▁height",
        -10.210990136594368
      ],
      [
        "▁BC",
        -10.211363651383136
      ],
      [
        "▁northwest",
        -10.211722425915692
      ],
      [
        "▁Americans",
        -10.21257162074291
      ],
      [
        "▁composer",
        -10.21272139173285
      ],
      [
        "▁newly",
        -10.213582945221363
      ],
      [
        "▁require",
        -10.213896143922
      ],
      [
        "▁ancient",
        -10.213989872020395
      ],
      [
        "▁Arthur",
        -10.214151107795464
      ],
      [
        "▁draw",
        -10.214675524224363
      ],
      [
        "▁mind",
        -10.214861935360693
      ],
      [
        "▁settle",
        -10.215042976698658
      ],
      [
        "▁1984",
        -10.215566151533546
      ],
      [
        "▁parallel",
        -10.215887807400044
      ],
      [
        "▁text",
        -10.216042757445477
      ],
      [
        "▁fought",
        -10.21616182543518
      ],
      [
        "▁benefit",
        -10.21627068764063
      ],
      [
        "security",
        -10.21629165983964
      ],
      [
        "▁desire",
        -10.216319210907027
      ],
      [
        "▁1980",
        -10.21736505384492
      ],
      [
        "▁permanent",
        -10.217793746614912
      ],
      [
        "▁caught",
        -10.217798176853728
      ],
      [
        "▁finding",
        -10.218393054506558
      ],
      [
        "▁Philadelphia",
        -10.218747018653843
      ],
      [
        "▁holding",
        -10.219024947556354
      ],
      [
        "▁brown",
        -10.219216790951112
      ],
      [
        "▁accompanie",
        -10.219653763676394
      ],
      [
        "▁perfect",
        -10.220509275993203
      ],
      [
        "▁Georgia",
        -10.220616761139476
      ],
      [
        "▁65",
        -10.220926012903677
      ],
      [
        "▁arrival",
        -10.22155824781451
      ],
      [
        "▁franchise",
        -10.221605714930968
      ],
      [
        "▁alternative",
        -10.221995027319313
      ],
      [
        "▁critic",
        -10.222288632307237
      ],
      [
        "▁rescue",
        -10.22273587603175
      ],
      [
        "▁Never",
        -10.222852477296335
      ],
      [
        "▁edge",
        -10.22295578950313
      ],
      [
        "▁peace",
        -10.223120881390496
      ],
      [
        "▁broken",
        -10.223264704682396
      ],
      [
        "▁contest",
        -10.223490510210963
      ],
      [
        "▁pull",
        -10.223544455433531
      ],
      [
        "theles",
        -10.223585079692992
      ],
      [
        "▁Ohio",
        -10.223725324382604
      ],
      [
        "▁Night",
        -10.224459892853726
      ],
      [
        "▁centuri",
        -10.22466990897475
      ],
      [
        "▁fan",
        -10.225493428341814
      ],
      [
        "▁driver",
        -10.226179767728944
      ],
      [
        "▁comedy",
        -10.227692394372609
      ],
      [
        "▁seventh",
        -10.228884883507492
      ],
      [
        "▁Grant",
        -10.229701920970712
      ],
      [
        "▁don",
        -10.22986374452722
      ],
      [
        "▁occasional",
        -10.230571335450632
      ],
      [
        "▁batt",
        -10.230874114934084
      ],
      [
        "▁investigation",
        -10.231056331933567
      ],
      [
        "▁follows",
        -10.231236470542738
      ],
      [
        "▁oppos",
        -10.231467214997997
      ],
      [
        "▁solo",
        -10.232447231181697
      ],
      [
        "▁Andrew",
        -10.232991996105756
      ],
      [
        "▁64",
        -10.233296321720989
      ],
      [
        "▁nuclear",
        -10.233866357626107
      ],
      [
        "▁Russia",
        -10.234427174205662
      ],
      [
        "▁MD",
        -10.23504330187757
      ],
      [
        "▁finish",
        -10.235219619828984
      ],
      [
        "▁41",
        -10.23538453519625
      ],
      [
        "▁defensive",
        -10.236063655908625
      ],
      [
        "▁1967",
        -10.236494680604316
      ],
      [
        "▁genus",
        -10.236502831436724
      ],
      [
        "▁semi",
        -10.237062126060431
      ],
      [
        "▁People",
        -10.237232963962969
      ],
      [
        "▁store",
        -10.238398430775892
      ],
      [
        "▁didn",
        -10.238895396010324
      ],
      [
        "▁mile",
        -10.239298898037164
      ],
      [
        "▁recommend",
        -10.23930049231538
      ],
      [
        "▁encourage",
        -10.239716001654084
      ],
      [
        "▁Development",
        -10.23976170846494
      ],
      [
        "▁zone",
        -10.240019242088572
      ],
      [
        "artists",
        -10.240662187633315
      ],
      [
        "▁affair",
        -10.241317501711071
      ],
      [
        "▁800",
        -10.241589749191077
      ],
      [
        "▁ideas",
        -10.241764465223168
      ],
      [
        "▁council",
        -10.242535873872084
      ],
      [
        "▁Square",
        -10.243269099382044
      ],
      [
        "▁familie",
        -10.24349265816791
      ],
      [
        "▁Ottoman",
        -10.243932341614771
      ],
      [
        "▁Among",
        -10.244080264954988
      ],
      [
        "▁Liverpoo",
        -10.244255813668182
      ],
      [
        "▁plants",
        -10.24465138901874
      ],
      [
        "▁Go",
        -10.244742478436192
      ],
      [
        "▁determined",
        -10.245602904496902
      ],
      [
        "▁motion",
        -10.246012977258458
      ],
      [
        "▁Nintendo",
        -10.24620692822688
      ],
      [
        "▁rear",
        -10.24699495630395
      ],
      [
        "▁breed",
        -10.24769683254991
      ],
      [
        "▁J",
        -10.248215354012473
      ],
      [
        "▁39",
        -10.249078241052183
      ],
      [
        "▁Columbia",
        -10.249294979908166
      ],
      [
        "▁planet",
        -10.250459855706456
      ],
      [
        "▁turret",
        -10.250529598580194
      ],
      [
        "▁crowd",
        -10.250949606107651
      ],
      [
        "▁computer",
        -10.25098841622059
      ],
      [
        "▁counter",
        -10.251063449574673
      ],
      [
        "▁prison",
        -10.251493425302666
      ],
      [
        "▁temple",
        -10.251518116076276
      ],
      [
        "▁casualt",
        -10.252474647556324
      ],
      [
        "▁Asia",
        -10.25342751242824
      ],
      [
        "▁dollar",
        -10.253894213575355
      ],
      [
        "▁Lieutenant",
        -10.254080209690764
      ],
      [
        "▁grow",
        -10.25454908837619
      ],
      [
        "▁Additional",
        -10.254757517068184
      ],
      [
        "der",
        -10.254873917819545
      ],
      [
        "▁singing",
        -10.255039994558803
      ],
      [
        "▁Re",
        -10.256378898909238
      ],
      [
        "▁shooting",
        -10.256456945160876
      ],
      [
        "▁H.",
        -10.256549597351466
      ],
      [
        "▁piano",
        -10.257263069866136
      ],
      [
        "▁instrument",
        -10.257806147064793
      ],
      [
        "▁Lincoln",
        -10.259032679160423
      ],
      [
        "R",
        -10.259135841321502
      ],
      [
        "▁singles",
        -10.25927786586904
      ],
      [
        "▁touchdown",
        -10.259634667650824
      ],
      [
        "▁rise",
        -10.25992881779123
      ],
      [
        "▁Do",
        -10.260082970596985
      ],
      [
        "▁gradual",
        -10.261020909935707
      ],
      [
        "▁47",
        -10.26106827310201
      ],
      [
        "▁Office",
        -10.262203720635371
      ],
      [
        "commissioned",
        -10.262431666170835
      ],
      [
        "▁Lewis",
        -10.262625718400468
      ],
      [
        "D",
        -10.262989802563265
      ],
      [
        "▁News",
        -10.263147811132937
      ],
      [
        "▁specimen",
        -10.263211796729314
      ],
      [
        "▁Gulf",
        -10.263523225890452
      ],
      [
        "▁younger",
        -10.263580139416389
      ],
      [
        "▁1983",
        -10.264278734554336
      ],
      [
        "▁announc",
        -10.26511506365816
      ],
      [
        "▁paint",
        -10.265251997933156
      ],
      [
        "▁address",
        -10.265312564874424
      ],
      [
        "▁collapse",
        -10.266192957451938
      ],
      [
        "▁brigade",
        -10.26640917516294
      ],
      [
        "▁sports",
        -10.266796750363556
      ],
      [
        "▁Jewish",
        -10.266808294266612
      ],
      [
        "▁street",
        -10.266857149550882
      ],
      [
        "▁colour",
        -10.2674458005447
      ],
      [
        "▁M.",
        -10.268473968937135
      ],
      [
        "▁Francisco",
        -10.268812358022496
      ],
      [
        "▁Miller",
        -10.26979292654563
      ],
      [
        "▁Anderson",
        -10.269918582538809
      ],
      [
        "▁Law",
        -10.27029172803197
      ],
      [
        "▁refer",
        -10.270433710019317
      ],
      [
        "▁ceremony",
        -10.27081866958606
      ],
      [
        "▁protection",
        -10.271186999028664
      ],
      [
        "▁bomb",
        -10.272110895013617
      ],
      [
        "▁quite",
        -10.272186921052796
      ],
      [
        "▁Radio",
        -10.272279790030629
      ],
      [
        "▁1969",
        -10.272796707195528
      ],
      [
        "▁invite",
        -10.272991554530606
      ],
      [
        "▁partial",
        -10.273285674674948
      ],
      [
        "▁seconds",
        -10.273850422018702
      ],
      [
        "▁supporter",
        -10.2746211358497
      ],
      [
        "▁household",
        -10.275258242934765
      ],
      [
        "▁Carey",
        -10.275988604312069
      ],
      [
        "▁acquire",
        -10.276463400780058
      ],
      [
        "▁dedicated",
        -10.27690810469913
      ],
      [
        "▁comic",
        -10.277113226810895
      ],
      [
        "▁Davis",
        -10.277714501855936
      ],
      [
        "▁Disney",
        -10.278281399078915
      ],
      [
        "▁carry",
        -10.278303294492067
      ],
      [
        "▁intensity",
        -10.280322324375568
      ],
      [
        "▁Field",
        -10.281133289773871
      ],
      [
        "▁Emperor",
        -10.281322777423826
      ],
      [
        "▁extra",
        -10.2813559401458
      ],
      [
        "▁victim",
        -10.281966179204524
      ],
      [
        "▁Conference",
        -10.282135350888185
      ],
      [
        "▁why",
        -10.282141237510306
      ],
      [
        "▁generation",
        -10.282383058202257
      ],
      [
        "▁1914",
        -10.28257087242941
      ],
      [
        "▁Steve",
        -10.283063679616957
      ],
      [
        "▁thing",
        -10.283897753882332
      ],
      [
        "▁1918",
        -10.284457337169291
      ],
      [
        "▁Brian",
        -10.28459627487246
      ],
      [
        "▁HMS",
        -10.284597049915162
      ],
      [
        "▁types",
        -10.284989096707672
      ],
      [
        "▁PlayStation",
        -10.285392351181862
      ],
      [
        "▁roads",
        -10.285775382087412
      ],
      [
        "rated",
        -10.286452679178865
      ],
      [
        "▁1982",
        -10.286496199946724
      ],
      [
        "▁promise",
        -10.28693767581028
      ],
      [
        "▁farm",
        -10.288290934979548
      ],
      [
        "1971",
        -10.288493011305809
      ],
      [
        "▁CD",
        -10.288890785719603
      ],
      [
        "▁provid",
        -10.289892721760408
      ],
      [
        "mentioned",
        -10.29007648688764
      ],
      [
        "▁Walter",
        -10.290133732992452
      ],
      [
        "▁depend",
        -10.290657046238715
      ],
      [
        "aired",
        -10.290976256598857
      ],
      [
        "▁1966",
        -10.29123276079612
      ],
      [
        "▁mounted",
        -10.291681424083814
      ],
      [
        "▁1972",
        -10.291795604745344
      ],
      [
        "▁SR",
        -10.292466627864508
      ],
      [
        "ier",
        -10.292733788086988
      ],
      [
        "▁Earl",
        -10.292781236052486
      ],
      [
        "▁1979",
        -10.292990864628992
      ],
      [
        "▁shift",
        -10.29320231921762
      ],
      [
        "▁mountain",
        -10.293651151659764
      ],
      [
        "▁representative",
        -10.293775840467468
      ],
      [
        "▁promotion",
        -10.29411633895549
      ],
      [
        "stead",
        -10.294187627890242
      ],
      [
        "▁rain",
        -10.294537907428996
      ],
      [
        "▁principal",
        -10.297088141411706
      ],
      [
        "▁Onc",
        -10.297377033480906
      ],
      [
        "▁constant",
        -10.297773352059671
      ],
      [
        "▁drawn",
        -10.298670473749397
      ],
      [
        "▁Jean",
        -10.299019261326537
      ],
      [
        "▁winner",
        -10.299173839475948
      ],
      [
        "ive",
        -10.29925535078279
      ],
      [
        "▁experiment",
        -10.299440167728845
      ],
      [
        "▁accident",
        -10.299503573850089
      ],
      [
        "▁department",
        -10.299856937419005
      ],
      [
        "▁notable",
        -10.300129309856068
      ],
      [
        "▁wild",
        -10.300175137439998
      ],
      [
        "▁escort",
        -10.30178861180224
      ],
      [
        "ter",
        -10.303037320839104
      ],
      [
        "▁orders",
        -10.30320415268561
      ],
      [
        "▁weak",
        -10.303368356222018
      ],
      [
        "▁1965",
        -10.303565960217838
      ],
      [
        "▁NHL",
        -10.304555507785038
      ],
      [
        "▁Wood",
        -10.30468051285004
      ],
      [
        "#",
        -10.304952373551828
      ],
      [
        "▁unusual",
        -10.305576347207769
      ],
      [
        "▁publication",
        -10.306144746490592
      ],
      [
        "ever",
        -10.306516078125467
      ],
      [
        "▁42",
        -10.306521958118434
      ],
      [
        "▁happen",
        -10.307438932568797
      ],
      [
        "▁applie",
        -10.307678519179168
      ],
      [
        "▁yellow",
        -10.30786587693584
      ],
      [
        "▁1975",
        -10.30812363548432
      ],
      [
        "▁analysis",
        -10.308640135963746
      ],
      [
        "▁finds",
        -10.308792176745936
      ],
      [
        "▁surprise",
        -10.309119541288034
      ],
      [
        "▁islands",
        -10.309223589388376
      ],
      [
        "▁Men",
        -10.309833622008984
      ],
      [
        "▁combination",
        -10.310594567604774
      ],
      [
        "▁46",
        -10.311020301586794
      ],
      [
        "▁strengthen",
        -10.31122373748642
      ],
      [
        "▁element",
        -10.311252575232905
      ],
      [
        "▁W.",
        -10.311358276600917
      ],
      [
        "▁Original",
        -10.311481608847744
      ],
      [
        "▁crash",
        -10.312356601751892
      ],
      [
        "▁Not",
        -10.312876777537754
      ],
      [
        "▁shape",
        -10.3129762088914
      ],
      [
        "▁Gold",
        -10.313715914684469
      ],
      [
        "▁core",
        -10.31501088919042
      ],
      [
        "▁destroyer",
        -10.31603953015968
      ],
      [
        "▁hotel",
        -10.316666710950164
      ],
      [
        "▁cold",
        -10.31706114070262
      ],
      [
        "▁debate",
        -10.31719087953795
      ],
      [
        "▁44",
        -10.317556486393295
      ],
      [
        "▁provides",
        -10.318018785288164
      ],
      [
        "▁1974",
        -10.31839500954701
      ],
      [
        "▁flow",
        -10.318797450928855
      ],
      [
        "▁18th",
        -10.320485911505456
      ],
      [
        "▁entrance",
        -10.320885164652932
      ],
      [
        "▁Station",
        -10.321700000571456
      ],
      [
        "▁Democratic",
        -10.322239448897925
      ],
      [
        "▁Ten",
        -10.323321796957536
      ],
      [
        "spread",
        -10.323501668845887
      ],
      [
        "▁1973",
        -10.323685084381555
      ],
      [
        "▁cricket",
        -10.323953412340783
      ],
      [
        "▁Singapore",
        -10.325373727178231
      ],
      [
        "▁Hollywood",
        -10.325528936539229
      ],
      [
        "▁steam",
        -10.326364633520082
      ],
      [
        "M",
        -10.326907129103036
      ],
      [
        "▁climb",
        -10.327212250200622
      ],
      [
        "▁digital",
        -10.327278106275095
      ],
      [
        "▁bar",
        -10.327583677217476
      ],
      [
        "▁fine",
        -10.327917558702618
      ],
      [
        "▁argu",
        -10.329219492931369
      ],
      [
        "▁boats",
        -10.329220655600336
      ],
      [
        "▁Between",
        -10.329366929443454
      ],
      [
        "▁Beyonce",
        -10.330219539916657
      ],
      [
        "▁highlight",
        -10.330258014052204
      ],
      [
        "▁Lady",
        -10.330457851974176
      ],
      [
        "▁Supreme",
        -10.330465560727188
      ],
      [
        "▁1976",
        -10.332605466933709
      ],
      [
        "▁turns",
        -10.332880936109603
      ],
      [
        "▁reduc",
        -10.333030732044358
      ],
      [
        "▁incorporate",
        -10.333079884863844
      ],
      [
        "▁economy",
        -10.33320939693722
      ],
      [
        "▁decide",
        -10.33324694532766
      ],
      [
        "▁editor",
        -10.33368656627626
      ],
      [
        "▁reaction",
        -10.33382816028331
      ],
      [
        "▁branch",
        -10.33460262795238
      ],
      [
        "▁hall",
        -10.334628712815462
      ],
      [
        "▁launch",
        -10.334667463820672
      ],
      [
        "all",
        -10.33704682722227
      ],
      [
        "▁hair",
        -10.337422765481657
      ],
      [
        "ium",
        -10.338480397582565
      ],
      [
        "▁iron",
        -10.338807690876832
      ],
      [
        "▁rename",
        -10.339638924134064
      ],
      [
        "▁P.",
        -10.33966869206485
      ],
      [
        "▁depart",
        -10.340395261763508
      ],
      [
        "▁basic",
        -10.340952022570086
      ],
      [
        "▁Colonel",
        -10.341157611101428
      ],
      [
        "▁lap",
        -10.341617149654637
      ],
      [
        "▁programme",
        -10.341637506186512
      ],
      [
        "▁sub",
        -10.342799405964156
      ],
      [
        "▁losses",
        -10.343357399616206
      ],
      [
        "▁Press",
        -10.343724965188748
      ],
      [
        "▁compete",
        -10.344470443447202
      ],
      [
        "▁von",
        -10.345242678656364
      ],
      [
        "▁steel",
        -10.34532806924692
      ],
      [
        "▁fit",
        -10.345357726593424
      ],
      [
        "▁Women",
        -10.345494388510083
      ],
      [
        "F",
        -10.345559203111334
      ],
      [
        "▁declar",
        -10.345856642002296
      ],
      [
        "▁literature",
        -10.346558715387584
      ],
      [
        "▁exact",
        -10.34779918704564
      ],
      [
        "▁try",
        -10.347837077560431
      ],
      [
        "▁Muslim",
        -10.347860688075562
      ],
      [
        "knew",
        -10.348143822639209
      ],
      [
        "▁Daily",
        -10.348389549839377
      ],
      [
        "▁Bell",
        -10.348550590054677
      ],
      [
        "▁suit",
        -10.348787154456096
      ],
      [
        "▁52",
        -10.349460662307782
      ],
      [
        "after",
        -10.350416679286791
      ],
      [
        "▁contribute",
        -10.351782900434795
      ],
      [
        "▁250",
        -10.351798197240422
      ],
      [
        "▁unlike",
        -10.352321716428383
      ],
      [
        "▁consists",
        -10.352390860823386
      ],
      [
        "▁goes",
        -10.352568576425265
      ],
      [
        "▁resistance",
        -10.352894448614052
      ],
      [
        "▁unsuccessful",
        -10.353300801247755
      ],
      [
        "▁joint",
        -10.353539508033249
      ],
      [
        "▁domestic",
        -10.35393841135672
      ],
      [
        "▁technology",
        -10.354392785925034
      ],
      [
        "▁prepared",
        -10.354686805361537
      ],
      [
        "line",
        -10.355370977145576
      ],
      [
        "▁95",
        -10.356041162765866
      ],
      [
        "▁actress",
        -10.356217278032492
      ],
      [
        "▁reputation",
        -10.357236523229403
      ],
      [
        "▁Book",
        -10.35733966494599
      ],
      [
        "▁trains",
        -10.357427312531508
      ],
      [
        "▁introduction",
        -10.358121129882967
      ],
      [
        "▁120",
        -10.358811328584784
      ],
      [
        "▁anything",
        -10.359905327997785
      ],
      [
        "▁habitat",
        -10.36008209671165
      ],
      [
        "▁Summer",
        -10.360300626097718
      ],
      [
        "▁responsibilit",
        -10.360308398878509
      ],
      [
        "▁homes",
        -10.360452954351905
      ],
      [
        "▁significantly",
        -10.360465258956491
      ],
      [
        "▁Bank",
        -10.360954338679152
      ],
      [
        "▁adaptation",
        -10.360989325142045
      ],
      [
        "▁Clark",
        -10.361559483199883
      ],
      [
        "▁disc",
        -10.361625678061973
      ],
      [
        "▁gameplay",
        -10.36179594782452
      ],
      [
        "▁let",
        -10.36233052993915
      ],
      [
        "▁Good",
        -10.362891695057382
      ],
      [
        "▁sequel",
        -10.3629493482053
      ],
      [
        "▁fashion",
        -10.36361017931828
      ],
      [
        "▁Kentucky",
        -10.366259502085422
      ],
      [
        "▁daily",
        -10.366578989960985
      ],
      [
        "▁1946",
        -10.36697269375497
      ],
      [
        "ities",
        -10.367062045665854
      ],
      [
        "▁straight",
        -10.367571189156882
      ],
      [
        "▁1981",
        -10.367913423940829
      ],
      [
        "▁restore",
        -10.368465812667004
      ],
      [
        "▁scientific",
        -10.369147677701626
      ],
      [
        "▁campus",
        -10.370152186512875
      ],
      [
        "▁Airport",
        -10.370340921158505
      ],
      [
        "−",
        -10.370690629667596
      ],
      [
        "▁popularity",
        -10.370733388697628
      ],
      [
        "▁table",
        -10.370743807632346
      ],
      [
        "▁employed",
        -10.371015939841309
      ],
      [
        "▁urban",
        -10.371053027169262
      ],
      [
        "▁freeway",
        -10.371353429484138
      ],
      [
        "▁talk",
        -10.37177104398908
      ],
      [
        "▁journalist",
        -10.371789081340296
      ],
      [
        "▁perhap",
        -10.37202388647793
      ],
      [
        "▁injured",
        -10.3720512880695
      ],
      [
        "▁bank",
        -10.372150425546428
      ],
      [
        "▁seasons",
        -10.372214687768356
      ],
      [
        "▁43",
        -10.372221001340913
      ],
      [
        "▁eyes",
        -10.373681244642608
      ],
      [
        "▁derive",
        -10.373785236065288
      ],
      [
        "▁1960",
        -10.37387205814156
      ],
      [
        "▁Norway",
        -10.374261573414564
      ],
      [
        "▁phase",
        -10.374479537734594
      ],
      [
        "▁honour",
        -10.374544390772304
      ],
      [
        "▁lane",
        -10.37477815935948
      ],
      [
        "▁extension",
        -10.375810854645508
      ],
      [
        "▁channel",
        -10.375944882227754
      ],
      [
        "▁price",
        -10.376359676152834
      ],
      [
        "ler",
        -10.376490244900374
      ],
      [
        "▁Golden",
        -10.376721398717788
      ],
      [
        "▁graphic",
        -10.376937463418226
      ],
      [
        "▁watched",
        -10.379067923046254
      ],
      [
        "▁drew",
        -10.379216849815844
      ],
      [
        "▁organize",
        -10.37974403949232
      ],
      [
        "▁1917",
        -10.379757645040232
      ],
      [
        "▁getting",
        -10.379820849271422
      ],
      [
        "▁southeast",
        -10.379846910558753
      ],
      [
        "▁IV",
        -10.380241694051966
      ],
      [
        "▁Public",
        -10.38027845533802
      ],
      [
        "▁remark",
        -10.380358238948482
      ],
      [
        "▁Can",
        -10.38037732198241
      ],
      [
        "coming",
        -10.382289015501808
      ],
      [
        "operating",
        -10.382353671450993
      ],
      [
        "▁Will",
        -10.383774221120468
      ],
      [
        "▁Massachusetts",
        -10.384175439713712
      ],
      [
        "▁museum",
        -10.384185393239502
      ],
      [
        "asily",
        -10.384473273910746
      ],
      [
        "H",
        -10.38464128561189
      ],
      [
        "▁Bowl",
        -10.385298288863938
      ],
      [
        "▁Special",
        -10.385338375882256
      ],
      [
        "▁Daniel",
        -10.385662859108631
      ],
      [
        "actors",
        -10.385673896966145
      ],
      [
        "▁contribution",
        -10.385826474222691
      ],
      [
        "▁journey",
        -10.386356280331167
      ],
      [
        "▁survive",
        -10.386404403210634
      ],
      [
        "▁regions",
        -10.38678257334122
      ],
      [
        "▁depth",
        -10.38726638382502
      ],
      [
        "▁shaped",
        -10.387933846866588
      ],
      [
        "▁dry",
        -10.388434555622254
      ],
      [
        "▁Cape",
        -10.388437321024178
      ],
      [
        "▁internal",
        -10.389117279729629
      ],
      [
        "▁grade",
        -10.389665983298016
      ],
      [
        "▁transfer",
        -10.390623661644408
      ],
      [
        "▁cited",
        -10.390852005912336
      ],
      [
        "▁stadium",
        -10.39110408352732
      ],
      [
        "▁nor",
        -10.391636308233604
      ],
      [
        "▁coal",
        -10.391980861352742
      ],
      [
        "▁watch",
        -10.392667101282004
      ],
      [
        "shire",
        -10.3927929475846
      ],
      [
        "▁distribution",
        -10.392925808732391
      ],
      [
        "▁method",
        -10.39429073691293
      ],
      [
        "▁ends",
        -10.39435568886837
      ],
      [
        "▁possibilit",
        -10.394509304331072
      ],
      [
        "▁favour",
        -10.394691494357724
      ],
      [
        "▁Way",
        -10.395401755802038
      ],
      [
        "▁industrial",
        -10.395493370269325
      ],
      [
        "▁1948",
        -10.395688599912562
      ],
      [
        "▁mouth",
        -10.395754467868931
      ],
      [
        "▁bomber",
        -10.395788723955272
      ],
      [
        "▁bass",
        -10.39633385629306
      ],
      [
        "▁safet",
        -10.396914329265568
      ],
      [
        "▁compound",
        -10.397469907625586
      ],
      [
        "▁1950s",
        -10.397816398103338
      ],
      [
        "▁settlement",
        -10.39877917019722
      ],
      [
        "▁distinct",
        -10.39897694295482
      ],
      [
        "▁cell",
        -10.399203121189307
      ],
      [
        "▁ensure",
        -10.39973780221612
      ],
      [
        "▁Age",
        -10.399842943113512
      ],
      [
        "▁1950",
        -10.400172829540203
      ],
      [
        "▁throw",
        -10.400537587842756
      ],
      [
        "▁register",
        -10.40071555212666
      ],
      [
        "▁existence",
        -10.40073052814432
      ],
      [
        "▁verse",
        -10.400850031004284
      ],
      [
        "▁assistant",
        -10.401284137976225
      ],
      [
        "▁option",
        -10.40131653111786
      ],
      [
        "▁commission",
        -10.402303387071882
      ],
      [
        "▁charts",
        -10.402602977428892
      ],
      [
        "▁3rd",
        -10.402739726860188
      ],
      [
        "house",
        -10.403005070326662
      ],
      [
        "▁Dark",
        -10.403475389636236
      ],
      [
        "▁association",
        -10.403656682173898
      ],
      [
        "▁connected",
        -10.403741227556983
      ],
      [
        "▁define",
        -10.403794524307978
      ],
      [
        "▁Imperial",
        -10.403877244787829
      ],
      [
        "▁Who",
        -10.404544013263228
      ],
      [
        "▁Moore",
        -10.40564797886441
      ],
      [
        "▁mention",
        -10.405844454188898
      ],
      [
        "▁roof",
        -10.406274790569013
      ],
      [
        "ate",
        -10.406771039488074
      ],
      [
        "▁upgrade",
        -10.406912261200087
      ],
      [
        "▁chapter",
        -10.407095453924734
      ],
      [
        "▁reading",
        -10.407634205443042
      ],
      [
        "▁knot",
        -10.40764362243942
      ],
      [
        "▁1978",
        -10.407818777752524
      ],
      [
        "▁collected",
        -10.408167437546435
      ],
      [
        "▁Byzantine",
        -10.408248524819234
      ],
      [
        "▁promote",
        -10.409090437392084
      ],
      [
        "▁baseball",
        -10.409438472466348
      ],
      [
        "▁sustained",
        -10.409644861944493
      ],
      [
        "▁travell",
        -10.40966547913146
      ],
      [
        "▁Even",
        -10.409728835623662
      ],
      [
        "ard",
        -10.410223838648598
      ],
      [
        "▁retire",
        -10.41033876109151
      ],
      [
        "▁Out",
        -10.410922608983547
      ],
      [
        "▁miss",
        -10.411005776911985
      ],
      [
        "▁surround",
        -10.41122942542442
      ],
      [
        "▁flat",
        -10.41320466364306
      ],
      [
        "▁candidate",
        -10.413790750145216
      ],
      [
        "▁raise",
        -10.413843857912449
      ],
      [
        "▁wish",
        -10.413923852725686
      ],
      [
        "▁festival",
        -10.414027754790675
      ],
      [
        "▁Main",
        -10.414115259794642
      ],
      [
        "▁E.",
        -10.414201990788298
      ],
      [
        "▁Theatre",
        -10.414728670336576
      ],
      [
        "▁moderate",
        -10.414743483422212
      ],
      [
        "▁Justice",
        -10.414962651355507
      ],
      [
        "▁communication",
        -10.414973763770652
      ],
      [
        "▁Simon",
        -10.415132544366452
      ],
      [
        "▁guard",
        -10.416037584438817
      ],
      [
        "▁institution",
        -10.416463296942004
      ],
      [
        "▁Rose",
        -10.416556704120374
      ],
      [
        "▁Boy",
        -10.416577618381265
      ],
      [
        "▁carrying",
        -10.416803432635064
      ],
      [
        "▁Sunday",
        -10.417299786265048
      ],
      [
        "▁garden",
        -10.41747463409678
      ],
      [
        "▁buried",
        -10.417790869030432
      ],
      [
        "▁Matt",
        -10.41837854428632
      ],
      [
        "ner",
        -10.41857036116129
      ],
      [
        "▁Bart",
        -10.418877834703183
      ],
      [
        "▁slave",
        -10.420268405438769
      ],
      [
        "▁85",
        -10.420631830163764
      ],
      [
        "▁Poland",
        -10.42080954954738
      ],
      [
        "▁Naval",
        -10.420830469323205
      ],
      [
        "missing",
        -10.420936193988748
      ],
      [
        "▁Ray",
        -10.42093930301642
      ],
      [
        "▁bit",
        -10.421172433939626
      ],
      [
        "▁accuse",
        -10.421366416353328
      ],
      [
        "▁Sydney",
        -10.42147570798512
      ],
      [
        "1977",
        -10.42169641048212
      ],
      [
        "▁sites",
        -10.422118604649553
      ],
      [
        "▁Maryland",
        -10.42237146767276
      ],
      [
        "▁Simpsons",
        -10.422382776879823
      ],
      [
        "T",
        -10.422430364562752
      ],
      [
        "▁SS",
        -10.422606067643482
      ],
      [
        "▁cells",
        -10.422687311859438
      ],
      [
        "▁landfall",
        -10.422925996902766
      ],
      [
        "▁exhibit",
        -10.42420609551658
      ],
      [
        "▁technical",
        -10.424826542781842
      ],
      [
        "▁attribute",
        -10.425048206387531
      ],
      [
        "▁fresh",
        -10.425584010602009
      ],
      [
        "▁turning",
        -10.426048414894147
      ],
      [
        "▁withdraw",
        -10.426211127948688
      ],
      [
        "▁Sa",
        -10.42643440285916
      ],
      [
        "▁judge",
        -10.426583115839277
      ],
      [
        "▁51",
        -10.426667965913772
      ],
      [
        "▁earlie",
        -10.4266896523415
      ],
      [
        "▁shoot",
        -10.426803404916813
      ],
      [
        "▁learned",
        -10.427119783500292
      ],
      [
        "▁scheme",
        -10.427984284788057
      ],
      [
        "▁Arab",
        -10.429020684504248
      ],
      [
        "▁brothers",
        -10.429030125374291
      ],
      [
        "▁MTV",
        -10.42911318042417
      ],
      [
        "▁playoff",
        -10.43029601653834
      ],
      [
        "▁rules",
        -10.430442275849495
      ],
      [
        "▁opera",
        -10.43066423586959
      ],
      [
        "▁rail",
        -10.430827968070735
      ],
      [
        "▁load",
        -10.430964628267542
      ],
      [
        "▁southwest",
        -10.43149501597547
      ],
      [
        "▁700",
        -10.432003071087111
      ],
      [
        "▁knowledge",
        -10.432122103458084
      ],
      [
        "▁strateg",
        -10.43247389373692
      ],
      [
        "▁1963",
        -10.433873396598216
      ],
      [
        "▁bowl",
        -10.434067483873791
      ],
      [
        "▁symbol",
        -10.434354977128612
      ],
      [
        "▁Recording",
        -10.434751537218393
      ],
      [
        "▁cars",
        -10.43518469235645
      ],
      [
        "▁application",
        -10.435354986616847
      ],
      [
        "▁reform",
        -10.43543785218112
      ],
      [
        "▁boy",
        -10.435476556766204
      ],
      [
        "▁stoppe",
        -10.435512807116991
      ],
      [
        "▁afterward",
        -10.435644416497292
      ],
      [
        "▁violence",
        -10.43612789249881
      ],
      [
        "▁powers",
        -10.43613953316624
      ],
      [
        "▁indicat",
        -10.436437065755428
      ],
      [
        "▁coastal",
        -10.437721045350278
      ],
      [
        "▁survey",
        -10.43791898352628
      ],
      [
        "▁showing",
        -10.438101733350816
      ],
      [
        "▁signal",
        -10.43881859572509
      ],
      [
        "▁battery",
        -10.438887649010269
      ],
      [
        "▁Albert",
        -10.439214155831422
      ],
      [
        "▁recruit",
        -10.439263471385736
      ],
      [
        "▁evening",
        -10.4405450843893
      ],
      [
        "▁Songs",
        -10.440744638981544
      ],
      [
        "▁dress",
        -10.44122269979582
      ],
      [
        "▁headed",
        -10.441491360720594
      ],
      [
        "▁kick",
        -10.441834179334762
      ],
      [
        "▁politics",
        -10.441953060061344
      ],
      [
        "▁Alan",
        -10.442301904351478
      ],
      [
        "▁dispute",
        -10.442813735536092
      ],
      [
        "▁sets",
        -10.442834202385823
      ],
      [
        "▁independence",
        -10.44391960325408
      ],
      [
        "▁Mulder",
        -10.44464380959707
      ],
      [
        "▁Gordon",
        -10.444647578340613
      ],
      [
        "▁send",
        -10.44551733319238
      ],
      [
        "▁bigge",
        -10.44678909206961
      ],
      [
        "▁religion",
        -10.448401410979216
      ],
      [
        "▁limit",
        -10.448696420656924
      ],
      [
        "▁Dan",
        -10.449359051525672
      ],
      [
        "▁wealth",
        -10.449700550600037
      ],
      [
        "▁drink",
        -10.449771991233929
      ],
      [
        "▁transition",
        -10.450409251407866
      ],
      [
        "▁bird",
        -10.45044240929107
      ],
      [
        "▁improvement",
        -10.4504803305869
      ],
      [
        "▁tube",
        -10.451260139848577
      ],
      [
        "▁sentence",
        -10.45154810137232
      ],
      [
        "▁Stadium",
        -10.45303977554628
      ],
      [
        "▁projects",
        -10.454045063820075
      ],
      [
        "▁1919",
        -10.454473264888223
      ],
      [
        "▁boundar",
        -10.45523978152495
      ],
      [
        "▁prompt",
        -10.455493067630456
      ],
      [
        "▁Christ",
        -10.456260035500438
      ],
      [
        "▁1962",
        -10.456281774656064
      ],
      [
        "▁employee",
        -10.456673085591692
      ],
      [
        "▁none",
        -10.456974287061076
      ],
      [
        "▁bottom",
        -10.457550958108875
      ],
      [
        "▁R.",
        -10.459547704274712
      ],
      [
        "▁fruit",
        -10.460320154219934
      ],
      [
        "▁civilian",
        -10.461028960509648
      ],
      [
        "▁parties",
        -10.461793607295574
      ],
      [
        "▁online",
        -10.46205773865622
      ],
      [
        "▁supplies",
        -10.462148884066025
      ],
      [
        "▁equipp",
        -10.462257251788056
      ],
      [
        "▁Prior",
        -10.462460904597634
      ],
      [
        "▁Wall",
        -10.463858697755692
      ],
      [
        "▁fun",
        -10.465193038126348
      ],
      [
        "▁photograph",
        -10.465230514543563
      ],
      [
        "▁1938",
        -10.465446061390267
      ],
      [
        "▁exit",
        -10.465575077004727
      ],
      [
        "▁owner",
        -10.466627754020143
      ],
      [
        "▁Critical",
        -10.467041725115545
      ],
      [
        "▁orbit",
        -10.467442395545731
      ],
      [
        "▁exercise",
        -10.468117106694333
      ],
      [
        "▁bough",
        -10.468123702299788
      ],
      [
        "berg",
        -10.468252052794387
      ],
      [
        "▁tall",
        -10.46858517610756
      ],
      [
        "▁criticize",
        -10.469126682781503
      ],
      [
        "▁flank",
        -10.470061475047334
      ],
      [
        "▁views",
        -10.470174031258942
      ],
      [
        "▁exclusive",
        -10.471419141555636
      ],
      [
        "▁protein",
        -10.471735045328456
      ],
      [
        "▁adapted",
        -10.47176019893938
      ],
      [
        "▁heads",
        -10.471860127434246
      ],
      [
        "▁download",
        -10.472299911534142
      ],
      [
        "▁replacement",
        -10.472672817064302
      ],
      [
        "▁essential",
        -10.473059491950568
      ],
      [
        "capable",
        -10.473264333776244
      ],
      [
        "▁relief",
        -10.47360308788792
      ],
      [
        "▁substantial",
        -10.47424920168872
      ],
      [
        "▁Just",
        -10.474804406983958
      ],
      [
        "▁master",
        -10.474945068901729
      ],
      [
        "▁crime",
        -10.475075581606674
      ],
      [
        "▁Arts",
        -10.475997700232492
      ],
      [
        "▁kingdom",
        -10.477942635458607
      ],
      [
        "duty",
        -10.478557568729196
      ],
      [
        "▁Kent",
        -10.478898905746822
      ],
      [
        "▁54",
        -10.47937890171607
      ],
      [
        "▁cap",
        -10.479423315676751
      ],
      [
        "▁entitle",
        -10.480161749513847
      ],
      [
        "▁deploy",
        -10.480373507286604
      ],
      [
        "▁predict",
        -10.480462417531916
      ],
      [
        "▁Egypt",
        -10.480638319378327
      ],
      [
        "what",
        -10.480691762736132
      ],
      [
        "▁Tony",
        -10.48070203679081
      ],
      [
        "▁Beach",
        -10.481022082816525
      ],
      [
        "▁Video",
        -10.481355508411538
      ],
      [
        "▁equivalent",
        -10.48165508293331
      ],
      [
        "▁Memorial",
        -10.48166665812136
      ],
      [
        "▁controversy",
        -10.48190320261507
      ],
      [
        "▁component",
        -10.48239967021634
      ],
      [
        "▁calls",
        -10.483367291590088
      ],
      [
        "L",
        -10.48394016444072
      ],
      [
        "▁sough",
        -10.484147921736188
      ],
      [
        "▁1956",
        -10.48475157831782
      ],
      [
        "▁Adams",
        -10.48540394659755
      ],
      [
        "▁academic",
        -10.485422013034269
      ],
      [
        "ling",
        -10.485958720342252
      ],
      [
        "▁Space",
        -10.48694749075374
      ],
      [
        "▁partner",
        -10.487771197598896
      ],
      [
        "formula",
        -10.487963136904852
      ],
      [
        "acres",
        -10.488715828500034
      ],
      [
        "▁global",
        -10.488965640441265
      ],
      [
        "▁Germans",
        -10.488984515559778
      ],
      [
        "▁arrange",
        -10.48920573243787
      ],
      [
        "▁considerabl",
        -10.489868436511964
      ],
      [
        "▁everyth",
        -10.489958415583272
      ],
      [
        "▁hope",
        -10.4900042870442
      ],
      [
        "▁sufficient",
        -10.490627086412376
      ],
      [
        "▁memor",
        -10.491606233871304
      ],
      [
        "▁Militar",
        -10.491636101719209
      ],
      [
        "▁relations",
        -10.491915323328312
      ],
      [
        "▁establishment",
        -10.49219742260258
      ],
      [
        "▁Hungarian",
        -10.492382473669355
      ],
      [
        "▁nest",
        -10.493108360701424
      ],
      [
        "▁humans",
        -10.493145782423923
      ],
      [
        "▁departure",
        -10.493406084169887
      ],
      [
        "▁entry",
        -10.49371089903394
      ],
      [
        "ldest",
        -10.493828635448915
      ],
      [
        "▁admitted",
        -10.49405850365453
      ],
      [
        "▁remainder",
        -10.494135330085404
      ],
      [
        "▁Rome",
        -10.494250386239369
      ],
      [
        "▁manner",
        -10.49436586361342
      ],
      [
        "▁Plot",
        -10.494444382838358
      ],
      [
        "▁Command",
        -10.494645680896804
      ],
      [
        "▁1936",
        -10.495185914298515
      ],
      [
        "▁librar",
        -10.495646096778929
      ],
      [
        "▁Douglas",
        -10.496152070188012
      ],
      [
        "▁importanc",
        -10.496719836781182
      ],
      [
        "▁airport",
        -10.497285935988565
      ],
      [
        "▁End",
        -10.497443818126577
      ],
      [
        "▁IGN",
        -10.4979841237724
      ],
      [
        "▁Sound",
        -10.49917625020423
      ],
      [
        "ington",
        -10.499618158134606
      ],
      [
        "▁190",
        -10.499753388769149
      ],
      [
        "▁plate",
        -10.499762805866675
      ],
      [
        "▁classification",
        -10.499967645881409
      ],
      [
        "▁breeding",
        -10.500382475609468
      ],
      [
        "▁convoy",
        -10.500438486248578
      ],
      [
        "▁Revolution",
        -10.500885603126068
      ],
      [
        "▁1930",
        -10.501249895496873
      ],
      [
        "▁About",
        -10.50161049225633
      ],
      [
        "▁installed",
        -10.501971579532793
      ],
      [
        "▁graduate",
        -10.502426428583153
      ],
      [
        "▁warm",
        -10.502983279746944
      ],
      [
        "▁observation",
        -10.503552786818956
      ],
      [
        "▁news",
        -10.503696041499676
      ],
      [
        "▁Kennedy",
        -10.503992472825376
      ],
      [
        "▁UTC",
        -10.504251497246118
      ],
      [
        "▁preparation",
        -10.504778514444416
      ],
      [
        "▁income",
        -10.50487044802757
      ],
      [
        "▁format",
        -10.5048857318853
      ],
      [
        "▁proper",
        -10.505145730294744
      ],
      [
        "▁Hamilton",
        -10.505252923238691
      ],
      [
        "▁tank",
        -10.505437340998528
      ],
      [
        "▁Giant",
        -10.50711798335066
      ],
      [
        "▁emotional",
        -10.508163809799736
      ],
      [
        "▁Bush",
        -10.50828208155384
      ],
      [
        "▁distinguish",
        -10.509422518888057
      ],
      [
        "▁1961",
        -10.509612158806336
      ],
      [
        "▁youth",
        -10.510601837462522
      ],
      [
        "▁intention",
        -10.510970772172229
      ],
      [
        "▁Howard",
        -10.51106693371427
      ],
      [
        "▁Death",
        -10.511209974699751
      ],
      [
        "▁designer",
        -10.511367266387095
      ],
      [
        "▁captur",
        -10.511643462686118
      ],
      [
        "▁mode",
        -10.512011601375928
      ],
      [
        "▁instance",
        -10.512054724875556
      ],
      [
        "▁NBA",
        -10.512657644212585
      ],
      [
        "▁secondar",
        -10.512881338712564
      ],
      [
        "▁Science",
        -10.513474520897956
      ],
      [
        "▁Your",
        -10.514807456212798
      ],
      [
        "▁ago",
        -10.514969060166964
      ],
      [
        "▁sample",
        -10.515001727818568
      ],
      [
        "▁towns",
        -10.515112957144806
      ],
      [
        "▁waters",
        -10.515183557480215
      ],
      [
        "▁1930s",
        -10.515207193968545
      ],
      [
        "▁tanks",
        -10.5153633367298
      ],
      [
        "▁brand",
        -10.515736835952746
      ],
      [
        "▁1953",
        -10.516395400623471
      ],
      [
        "▁56",
        -10.516410673271936
      ],
      [
        "▁flower",
        -10.517016852109784
      ],
      [
        "▁Today",
        -10.518111408339712
      ],
      [
        "▁Land",
        -10.51828041213916
      ],
      [
        "▁poet",
        -10.51838442041193
      ],
      [
        "▁duties",
        -10.518562030631855
      ],
      [
        "▁Mountain",
        -10.519042602684484
      ],
      [
        "▁Forest",
        -10.519138076962612
      ],
      [
        "▁Magazine",
        -10.520097099921117
      ],
      [
        "▁describ",
        -10.520185376190769
      ],
      [
        "▁rural",
        -10.520363410597602
      ],
      [
        "▁remember",
        -10.521130553060022
      ],
      [
        "▁decrease",
        -10.521903479729604
      ],
      [
        "▁Initial",
        -10.521914154259026
      ],
      [
        "▁Adam",
        -10.523082101704796
      ],
      [
        "▁Project",
        -10.523116142825245
      ],
      [
        "▁Five",
        -10.523197961156704
      ],
      [
        "▁spot",
        -10.523599953183483
      ],
      [
        "▁picture",
        -10.524000642589966
      ],
      [
        "▁identity",
        -10.524749329057489
      ],
      [
        "▁exception",
        -10.524921042931888
      ],
      [
        "▁notice",
        -10.525092811863942
      ],
      [
        "▁Scully",
        -10.525115608818528
      ],
      [
        "▁Un",
        -10.525287415739584
      ],
      [
        "▁eighth",
        -10.525534616822444
      ],
      [
        ">",
        -10.52578546477018
      ],
      [
        "▁Moon",
        -10.52596034778976
      ],
      [
        "AAF",
        -10.52613379547501
      ],
      [
        "▁Norwegian",
        -10.526823212944906
      ],
      [
        "▁Hitler",
        -10.527354316703851
      ],
      [
        "▁regional",
        -10.528049849440654
      ],
      [
        "▁males",
        -10.528169118467002
      ],
      [
        "▁armour",
        -10.528206572164637
      ],
      [
        "▁catch",
        -10.52860051927228
      ],
      [
        "▁freedom",
        -10.52994351337141
      ],
      [
        "▁recognition",
        -10.530204927041266
      ],
      [
        "▁hits",
        -10.53044587969751
      ],
      [
        "▁laws",
        -10.530760885992692
      ],
      [
        "▁1947",
        -10.530796862767174
      ],
      [
        "▁17th",
        -10.53173580906972
      ],
      [
        "▁conclusion",
        -10.532028251597191
      ],
      [
        "▁climate",
        -10.532028314834967
      ],
      [
        "▁Research",
        -10.532061272255678
      ],
      [
        "▁drug",
        -10.532105917867124
      ],
      [
        "▁1958",
        -10.53263199407187
      ],
      [
        "▁lose",
        -10.532888898602511
      ],
      [
        "▁preserve",
        -10.53326617160836
      ],
      [
        "▁determine",
        -10.533821876197567
      ],
      [
        "▁Roger",
        -10.534272356619711
      ],
      [
        "▁convention",
        -10.534276831635038
      ],
      [
        "▁manag",
        -10.534429607220234
      ],
      [
        "▁patrol",
        -10.53496511982864
      ],
      [
        "▁Carl",
        -10.53550135784636
      ],
      [
        "▁WWE",
        -10.536214810629168
      ],
      [
        "han",
        -10.536894135337697
      ],
      [
        "▁acid",
        -10.536903876465722
      ],
      [
        "▁drawing",
        -10.536982898946418
      ],
      [
        "▁Mexican",
        -10.537282798550278
      ],
      [
        "▁Power",
        -10.537342134201744
      ],
      [
        "▁lift",
        -10.537768214771011
      ],
      [
        "▁1957",
        -10.538399180908655
      ],
      [
        "▁Director",
        -10.538414919133388
      ],
      [
        "▁1910",
        -10.539065819153054
      ],
      [
        "▁D.",
        -10.539084245205116
      ],
      [
        "▁Media",
        -10.539296899117724
      ],
      [
        "▁champion",
        -10.539516281673006
      ],
      [
        "▁Ryan",
        -10.539759158821704
      ],
      [
        "▁driv",
        -10.539780461220024
      ],
      [
        "▁enemies",
        -10.54093924928261
      ],
      [
        "▁Band",
        -10.541185024963951
      ],
      [
        "▁1937",
        -10.541241102975462
      ],
      [
        "▁Assembly",
        -10.541473444356397
      ],
      [
        "up",
        -10.541500034319
      ],
      [
        "▁classes",
        -10.542824916421226
      ],
      [
        "▁union",
        -10.543191880848877
      ],
      [
        "▁curve",
        -10.543430636398146
      ],
      [
        "▁someone",
        -10.543712704620727
      ],
      [
        "▁attain",
        -10.54406172619686
      ],
      [
        "▁Rolling",
        -10.544757847076234
      ],
      [
        "▁Cleveland",
        -10.544903486945476
      ],
      [
        "▁spirit",
        -10.545950901932375
      ],
      [
        "▁corner",
        -10.54649008723122
      ],
      [
        "▁Philip",
        -10.546696811832186
      ],
      [
        "▁Illinois",
        -10.546748002736424
      ],
      [
        "▁certifie",
        -10.54684633308518
      ],
      [
        "▁110",
        -10.547173303480292
      ],
      [
        "▁restaurant",
        -10.547807590476516
      ],
      [
        "▁Back",
        -10.547956206119448
      ],
      [
        "▁belt",
        -10.548373135541372
      ],
      [
        "▁interested",
        -10.548405995866244
      ],
      [
        "▁visitor",
        -10.548592891195415
      ],
      [
        "▁alter",
        -10.548968542101065
      ],
      [
        "▁Ross",
        -10.549886298892948
      ],
      [
        "▁lands",
        -10.550313233297487
      ],
      [
        "▁76",
        -10.55117574203385
      ],
      [
        "▁medal",
        -10.552517165072354
      ],
      [
        "<",
        -10.552856762975312
      ],
      [
        "▁ridge",
        -10.553099543335822
      ],
      [
        "▁hip",
        -10.553157303377391
      ],
      [
        "maller",
        -10.5532693928053
      ],
      [
        "visible",
        -10.553367081704632
      ],
      [
        "▁Arsenal",
        -10.553389741037083
      ],
      [
        "▁Q",
        -10.553434659626832
      ],
      [
        "▁cycle",
        -10.5540960361688
      ],
      [
        "▁Norman",
        -10.554361715842754
      ],
      [
        "▁deem",
        -10.554459443509788
      ],
      [
        "▁drop",
        -10.555323808753016
      ],
      [
        "▁atmosphere",
        -10.5555244990434
      ],
      [
        "▁Indiana",
        -10.556618912365726
      ],
      [
        "lin",
        -10.55714516409374
      ],
      [
        "▁profit",
        -10.557400367068473
      ],
      [
        "▁bands",
        -10.557444549966476
      ],
      [
        "▁founder",
        -10.557530445339731
      ],
      [
        "▁behavior",
        -10.557539301047926
      ],
      [
        "1959",
        -10.55785910256373
      ],
      [
        "▁funds",
        -10.557861457934676
      ],
      [
        "adding",
        -10.558175027699647
      ],
      [
        "▁Stanley",
        -10.558232222870569
      ],
      [
        "▁4th",
        -10.558992568200606
      ],
      [
        "”",
        -10.55900322804022
      ],
      [
        "▁acclaim",
        -10.55910114069872
      ],
      [
        "▁circulation",
        -10.559274501108517
      ],
      [
        "▁Bruce",
        -10.559354516097123
      ],
      [
        "▁regiment",
        -10.559431850139957
      ],
      [
        "▁vessels",
        -10.56010303522306
      ],
      [
        "▁favorite",
        -10.560404089374009
      ],
      [
        "▁dated",
        -10.560534870783268
      ],
      [
        "▁wearing",
        -10.56085938414047
      ],
      [
        "▁Part",
        -10.561273415286044
      ],
      [
        "▁Third",
        -10.561420302930827
      ],
      [
        "▁L.",
        -10.561669854014184
      ],
      [
        "voted",
        -10.562378997266958
      ],
      [
        "▁skin",
        -10.56271768037682
      ],
      [
        "▁valley",
        -10.5627664614565
      ],
      [
        "▁Allen",
        -10.563197002782626
      ],
      [
        "▁Family",
        -10.56410980076426
      ],
      [
        "▁literar",
        -10.564252025173676
      ],
      [
        "▁Kevin",
        -10.564383240479026
      ],
      [
        "▁denied",
        -10.564588688696372
      ],
      [
        "gen",
        -10.56461742676014
      ],
      [
        "▁inspiration",
        -10.56477375511869
      ],
      [
        "▁Jay",
        -10.56521252387104
      ],
      [
        "▁opposite",
        -10.56601787037051
      ],
      [
        "▁citizens",
        -10.566223473548543
      ],
      [
        "▁terminus",
        -10.566299557738825
      ],
      [
        "▁Mediterranean",
        -10.5668117929228
      ],
      [
        "▁1954",
        -10.567209919732235
      ],
      [
        "▁Beatles",
        -10.567326433771344
      ],
      [
        "1955",
        -10.567386046135216
      ],
      [
        "▁outer",
        -10.567467096643908
      ],
      [
        "▁code",
        -10.568014480715224
      ],
      [
        "▁Bristol",
        -10.568700476088464
      ],
      [
        "▁Channel",
        -10.568711535678233
      ],
      [
        "▁supposed",
        -10.568883896930563
      ],
      [
        "▁path",
        -10.56906148132369
      ],
      [
        "“",
        -10.569241765484312
      ],
      [
        "▁Morgan",
        -10.569503570536527
      ],
      [
        "SBN",
        -10.569788562305195
      ],
      [
        "▁prey",
        -10.570225764813951
      ],
      [
        "▁intelligence",
        -10.570470346923326
      ],
      [
        "Weekly",
        -10.570879911010366
      ],
      [
        "ki",
        -10.57113111481631
      ],
      [
        "▁panel",
        -10.571214078767063
      ],
      [
        "▁theatre",
        -10.571313885302397
      ],
      [
        "▁concerned",
        -10.571506679133046
      ],
      [
        "▁safe",
        -10.571522884770346
      ],
      [
        "▁rose",
        -10.57193985091323
      ],
      [
        "▁Release",
        -10.573013618074135
      ],
      [
        "▁completion",
        -10.5744148018806
      ],
      [
        "▁doctor",
        -10.575160932328124
      ],
      [
        "▁burn",
        -10.575666258835394
      ],
      [
        "▁sole",
        -10.577147904949571
      ],
      [
        "E",
        -10.578337898217232
      ],
      [
        "▁Girl",
        -10.578441665784313
      ],
      [
        "▁thirty",
        -10.579039314849938
      ],
      [
        "▁possession",
        -10.579080407065858
      ],
      [
        "▁merchant",
        -10.5795862491719
      ],
      [
        "▁Water",
        -10.5800120348581
      ],
      [
        "▁feeling",
        -10.580113874881857
      ],
      [
        "▁downtown",
        -10.58014710974201
      ],
      [
        "▁answer",
        -10.580420777960937
      ],
      [
        "tied",
        -10.580745431636595
      ],
      [
        "▁Kong",
        -10.58085649217511
      ],
      [
        "▁heat",
        -10.5814529548411
      ],
      [
        "▁cool",
        -10.58151213755566
      ],
      [
        "G",
        -10.581985424350217
      ],
      [
        "▁Maria",
        -10.58207871905173
      ],
      [
        "▁Fame",
        -10.583142022829346
      ],
      [
        "▁objective",
        -10.58322666262142
      ],
      [
        "▁correct",
        -10.58324655603374
      ],
      [
        "▁contribut",
        -10.583563001576564
      ],
      [
        "▁130",
        -10.583607611499165
      ],
      [
        "▁foundation",
        -10.583775476428505
      ],
      [
        "▁glass",
        -10.583847477839596
      ],
      [
        "×",
        -10.583973992011323
      ],
      [
        "▁destruction",
        -10.584249301027898
      ],
      [
        "▁talent",
        -10.584256683285712
      ],
      [
        "▁interior",
        -10.584579069687248
      ],
      [
        "▁Korea",
        -10.585117009455624
      ],
      [
        "▁assistance",
[...]
