{
  "version": "1.0",
  "truncation": null,
  "padding": null,
  "added_tokens": [
    {
      "id": 0,
      "content": "[UNK]",
      "single_word": false,
      "lstrip": false,
      "rstrip": false,
      "normalized": false,
      "special": true
    },
    {
      "id": 1,
      "content": "[PAD]",
      "single_word": false,
      "lstrip": false,
      "rstrip": false,
      "normalized": false,
      "special": true
    },
    {
      "id": 2,
      "content": "[CLS]",
      "single_word": false,
      "lstrip": false,
      "rstrip": false,
      "normalized": false,
      "special": true
    },
    {
      "id": 3,
      "content": "[SEP]",
      "single_word": false,
      "lstrip": false,
      "rstrip": false,
      "normalized": false,
      "special": true
    },
    {
      "id": 4,
      "content": "[MASK]",
      "single_word": false,
      "lstrip": false,
      "rstrip": false,
      "normalized": false,
      "special": true
    }
  ],
  "normalizer": {
    "type": "Sequence",
    "normalizers": [
      {
        "type": "NFD"
      },
      {
        "type": "Lowercase"
      },
      {
        "type": "StripAccents"
      },
      {
        "type": "Replace",
        "pattern": {
          "Regex": "[\\u0000-\\u001F\\u007F]"
        },
        "content": " "
      },
      {
        "type": "Replace",
        "pattern": {
          "Regex": "\\s+"
        },
        "content": " "
      },
      {
        "type": "Strip",
        "strip_left": true,
        "strip_right": true
      }
    ]
  },
  "pre_tokenizer": {
    "type": "Whitespace"
  },
  "post_processor": {
    "type": "TemplateProcessing",
    "single": [
      {
        "SpecialToken": {
          "id": "[CLS]",
          "type_id": 0
        }
      },
      {
        "Sequence": {
          "id": "A",
          "type_id": 0
        }
      },
      {
        "SpecialToken": {
          "id": "[SEP]",
          "type_id": 0
        }
      }
    ],
    "pair": [
      {
        "SpecialToken": {
          "id": "[CLS]",
          "type_id": 0
        }
      },
      {
        "Sequence": {
          "id": "A",
          "type_id": 0
        }
      },
      {
        "SpecialToken": {
          "id": "[SEP]",
          "type_id": 0
        }
      },
      {
        "Sequence": {
          "id": "B",
          "type_id": 1
        }
      },
      {
        "SpecialToken": {
          "id": "[SEP]",
          "type_id": 1
        }
      }
    ],
    "special_tokens": {
      "[CLS]": {
        "id": "[CLS]",
        "ids": [
          2
        ],
        "tokens": [
          "[CLS]"
        ]
      },
      "[SEP]": {
        "id": "[SEP]",
        "ids": [
          3
        ],
        "tokens": [
          "[SEP]"
        ]
      }
    }
  },
  "decoder": {
    "type": "WordPiece",
    "prefix": "##",
    "cleanup": true
  },
  "model": {
    "type": "WordPiece",
    "unk_token": "[UNK]",
    "continuing_subword_prefix": "##",
    "max_input_chars_per_word": 100,
    "vocab": {
      "[UNK]": 0,
      "[PAD]": 1,
      "[CLS]": 2,
      "[SEP]": 3,
      "[MASK]": 4,
      "!": 5,
      "\"": 6,
      "#": 7,
      "$": 8,
      "%": 9,
      "&": 10,
      "'": 11,
      "(": 12,
      ")": 13,
      "*": 14,
      "+": 15,
      ",": 16,
      "-": 17,
      ".": 18,
      "/": 19,
      "0": 20,
      "1": 21,
      "2": 22,
      "3": 23,
      "4": 24,
      "5": 25,
      "6": 26,
      "7": 27,
      "8": 28,
      "9": 29,
      ":": 30,
      ";": 31,
      "<": 32,
      "=": 33,
      ">": 34,
      "?": 35,
      "@": 36,
      "[": 37,
      "\\": 38,
      "]": 39,
      "^": 40,
      "_": 41,
      "`": 42,
      "a": 43,
      "b": 44,
      "c": 45,
      "d": 46,
      "e": 47,
      "f": 48,
      "g": 49,
      "h": 50,
      "i": 51,
      "j": 52,
      "k": 53,
      "l": 54,
      "m": 55,
      "n": 56,
      "o": 57,
      "p": 58,
      "q": 59,
      "r": 60,
      "s": 61,
      "t": 62,
      "u": 63,
      "v": 64,
      "w": 65,
      "x": 66,
      "y": 67,
      "z": 68,
      "{": 69,
      "|": 70,
      "}": 71,
      "~": 72,
      "¡": 73,
      "¢": 74,
      "£": 75,
      "¥": 76,
      "§": 77,
      "«": 78,
      "­": 79,
      "®": 80,
      "¯": 81,
      "°": 82,
      "±": 83,
      "²": 84,
      "³": 85,
      "´": 86,
      "µ": 87,
      "·": 88,
      "¹": 89,
      "º": 90,
      "»": 91,
      "¼": 92,
      "½": 93,
      "¾": 94,
      "¿": 95,
      "×": 96,
      "ß": 97,
      "æ": 98,
      "ð": 99,
      "ø": 100,
      "þ": 101,
      "đ": 102,
      "ħ": 103,
      "ı": 104,
      "ł": 105,
      "ŋ": 106,
      "œ": 107,
      "ƒ": 108,
      "ǂ": 109,
      "ɐ": 110,
      "ɑ": 111,
      "ɒ": 112,
      "ɔ": 113,
      "ɕ": 114,
      "ɖ": 115,
      "ə": 116,
      "ɛ": 117,
      "ɜ": 118,
      "ɟ": 119,
      "ɡ": 120,
      "ɣ": 121,
      "ɦ": 122,
      "ɨ": 123,
      "ɪ": 124,
      "ɫ": 125,
      "ɬ": 126,
      "ɮ": 127,
      "ɯ": 128,
      "ɲ": 129,
      "ɳ": 130,
      "ɵ": 131,
      "ɾ": 132,
      "ʀ": 133,
      "ʁ": 134,
      "ʂ": 135,
      "ʃ": 136,
      "ʈ": 137,
      "ʊ": 138,
      "ʋ": 139,
      "ʌ": 140,
      "ʎ": 141,
      "ʏ": 142,
      "ʐ": 143,
      "ʑ": 144,
      "ʒ": 145,
      "ʔ": 146,
      "ʕ": 147,
      "ʰ": 148,
      "ʲ": 149,
      "ʷ": 150,
      "ʻ": 151,
      "ʼ": 152,
      "ʾ": 153,
      "ʿ": 154,
      "ˀ": 155,
      "ˈ": 156,
      "ˌ": 157,
      "ː": 158,
      "˚": 159,
      "ˠ": 160,
      "ˤ": 161,
      "˥": 162,
      "˧": 163,
      "˩": 164,
      "α": 165,
      "β": 166,
      "γ": 167,
      "δ": 168,
      "ε": 169,
      "ζ": 170,
      "η": 171,
      "θ": 172,
      "ι": 173,
      "κ": 174,
      "λ": 175,
      "μ": 176,
      "ν": 177,
      "ξ": 178,
      "ο": 179,
      "π": 180,
      "ρ": 181,
      "ς": 182,
      "σ": 183,
      "τ": 184,
      "υ": 185,
      "φ": 186,
      "χ": 187,
      "ψ": 188,
      "ω": 189,
      "ϕ": 190,
      "а": 191,
      "б": 192,
      "в": 193,
      "г": 194,
      "д": 195,
      "е": 196,
      "ж": 197,
      "з": 198,
      "и": 199,
      "к": 200,
      "л": 201,
      "м": 202,
      "н": 203,
      "о": 204,
      "п": 205,
      "р": 206,
      "с": 207,
      "т": 208,
      "у": 209,
      "ф": 210,
      "х": 211,
      "ц": 212,
      "ч": 213,
      "ш": 214,
      "щ": 215,
      "ъ": 216,
      "ы": 217,
      "ь": 218,
      "э": 219,
      "ю": 220,
      "я": 221,
      "і": 222,
      "ј": 223,
      "љ": 224,
      "ћ": 225,
      "ա": 226,
      "բ": 227,
      "գ": 228,
      "դ": 229,
      "ե": 230,
      "զ": 231,
      "ը": 232,
      "թ": 233,
      "ի": 234,
      "լ": 235,
      "խ": 236,
      "ծ": 237,
      "կ": 238,
      "հ": 239,
      "ղ": 240,
      "մ": 241,
      "յ": 242,
      "ն": 243,
      "շ": 244,
      "ո": 245,
      "պ": 246,
      "ջ": 247,
      "ռ": 248,
      "ս": 249,
      "վ": 250,
      "տ": 251,
      "ր": 252,
      "ց": 253,
      "ւ": 254,
      "ք": 255,
      "א": 256,
      "ב": 257,
      "ג": 258,
      "ד": 259,
      "ה": 260,
      "ו": 261,
      "ז": 262,
      "ח": 263,
      "ט": 264,
      "י": 265,
      "כ": 266,
      "ל": 267,
      "ם": 268,
      "מ": 269,
      "ן": 270,
      "נ": 271,
      "ס": 272,
      "ע": 273,
      "פ": 274,
      "צ": 275,
      "ק": 276,
      "ר": 277,
      "ש": 278,
      "ת": 279,
      "ء": 280,
      "ا": 281,
      "ب": 282,
      "ة": 283,
      "ت": 284,
      "ث": 285,
      "ج": 286,
      "ح": 287,
      "خ": 288,
      "د": 289,
      "ذ": 290,
      "ر": 291,
      "ز": 292,
      "س": 293,
      "ش": 294,
      "ص": 295,
      "ض": 296,
      "ط": 297,
      "ع": 298,
      "غ": 299,
      "ف": 300,
      "ق": 301,
      "ك": 302,
      "ل": 303,
      "م": 304,
      "ن": 305,
      "ه": 306,
      "و": 307,
      "ى": 308,
      "ي": 309,
      "ک": 310,
      "ہ": 311,
      "ی": 312,
      "अ": 313,
      "इ": 314,
      "उ": 315,
      "क": 316,
      "ग": 317,
      "घ": 318,
      "च": 319,
      "ज": 320,
      "ट": 321,
      "ड": 322,
      "ण": 323,
      "त": 324,
      "थ": 325,
      "द": 326,
      "ध": 327,
      "न": 328,
      "प": 329,
      "ब": 330,
      "भ": 331,
      "म": 332,
      "य": 333,
      "र": 334,
      "ल": 335,
      "व": 336,
      "श": 337,
      "ष": 338,
      "स": 339,
      "ह": 340,
      "ক": 341,
      "ত": 342,
      "ন": 343,
      "ব": 344,
      "ম": 345,
      "র": 346,
      "ল": 347,
      "க": 348,
      "ச": 349,
      "த": 350,
      "ன": 351,
      "ப": 352,
      "ம": 353,
      "ர": 354,
      "ள": 355,
      "வ": 356,
      "ก": 357,
      "ข": 358,
      "ง": 359,
      "จ": 360,
      "ช": 361,
      "ณ": 362,
      "ด": 363,
      "ต": 364,
      "ท": 365,
      "ธ": 366,
      "น": 367,
      "บ": 368,
      "ป": 369,
      "พ": 370,
      "ภ": 371,
      "ม": 372,
      "ย": 373,
      "ร": 374,
      "ล": 375,
      "ว": 376,
      "ศ": 377,
      "ษ": 378,
      "ส": 379,
      "ห": 380,
      "อ": 381,
      "ะ": 382,
      "า": 383,
      "เ": 384,
      "แ": 385,
      "ไ": 386,
      "་": 387,
      "င": 388,
      "ဆ": 389,
      "န": 390,
      "ပ": 391,
      "ရ": 392,
      "ა": 393,
      "დ": 394,
      "ე": 395,
      "ვ": 396,
      "თ": 397,
      "ი": 398,
      "კ": 399,
      "ლ": 400,
      "მ": 401,
      "ნ": 402,
      "ო": 403,
      "რ": 404,
      "ს": 405,
      "ტ": 406,
      "უ": 407,
      "ქ": 408,
      "ხ": 409,
      "ᄀ": 410,
      "ᄂ": 411,
      "ᄃ": 412,
      "ᄅ": 413,
      "ᄆ": 414,
      "ᄇ": 415,
      "ᄉ": 416,
      "ᄋ": 417,
      "ᄌ": 418,
      "ᄎ": 419,
      "ᄐ": 420,
      "ᄒ": 421,
      "ᅡ": 422,
      "ᅢ": 423,
      "ᅥ": 424,
      "ᅧ": 425,
      "ᅩ": 426,
      "ᅪ": 427,
      "ᅮ": 428,
      "ᅳ": 429,
      "ᅵ": 430,
      "ᆨ": 431,
      "ᆫ": 432,
      "ᆯ": 433,
      "ᆷ": 434,
      "ᆼ": 435,
      "ក": 436,
      "ង": 437,
      "ត": 438,
      "ទ": 439,
      "ន": 440,
      "ប": 441,
      "ព": 442,
      "ម": 443,
      "រ": 444,
      "ស": 445,
      "ᵻ": 446,
      "​": 447,
      "‌": 448,
      "‍": 449,
      "‐": 450,
      "‑": 451,
      "–": 452,
      "—": 453,
      "―": 454,
      "‘": 455,
      "’": 456,
      "“": 457,
      "”": 458,
      "„": 459,
      "†": 460,
      "‡": 461,
      "•": 462,
      "…": 463,
      "‰": 464,
      "′": 465,
      "″": 466,
      "⁄": 467,
      "⁡": 468,
      "₂": 469,
      "₣": 470,
      "₤": 471,
      "₨": 472,
      "₩": 473,
      "€": 474,
      "₱": 475,
      "₹": 476,
      "ℓ": 477,
      "№": 478,
      "⅓": 479,
      "⅔": 480,
      "⅜": 481,
      "↑": 482,
      "→": 483,
      "⇌": 484,
      "∂": 485,
      "∆": 486,
      "∈": 487,
      "∑": 488,
      "−": 489,
      "∗": 490,
      "√": 491,
      "∞": 492,
      "∩": 493,
      "∴": 494,
      "≈": 495,
      "≡": 496,
      "≤": 497,
      "≥": 498,
      "⊂": 499,
      "⊕": 500,
      "⊗": 501,
      "⋅": 502,
      "☆": 503,
      "☉": 504,
      "♠": 505,
      "♣": 506,
      "♥": 507,
      "♦": 508,
      "♭": 509,
      "♯": 510,
      "⟨": 511,
      "⟩": 512,
      "ⴰ": 513,
      "ⴻ": 514,
      "ⵍ": 515,
      "ⵏ": 516,
      "ⵜ": 517,
      "、": 518,
      "〈": 519,
      "〉": 520,
      "「": 521,
      "」": 522,
      "『": 523,
      "』": 524,
      "〜": 525,
      "あ": 526,
      "い": 527,
      "う": 528,
      "え": 529,
      "お": 530,
      "か": 531,
      "き": 532,
      "く": 533,
      "け": 534,
      "こ": 535,
      "さ": 536,
      "し": 537,
      "す": 538,
      "せ": 539,
      "そ": 540,
      "た": 541,
      "ち": 542,
      "っ": 543,
      "つ": 544,
      "て": 545,
      "と": 546,
      "な": 547,
      "に": 548,
      "の": 549,
      "は": 550,
      "ひ": 551,
      "ふ": 552,
      "へ": 553,
      "ほ": 554,
      "ま": 555,
      "み": 556,
      "む": 557,
      "め": 558,
      "も": 559,
      "ゃ": 560,
      "や": 561,
      "ゆ": 562,
      "よ": 563,
      "ら": 564,
      "り": 565,
      "る": 566,
      "れ": 567,
      "ろ": 568,
      "わ": 569,
      "を": 570,
      "ん": 571,
      "ァ": 572,
      "ア": 573,
      "ィ": 574,
      "イ": 575,
      "ゥ": 576,
      "ウ": 577,
      "ェ": 578,
      "エ": 579,
      "ォ": 580,
      "オ": 581,
      "カ": 582,
      "キ": 583,
      "ク": 584,
      "ケ": 585,
      "コ": 586,
      "サ": 587,
      "シ": 588,
      "ス": 589,
      "セ": 590,
      "ソ": 591,
      "タ": 592,
      "チ": 593,
      "ッ": 594,
      "ツ": 595,
      "テ": 596,
      "ト": 597,
      "ナ": 598,
      "ニ": 599,
      "ネ": 600,
      "ノ": 601,
      "ハ": 602,
      "ヒ": 603,
      "フ": 604,
      "ヘ": 605,
      "ホ": 606,
      "マ": 607,
      "ミ": 608,
      "ム": 609,
      "メ": 610,
      "モ": 611,
      "ャ": 612,
      "ヤ": 613,
      "ュ": 614,
      "ユ": 615,
      "ョ": 616,
      "ヨ": 617,
      "ラ": 618,
      "リ": 619,
      "ル": 620,
      "レ": 621,
      "ロ": 622,
      "ワ": 623,
      "ン": 624,
      "・": 625,
      "ー": 626,
      "一": 627,
      "七": 628,
      "万": 629,
      "三": 630,
      "上": 631,
      "下": 632,
      "不": 633,
      "世": 634,
      "东": 635,
      "个": 636,
      "中": 637,
      "丸": 638,
      "主": 639,
      "久": 640,
      "之": 641,
      "乙": 642,
      "九": 643,
      "乱": 644,
      "事": 645,
      "二": 646,
      "五": 647,
      "井": 648,
      "京": 649,
      "人": 650,
      "介": 651,
      "仙": 652,
      "代": 653,
      "令": 654,
      "件": 655,
      "伊": 656,
      "会": 657,
      "伝": 658,
      "佐": 659,
      "体": 660,
      "何": 661,
      "佛": 662,
      "作": 663,
      "你": 664,
      "使": 665,
      "信": 666,
      "倉": 667,
      "僕": 668,
      "元": 669,
      "光": 670,
      "克": 671,
      "全": 672,
      "八": 673,
      "公": 674,
      "六": 675,
      "内": 676,
      "写": 677,
      "出": 678,
      "分": 679,
      "刘": 680,
      "初": 681,
      "判": 682,
      "前": 683,
      "剣": 684,
      "劇": 685,
      "劉": 686,
      "動": 687,
      "勝": 688,
      "化": 689,
      "北": 690,
      "匹": 691,
      "十": 692,
      "千": 693,
      "华": 694,
      "南": 695,
      "印": 696,
      "原": 697,
      "取": 698,
      "口": 699,
      "古": 700,
      "可": 701,
      "台": 702,
      "史": 703,
      "号": 704,
      "司": 705,
      "合": 706,
      "同": 707,
      "名": 708,
      "君": 709,
      "周": 710,
      "和": 711,
      "四": 712,
      "回": 713,
      "団": 714,
      "国": 715,
      "國": 716,
      "園": 717,
      "土": 718,
      "在": 719,
      "地": 720,
      "坂": 721,
      "坊": 722,
      "型": 723,
      "城": 724,
      "堂": 725,
      "場": 726,
      "塊": 727,
      "士": 728,
      "夏": 729,
      "外": 730,
      "夜": 731,
      "夢": 732,
      "大": 733,
      "天": 734,
      "太": 735,
      "夫": 736,
      "女": 737,
      "好": 738,
      "姉": 739,
      "姫": 740,
      "子": 741,
      "字": 742,
      "季": 743,
      "学": 744,
      "學": 745,
      "守": 746,
      "安": 747,
      "宗": 748,
      "官": 749,
      "定": 750,
      "宝": 751,
      "宮": 752,
      "家": 753,
      "寶": 754,
      "寺": 755,
      "尉": 756,
      "小": 757,
      "少": 758,
      "居": 759,
      "屋": 760,
      "山": 761,
      "島": 762,
      "川": 763,
      "州": 764,
      "工": 765,
      "巨": 766,
      "市": 767,
      "帝": 768,
      "師": 769,
      "常": 770,
      "平": 771,
      "年": 772,
      "幻": 773,
      "府": 774,
      "式": 775,
      "张": 776,
      "張": 777,
      "彼": 778,
      "後": 779,
      "御": 780,
      "德": 781,
      "心": 782,
      "忍": 783,
      "志": 784,
      "思": 785,
      "恋": 786,
      "想": 787,
      "愛": 788,
      "成": 789,
      "我": 790,
      "战": 791,
      "戦": 792,
      "戸": 793,
      "所": 794,
      "手": 795,
      "撃": 796,
      "政": 797,
      "教": 798,
      "文": 799,
      "新": 800,
      "方": 801,
      "旋": 802,
      "旗": 803,
      "日": 804,
      "旦": 805,
      "早": 806,
      "明": 807,
      "星": 808,
      "春": 809,
      "時": 810,
      "景": 811,
      "曲": 812,
      "書": 813,
      "月": 814,
      "有": 815,
      "朝": 816,
      "木": 817,
      "本": 818,
      "朱": 819,
      "李": 820,
      "村": 821,
      "条": 822,
      "来": 823,
      "東": 824,
      "松": 825,
      "林": 826,
      "校": 827,
      "楽": 828,
      "様": 829,
      "機": 830,
      "次": 831,
      "歌": 832,
      "正": 833,
      "武": 834,
      "殺": 835,
      "殿": 836,
      "氏": 837,
      "民": 838,
      "気": 839,
      "水": 840,
      "永": 841,
      "汉": 842,
      "江": 843,
      "河": 844,
      "治": 845,
      "泉": 846,
      "法": 847,
      "洋": 848,
      "津": 849,
      "活": 850,
      "流": 851,
      "海": 852,
      "清": 853,
      "港": 854,
      "漢": 855,
      "瀬": 856,
      "火": 857,
      "無": 858,
      "熊": 859,
      "版": 860,
      "牙": 861,
      "物": 862,
      "狗": 863,
      "玄": 864,
      "玉": 865,
      "王": 866,
      "理": 867,
      "生": 868,
      "田": 869,
      "町": 870,
      "画": 871,
      "界": 872,
      "番": 873,
      "白": 874,
      "百": 875,
      "的": 876,
      "皇": 877,
      "相": 878,
      "真": 879,
      "眼": 880,
      "知": 881,
      "石": 882,
      "社": 883,
      "神": 884,
      "祭": 885,
      "福": 886,
      "秀": 887,
      "秋": 888,
      "科": 889,
      "空": 890,
      "立": 891,
      "章": 892,
      "竹": 893,
      "第": 894,
      "節": 895,
      "紅": 896,
      "紫": 897,
      "經": 898,
      "線": 899,
      "編": 900,
      "羅": 901,
      "美": 902,
      "義": 903,
      "羽": 904,
      "翼": 905,
      "老": 906,
      "者": 907,
      "聖": 908,
      "能": 909,
      "自": 910,
      "航": 911,
      "船": 912,
      "艦": 913,
      "良": 914,
      "色": 915,
      "花": 916,
      "英": 917,
      "茶": 918,
      "草": 919,
      "華": 920,
      "葉": 921,
      "薇": 922,
      "藤": 923,
      "螺": 924,
      "血": 925,
      "行": 926,
      "術": 927,
      "衛": 928,
      "西": 929,
      "要": 930,
      "見": 931,
      "言": 932,
      "記": 933,
      "詩": 934,
      "語": 935,
      "説": 936,
      "議": 937,
      "谷": 938,
      "豊": 939,
      "賦": 940,
      "赤": 941,
      "走": 942,
      "超": 943,
      "路": 944,
      "軍": 945,
      "転": 946,
      "輪": 947,
      "逆": 948,
      "通": 949,
      "進": 950,
      "遁": 951,
      "道": 952,
      "達": 953,
      "遠": 954,
      "那": 955,
      "郎": 956,
      "部": 957,
      "都": 958,
      "里": 959,
      "重": 960,
      "野": 961,
      "金": 962,
      "銀": 963,
      "長": 964,
      "門": 965,
      "間": 966,
      "阿": 967,
      "陈": 968,
      "院": 969,
      "陳": 970,
      "陽": 971,
      "隊": 972,
      "雄": 973,
      "集": 974,
      "雪": 975,
      "雲": 976,
      "雷": 977,
      "青": 978,
      "面": 979,
      "音": 980,
      "頭": 981,
      "風": 982,
      "香": 983,
      "馬": 984,
      "马": 985,
      "高": 986,
      "鬼": 987,
      "魂": 988,
      "魔": 989,
      "鳥": 990,
      "黄": 991,
      "黒": 992,
      "鼓": 993,
      "龍": 994,
      "ﬁ": 995,
      "ﬂ": 996,
      "﻿": 997,
      "！": 998,
      "（": 999,
      "）": 1000,
      "，": 1001,
      "：": 1002,
      "～": 1003,
      "￥": 1004,
      "##o": 1005,
      "##g": 1006,
      "##e": 1007,
      "##n": 1008,
      "##a": 1009,
      "##t": 1010,
      "##r": 1011,
      "##v": 1012,
      "##u": 1013,
      "##d": 1014,
      "##h": 1015,
      "##l": 1016,
      "##s": 1017,
      "##c": 1018,
      "##m": 1019,
      "##y": 1020,
      "##b": 1021,
      "##8": 1022,
      "##w": 1023,
      "##i": 1024,
      "##夜": 1025,
      "##の": 1026,
      "##曲": 1027,
      "##z": 1028,
      "##k": 1029,
      "##p": 1030,
      "##q": 1031,
      "##史": 1032,
      "##大": 1033,
      "##夫": 1034,
      "##f": 1035,
      "##9": 1036,
      "##1": 1037,
      "##3": 1038,
      "##а": 1039,
      "##л": 1040,
      "##ц": 1041,
      "##ر": 1042,
      "##ا": 1043,
      "##ن": 1044,
      "##ہ": 1045,
      "##j": 1046,
      "##ˈ": 1047,
      "##ɑ": 1048,
      "##ː": 1049,
      "##ɪ": 1050,
      "##ə": 1051,
      "##x": 1052,
      "##ʒ": 1053,
      "##4": 1054,
      "##5": 1055,
      "##0": 1056,
      "##6": 1057,
      "##2": 1058,
      "##フ": 1059,
      "##ル": 1060,
      "##イ": 1061,
      "##ナ": 1062,
      "##ス": 1063,
      "##マ": 1064,
      "##海": 1065,
      "##口": 1066,
      "##相": 1067,
      "##м": 1068,
      "##п": 1069,
      "##е": 1070,
      "##р": 1071,
      "##т": 1072,
      "##и": 1073,
      "##家": 1074,
      "##字": 1075,
      "##ʲ": 1076,
      "##ɫ": 1077,
      "##阿": 1078,
      "##平": 1079,
      "##ャ": 1080,
      "##ハ": 1081,
      "##ン": 1082,
      "##人": 1083,
      "##ح": 1084,
      "##و": 1085,
      "##ل": 1086,
      "##7": 1087,
      "##ß": 1088,
      "##α": 1089,
      "##λ": 1090,
      "##γ": 1091,
      "##ρ": 1092,
      "##ο": 1093,
      "##υ": 1094,
      "##詩": 1095,
      "##リ": 1096,
      "##オ": 1097,
      "##ー": 1098,
      "##シ": 1099,
      "##ュ": 1100,
      "##書": 1101,
      "##-": 1102,
      "##ラ": 1103,
      "##о": 1104,
      "##ま": 1105,
      "##う": 1106,
      "##æ": 1107,
      "##म": 1108,
      "##ɒ": 1109,
      "##ɛ": 1110,
      "##ɡ": 1111,
      "##師": 1112,
      "##φ": 1113,
      "##ζ": 1114,
      "##ي": 1115,
      "##石": 1116,
      "##之": 1117,
      "##ł": 1118,
      "##ម": 1119,
      "##ព": 1120,
      "##ト": 1121,
      "##メ": 1122,
      "##ı": 1123,
      "##德": 1124,
      "##с": 1125,
      "##я": 1126,
      "##ʌ": 1127,
      "##ј": 1128,
      "##к": 1129,
      "##ɔ": 1130,
      "##ʻ": 1131,
      "##山": 1132,
      "##良": 1133,
      "##子": 1134,
      "##ж": 1135,
      "##у": 1136,
      "##н": 1137,
      "##は": 1138,
      "##し": 1139,
      "##め": 1140,
      "##た": 1141,
      "##ʊ": 1142,
      "##い": 1143,
      "##さ": 1144,
      "##な": 1145,
      "##ほ": 1146,
      "##ゆ": 1147,
      "##η": 1148,
      "##ι": 1149,
      "##ω": 1150,
      "##ν": 1151,
      "##ε": 1152,
      "##ς": 1153,
      "##航": 1154,
      "##空": 1155,
      "##κ": 1156,
      "##σ": 1157,
      "##τ": 1158,
      "##ァ": 1159,
      "##キ": 1160,
      "##井": 1161,
      "##作": 1162,
      "##集": 1163,
      "##ب": 1164,
      "##د": 1165,
      "##ᅳ": 1166,
      "##ᆷ": 1167,
      "##ᄂ": 1168,
      "##ᅡ": 1169,
      "##ᄒ": 1170,
      "##ᅢ": 1171,
      "##ᄅ": 1172,
      "##ᅩ": 1173,
      "##ᆨ": 1174,
      "##經": 1175,
      "##ø": 1176,
      "##δ": 1177,
      "##מ": 1178,
      "##י": 1179,
      "##ם": 1180,
      "##в": 1181,
      "##ɐ": 1182,
      "##ェ": 1183,
      "##那": 1184,
      "##ʁ": 1185,
      "##χ": 1186,
      "##ŋ": 1187,
      "##ˌ": 1188,
      "##ψ": 1189,
      "##田": 1190,
      "##に": 1191,
      "##國": 1192,
      "##ர": 1193,
      "##ம": 1194,
      "##教": 1195,
      "##ʰ": 1196,
      "##स": 1197,
      "##य": 1198,
      "##न": 1199,
      "##क": 1200,
      "##ん": 1201,
      "##を": 1202,
      "##け": 1203,
      "##ろ": 1204,
      "##μ": 1205,
      "##ы": 1206,
      "##х": 1207,
      "##土": 1208,
      "##転": 1209,
      "##生": 1210,
      "##市": 1211,
      "##流": 1212,
      "##行": 1213,
      "##編": 1214,
      "##る": 1215,
      "##ˠ": 1216,
      "##þ": 1217,
      "##と": 1218,
      "##戦": 1219,
      "##士": 1220,
      "##ة": 1221,
      "##ホ": 1222,
      "##ツ": 1223,
      "##र": 1224,
      "##त": 1225,
      "##ლ": 1226,
      "##მ": 1227,
      "##ი": 1228,
      "##ე": 1229,
      "##պ": 1230,
      "##ա": 1231,
      "##ր": 1232,
      "##ն": 1233,
      "##ィ": 1234,
      "##ア": 1235,
      "##タ": 1236,
      "##カ": 1237,
      "##ו": 1238,
      "##פ": 1239,
      "##נ": 1240,
      "##ה": 1241,
      "##า": 1242,
      "##ล": 1243,
      "##เ": 1244,
      "##ป": 1245,
      "##コ": 1246,
      "##ク": 1247,
      "##エ": 1248,
      "##ד": 1249,
      "##ð": 1250,
      "##代": 1251,
      "##画": 1252,
      "##ɾ": 1253,
      "##ʃ": 1254,
      "##剣": 1255,
      "##神": 1256,
      "##ស": 1257,
      "##き": 1258,
      "##世": 1259,
      "##界": 1260,
      "##花": 1261,
      "##春": 1262,
      "##ᄉ": 1263,
      "##ᅥ": 1264,
      "##ᆼ": 1265,
      "##ᄋ": 1266,
      "##ᄎ": 1267,
      "##љ": 1268,
      "##星": 1269,
      "##旗": 1270,
      "##京": 1271,
      "##路": 1272,
      "##อ": 1273,
      "##ภ": 1274,
      "##ร": 1275,
      "##ณ": 1276,
      "##す": 1277,
      "##ひ": 1278,
      "##日": 1279,
      "##ь": 1280,
      "##志": 1281,
      "##江": 1282,
      "##テ": 1283,
      "##レ": 1284,
      "##サ": 1285,
      "##ネ": 1286,
      "##ッ": 1287,
      "##ワ": 1288,
      "##も": 1289,
      "##س": 1290,
      "##ی": 1291,
      "##ч": 1292,
      "##白": 1293,
      "##か": 1294,
      "##よ": 1295,
      "##文": 1296,
      "##ت": 1297,
      "##غ": 1298,
      "##ե": 1299,
      "##թ": 1300,
      "##ո": 1301,
      "##ս": 1302,
      "##կ": 1303,
      "##ث": 1304,
      "##ヒ": 1305,
      "##ʋ": 1306,
      "##β": 1307,
      "##天": 1308,
      "##津": 1309,
      "##在": 1310,
      "##里": 1311,
      "##ʼ": 1312,
      "##ォ": 1313,
      "##б": 1314,
      "##ق": 1315,
      "##ռ": 1316,
      "##ի": 1317,
      "##ⵍ": 1318,
      "##ⴻ": 1319,
      "##ⵏ": 1320,
      "##ɦ": 1321,
      "##り": 1322,
      "##ら": 1323,
      "##寺": 1324,
      "##θ": 1325,
      "##э": 1326,
      "##з": 1327,
      "##і": 1328,
      "##д": 1329,
      "##道": 1330,
      "##青": 1331,
      "##門": 1332,
      "##二": 1333,
      "##十": 1334,
      "##歌": 1335,
      "##仙": 1336,
      "##ⴰ": 1337,
      "##ケ": 1338,
      "##動": 1339,
      "##ョ": 1340,
      "##ط": 1341,
      "##ל": 1342,
      "##モ": 1343,
      "##ग": 1344,
      "##園": 1345,
      "##て": 1346,
      "##ल": 1347,
      "##द": 1348,
      "##見": 1349,
      "##つ": 1350,
      "##色": 1351,
      "##ش": 1352,
      "##ز": 1353,
      "##ʔ": 1354,
      "##ւ": 1355,
      "##ծ": 1356,
      "##ղ": 1357,
      "##ʏ": 1358,
      "##ᆯ": 1359,
      "##đ": 1360,
      "##ट": 1361,
      "##π": 1362,
      "##戸": 1363,
      "##ք": 1364,
      "##լ": 1365,
      "##ց": 1366,
      "##一": 1367,
      "##勝": 1368,
      "##ᵻ": 1369,
      "##せ": 1370,
      "##術": 1371,
      "##ウ": 1372,
      "##ʾ": 1373,
      "##く": 1374,
      "##記": 1375,
      "##府": 1376,
      "##王": 1377,
      "##ف": 1378,
      "##จ": 1379,
      "##ม": 1380,
      "##ด": 1381,
      "##本": 1382,
      "##政": 1383,
      "##機": 1384,
      "##ង": 1385,
      "##西": 1386,
      "##ะ": 1387,
      "##ต": 1388,
      "##ว": 1389,
      "##น": 1390,
      "##ท": 1391,
      "##ศ": 1392,
      "##ћ": 1393,
      "##ه": 1394,
      "##œ": 1395,
      "##太": 1396,
      "##鼓": 1397,
      "##公": 1398,
      "##ɜ": 1399,
      "##れ": 1400,
      "##恋": 1401,
      "##ロ": 1402,
      "##ɲ": 1403,
      "##ש": 1404,
      "##մ": 1405,
      "##ห": 1406,
      "##ξ": 1407,
      "##ง": 1408,
      "##ส": 1409,
      "##บ": 1410,
      "##ย": 1411,
      "##ר": 1412,
      "##ק": 1413,
      "##雲": 1414,
      "##型": 1415,
      "##洋": 1416,
      "##艦": 1417,
      "##个": 1418,
      "##श": 1419,
      "##ム": 1420,
      "##ш": 1421,
      "##ɨ": 1422,
      "##ノ": 1423,
      "##ع": 1424,
      "##ك": 1425,
      "##御": 1426,
      "##殿": 1427,
      "##ა": 1428,
      "##რ": 1429,
      "##г": 1430,
      "##義": 1431,
      "##ᅵ": 1432,
      "##ᆫ": 1433,
      "##号": 1434,
      "##ص": 1435,
      "##町": 1436,
      "##ニ": 1437,
      "##ช": 1438,
      "##ج": 1439,
      "##水": 1440,
      "##女": 1441,
      "##や": 1442,
      "##佐": 1443,
      "##こ": 1444,
      "##ふ": 1445,
      "##河": 1446,
      "##ɳ": 1447,
      "##ɖ": 1448,
      "##ʐ": 1449,
      "##魔": 1450,
      "##伝": 1451,
      "##法": 1452,
      "##ន": 1453,
      "##ɕ": 1454,
      "##م": 1455,
      "##螺": 1456,
      "##旋": 1457,
      "##丸": 1458,
      "##っ": 1459,
      "##賦": 1460,
      "##事": 1461,
      "##屋": 1462,
      "##ち": 1463,
      "##要": 1464,
      "##ษ": 1465,
      "##ก": 1466,
      "##楽": 1467,
      "##朝": 1468,
      "##四": 1469,
      "##ნ": 1470,
      "##ვ": 1471,
      "##ƒ": 1472,
      "##龍": 1473,
      "##כ": 1474,
      "##ן": 1475,
      "##ह": 1476,
      "##ʑ": 1477,
      "##小": 1478,
      "##者": 1479,
      "##ذ": 1480,
      "##ʿ": 1481,
      "##社": 1482,
      "##式": 1483,
      "##व": 1484,
      "##ס": 1485,
      "##ת": 1486,
      "##գ": 1487,
      "##村": 1488,
      "##א": 1489,
      "##面": 1490,
      "##上": 1491,
      "##宗": 1492,
      "##旦": 1493,
      "##ʀ": 1494,
      "##年": 1495,
      "##ᄀ": 1496,
      "##合": 1497,
      "##ז": 1498,
      "##ב": 1499,
      "##ъ": 1500,
      "##薇": 1501,
      "##台": 1502,
      "##所": 1503,
      "##成": 1504,
      "##ヘ": 1505,
      "##セ": 1506,
      "##瀬": 1507,
      "##気": 1508,
      "##化": 1509,
      "##音": 1510,
      "##ण": 1511,
      "##三": 1512,
      "##頭": 1513,
      "##島": 1514,
      "##へ": 1515,
      "##ゃ": 1516,
      "##み": 1517,
      "##超": 1518,
      "##င": 1519,
      "##和": 1520,
      "##言": 1521,
      "##葉": 1522,
      "##軍": 1523,
      "##ল": 1524,
      "##च": 1525,
      "##殺": 1526,
      "##熊": 1527,
      "##草": 1528,
      "##内": 1529,
      "##ג": 1530,
      "##ন": 1531,
      "##輪": 1532,
      "##漢": 1533,
      "##華": 1534,
      "##უ": 1535,
      "##ტ": 1536,
      "##高": 1537,
      "##倉": 1538,
      "##六": 1539,
      "##衛": 1540,
      "##常": 1541,
      "##長": 1542,
      "##ﬁ": 1543,
      "##真": 1544,
      "##チ": 1545,
      "##प": 1546,
      "##ष": 1547,
      "##ˀ": 1548,
      "##พ": 1549,
      "##ע": 1550,
      "##中": 1551,
      "##団": 1552,
      "##ქ": 1553,
      "##ს": 1554,
      "##დ": 1555,
      "##永": 1556,
      "##遁": 1557,
      "##រ": 1558,
      "##ត": 1559,
      "##भ": 1560,
      "##姫": 1561,
      "##ט": 1562,
      "##ħ": 1563,
      "##ˤ": 1564,
      "##羅": 1565,
      "##馬": 1566,
      "##劇": 1567,
      "##工": 1568,
      "##学": 1569,
      "##校": 1570,
      "##ʷ": 1571,
      "##ო": 1572,
      "##月": 1573,
      "##会": 1574,
      "##վ": 1575,
      "##բ": 1576,
      "##ח": 1577,
      "##野": 1578,
      "##原": 1579,
      "##ड": 1580,
      "##ब": 1581,
      "##ក": 1582,
      "##章": 1583,
      "##ᄌ": 1584,
      "##ข": 1585,
      "##ɵ": 1586,
      "##º": 1587,
      "##魂": 1588,
      "##明": 1589,
      "##ゥ": 1590,
      "##場": 1591,
      "##説": 1592,
      "##間": 1593,
      "##達": 1594,
      "##ပ": 1595,
      "##可": 1596,
      "##տ": 1597,
      "##ɬ": 1598,
      "##隊": 1599,
      "##ᅮ": 1600,
      "##わ": 1601,
      "##夏": 1602,
      "##泉": 1603,
      "##ⵜ": 1604,
      "##ব": 1605,
      "##战": 1606,
      "##城": 1607,
      "##千": 1608,
      "##百": 1609,
      "##八": 1610,
      "##火": 1611,
      "##鬼": 1612,
      "##ᄃ": 1613,
      "##件": 1614,
      "##خ": 1615,
      "##հ": 1616,
      "##ى": 1617,
      "##想": 1618,
      "##あ": 1619,
      "##յ": 1620,
      "##林": 1621,
      "##清": 1622,
      "##立": 1623,
      "##鳥": 1624,
      "##主": 1625,
      "##地": 1626,
      "##能": 1627,
      "##ᄆ": 1628,
      "##你": 1629,
      "##正": 1630,
      "##我": 1631,
      "##武": 1632,
      "##學": 1633,
      "##华": 1634,
      "##不": 1635,
      "##思": 1636,
      "##議": 1637,
      "##眼": 1638,
      "##国": 1639,
      "##牙": 1640,
      "##դ": 1641,
      "##ज": 1642,
      "##ɣ": 1643,
      "##ன": 1644,
      "##州": 1645,
      "##下": 1646,
      "##美": 1647,
      "##ը": 1648,
      "##手": 1649,
      "##忍": 1650,
      "##風": 1651,
      "##克": 1652,
      "##理": 1653,
      "##祭": 1654,
      "##判": 1655,
      "##翼": 1656,
      "##定": 1657,
      "##ヤ": 1658,
      "##ミ": 1659,
      "##外": 1660,
      "##幻": 1661,
      "##แ": 1662,
      "##黄": 1663,
      "##安": 1664,
      "##金": 1665,
      "##福": 1666,
      "##体": 1667,
      "##元": 1668,
      "##羽": 1669,
      "##司": 1670,
      "##র": 1671,
      "##ম": 1672,
      "##ջ": 1673,
      "##え": 1674,
      "##聖": 1675,
      "##ф": 1676,
      "##科": 1677,
      "##七": 1678,
      "##ǂ": 1679,
      "##尉": 1680,
      "##ᄇ": 1681,
      "##ᅪ": 1682,
      "##ض": 1683,
      "##血": 1684,
      "##雄": 1685,
      "##港": 1686,
      "##宮": 1687,
      "##令": 1688,
      "##ক": 1689,
      "##英": 1690,
      "##藤": 1691,
      "##ء": 1692,
      "##க": 1693,
      "##的": 1694,
      "##全": 1695,
      "##ɮ": 1696,
      "##ю": 1697,
      "##ϕ": 1698,
      "##.": 1699,
      "##ত": 1700,
      "##谷": 1701,
      "##ไ": 1702,
      "##ธ": 1703,
      "##ʈ": 1704,
      "##ɟ": 1705,
      "##民": 1706,
      "##ხ": 1707,
      "##物": 1708,
      "##ध": 1709,
      "##取": 1710,
      "##印": 1711,
      "##君": 1712,
      "##守": 1713,
      "##同": 1714,
      "##陽": 1715,
      "##န": 1716,
      "##知": 1717,
      "##む": 1718,
      "##雪": 1719,
      "##狗": 1720,
      "##雷": 1721,
      "##ک": 1722,
      "##南": 1723,
      "##川": 1724,
      "##ᄐ": 1725,
      "##வ": 1726,
      "##ﬂ": 1727,
      "##香": 1728,
      "##щ": 1729,
      "##番": 1730,
      "##氏": 1731,
      "##宝": 1732,
      "##马": 1733,
      "##線": 1734,
      "##秀": 1735,
      "##ヨ": 1736,
      "##早": 1737,
      "##µ": 1738,
      "##遠": 1739,
      "##木": 1740,
      "##赤": 1741,
      "##院": 1742,
      "##五": 1743,
      "##ʕ": 1744,
      "##汉": 1745,
      "##צ": 1746,
      "##名": 1747,
      "##何": 1748,
      "##走": 1749,
      "##来": 1750,
      "##ユ": 1751,
      "##த": 1752,
      "##'": 1753,
      "##光": 1754,
      "##方": 1755,
      "##玄": 1756,
      "##彼": 1757,
      "##新": 1758,
      "##部": 1759,
      "##堂": 1760,
      "##古": 1761,
      "##愛": 1762,
      "##ʂ": 1763,
      "##寶": 1764,
      "##治": 1765,
      "##坊": 1766,
      "##ள": 1767,
      "##郎": 1768,
      "##語": 1769,
      "##そ": 1770,
      "##ɯ": 1771,
      "##伊": 1772,
      "##信": 1773,
      "##心": 1774,
      "##出": 1775,
      "##活": 1776,
      "##东": 1777,
      "##版": 1778,
      "##写": 1779,
      "##խ": 1780,
      "##夢": 1781,
      "##自": 1782,
      "##周": 1783,
      "##少": 1784,
      "##都": 1785,
      "##ソ": 1786,
      "##分": 1787,
      "##次": 1788,
      "##李": 1789,
      "##ʎ": 1790,
      "##東": 1791,
      "##官": 1792,
      "##進": 1793,
      "##介": 1794,
      "##竹": 1795,
      "##景": 1796,
      "##զ": 1797,
      "##շ": 1798,
      "##有": 1799,
      "##お": 1800,
      "##`": 1801,
      "##季": 1802,
      "##時": 1803,
      "##好": 1804,
      "##थ": 1805,
      "##姉": 1806,
      "##第": 1807,
      "##条": 1808,
      "##様": 1809,
      "##乱": 1810,
      "##無": 1811,
      "##九": 1812,
      "##茶": 1813,
      "##節": 1814,
      "##ᅧ": 1815,
      "##使": 1816,
      "##ប": 1817,
      "##ச": 1818,
      "##ទ": 1819,
      "##通": 1820,
      "##घ": 1821,
      "##秋": 1822,
      "##後": 1823,
      "##თ": 1824,
      "##居": 1825,
      "##豊": 1826,
      "##इ": 1827,
      "##僕": 1828,
      "##坂": 1829,
      "##船": 1830,
      "##老": 1831,
      "##前": 1832,
      "##黒": 1833,
      "##帝": 1834,
      "##皇": 1835,
      "##重": 1836,
      "##久": 1837,
      "##კ": 1838,
      "##回": 1839,
      "##銀": 1840,
      "##撃": 1841,
      "##北": 1842,
      "##巨": 1843,
      "##逆": 1844,
      "##初": 1845,
      "##佛": 1846,
      "##匹": 1847,
      "##乙": 1848,
      "##@": 1849,
      "##塊": 1850,
      "##万": 1851,
      "##紅": 1852,
      "##玉": 1853,
      "##朱": 1854,
      "##ப": 1855,
      "##松": 1856,
      "##张": 1857,
      "##ရ": 1858,
      "##刘": 1859,
      "##陈": 1860,
      "##,": 1861,
      "##he": 1862,
      "the": 1863,
      "##er": 1864,
      "##in": 1865,
      "##on": 1866,
      "##ed": 1867,
      "##nd": 1868,
      "##or": 1869,
      "##at": 1870,
      "##es": 1871,
      "##ar": 1872,
      "##en": 1873,
      "in": 1874,
      "of": 1875,
      "##an": 1876,
      "##al": 1877,
      "##it": 1878,
      "##ing": 1879,
      "##as": 1880,
      "and": 1881,
      "##is": 1882,
      "to": 1883,
      "##ic": 1884,
      "##ou": 1885,
      "##ion": 1886,
      "##re": 1887,
      "##om": 1888,
      "##il": 1889,
      "##el": 1890,
      "th": 1891,
      "##ec": 1892,
      "##ent": 1893,
      "##st": 1894,
      "##am": 1895,
      "##et": 1896,
      "##ro": 1897,
      "on": 1898,
      "##ac": 1899,
      "##ad": 1900,
      "was": 1901,
      "##ur": 1902,
      "st": 1903,
      "##ol": 1904,
      "for": 1905,
      "##le": 1906,
      "##ly": 1907,
      "##ir": 1908,
      "as": 1909,
      "##id": 1910,
      "@-": 1911,
      "@-@": 1912,
      "##ter": 1913,
      "##iv": 1914,
      "##ig": 1915,
      "##ot": 1916,
      "re": 1917,
      "##ut": 1918,
      "##im": 1919,
      "##ow": 1920,
      "##ith": 1921,
      "##ay": 1922,
      "be": 1923,
      "al": 1924,
      "with": 1925,
      "##ation": 1926,
      "that": 1927,
      "wh": 1928,
      "it": 1929,
      "con": 1930,
      "##ers": 1931,
      "##em": 1932,
      "at": 1933,
      "an": 1934,
      "by": 1935,
      "fr": 1936,
      "is": 1937,
      "he": 1938,
      "##us": 1939,
      "##ch": 1940,
      "##ce": 1941,
      "##ver": 1942,
      "##th": 1943,
      "##ul": 1944,
      "##os": 1945,
      "##and": 1946,
      "ch": 1947,
      "##ain": 1948,
      "19": 1949,
      "his": 1950,
      "##her": 1951,
      "##est": 1952,
      "##ag": 1953,
      "##av": 1954,
      "##um": 1955,
      "com": 1956,
      "##ct": 1957,
      "su": 1958,
      "se": 1959,
      "from": 1960,
      "pro": 1961,
      "##od": 1962,
      "##ess": 1963,
      "de": 1964,
      "##ri": 1965,
      "20": 1966,
      "##ap": 1967,
      "##ist": 1968,
      "##ect": 1969,
      "##un": 1970,
      "ne": 1971,
      "##op": 1972,
      "##ere": 1973,
      "sh": 1974,
      "##ill": 1975,
      "##igh": 1976,
      "##ies": 1977,
      "##art": 1978,
      "##ard": 1979,
      "##ber": 1980,
      "##if": 1981,
      "or": 1982,
      "##ld": 1983,
      "ar": 1984,
      "##all": 1985,
      "##oc": 1986,
      "##ak": 1987,
      "ex": 1988,
      "pl": 1989,
      "were": 1990,
      "##ate": 1991,
      "##ich": 1992,
      "##ort": 1993,
      "un": 1994,
      "##ab": 1995,
      "pr": 1996,
      "##pp": 1997,
      "le": 1998,
      "##ant": 1999,
      "sp": 2000,
      "##ud": 2001,
      "##gh": 2002,
      "##ong": 2003,
      "tr": 2004,
      "##se": 2005,
      "##ated": 2006,
      "##ity": 2007,
      "##ive": 2008,
      "##ie": 2009,
      "en": 2010,
      "##ame": 2011,
      "had": 2012,
      "##ore": 2013,
      "##ack": 2014,
      "##ip": 2015,
      "##our": 2016,
      "##ast": 2017,
      "##ear": 2018,
      "which": 2019,
      "##ge": 2020,
      "##ov": 2021,
      "##ough": 2022,
      "are": 2023,
      "not": 2024,
      "##ment": 2025,
      "##ian": 2026,
      "af": 2027,
      "##ell": 2028,
      "##ial": 2029,
      "##ound": 2030,
      "##ost": 2031,
      "##pt": 2032,
      "rec": 2033,
      "##ia": 2034,
      "##ight": 2035,
      "cl": 2036,
      "##qu": 2037,
      "##out": 2038,
      "##ust": 2039,
      "wor": 2040,
      "##ary": 2041,
      "whe": 2042,
      "##ine": 2043,
      "br": 2044,
      "##oun": 2045,
      "ad": 2046,
      "##cc": 2047,
      "##ical": 2048,
      "##ave": 2049,
      "sc": 2050,
      "her": 2051,
      "fir": 2052,
      "comp": 2053,
      "but": 2054,
      "##ord": 2055,
      "this": 2056,
      "inc": 2057,
      "##ther": 2058,
      "200": 2059,
      "cont": 2060,
      "##ould": 2061,
      "tw": 2062,
      "##ous": 2063,
      "ab": 2064,
      "after": 2065,
      "##ish": 2066,
      "int": 2067,
      "first": 2068,
      "gr": 2069,
      "##ions": 2070,
      "##so": 2071,
      "res": 2072,
      "its": 2073,
      "new": 2074,
      "##ure": 2075,
      "their": 2076,
      "am": 2077,
      "all": 2078,
      "man": 2079,
      "##og": 2080,
      "one": 2081,
      "##ue": 2082,
      "##per": 2083,
      "per": 2084,
      "##ass": 2085,
      "##ign": 2086,
      "also": 2087,
      "##ome": 2088,
      "mar": 2089,
      "##ub": 2090,
      "##ok": 2091,
      "us": 2092,
      "rel": 2093,
      "she": 2094,
      "##oll": 2095,
      "##ater": 2096,
      "tim": 2097,
      "##00": 2098,
      "##age": 2099,
      "##ide": 2100,
      "##ond": 2101,
      "they": 2102,
      "##orm": 2103,
      "ser": 2104,
      "##ire": 2105,
      "##hed": 2106,
      "two": 2107,
      "cr": 2108,
      "part": 2109,
      "ag": 2110,
      "fe": 2111,
      "comm": 2112,
      "des": 2113,
      "##uc": 2114,
      "##ans": 2115,
      "have": 2116,
      "bec": 2117,
      "##ally": 2118,
      "##ff": 2119,
      "dis": 2120,
      "##pl": 2121,
      "##ence": 2122,
      "##ry": 2123,
      "who": 2124,
      "app": 2125,
      "##ree": 2126,
      "go": 2127,
      "18": 2128,
      "##ile": 2129,
      "##ance": 2130,
      "@.": 2131,
      "@.@": 2132,
      "we": 2133,
      "##ition": 2134,
      "##end": 2135,
      "year": 2136,
      "##own": 2137,
      "##iz": 2138,
      "off": 2139,
      "play": 2140,
      "has": 2141,
      "##act": 2142,
      "##uring": 2143,
      "been": 2144,
      "ro": 2145,
      "##uct": 2146,
      "##ely": 2147,
      "other": 2148,
      "over": 2149,
      "201": 2150,
      "@,": 2151,
      "@,@": 2152,
      "im": 2153,
      "##aw": 2154,
      "car": 2155,
      "##ult": 2156,
      "##lud": 2157,
      "##ory": 2158,
      "##ice": 2159,
      "out": 2160,
      "##ations": 2161,
      "co": 2162,
      "##ember": 2163,
      "up": 2164,
      "##ach": 2165,
      "inter": 2166,
      "att": 2167,
      "ev": 2168,
      "##ace": 2169,
      "##ke": 2170,
      "dec": 2171,
      "fin": 2172,
      "when": 2173,
      "##land": 2174,
      "pre": 2175,
      "bo": 2176,
      "##ade": 2177,
      "##ib": 2178,
      "##pr": 2179,
      "##ail": 2180,
      "time": 2181,
      "can": 2182,
      "during": 2183,
      "##ens": 2184,
      "##ount": 2185,
      "##urn": 2186,
      "fl": 2187,
      "##ite": 2188,
      "includ": 2189,
      "ind": 2190,
      "te": 2191,
      "would": 2192,
      "sec": 2193,
      "##eas": 2194,
      "##ks": 2195,
      "fil": 2196,
      "##ict": 2197,
      "##ang": 2198,
      "##man": 2199,
      "##one": 2200,
      "##ward": 2201,
      "into": 2202,
      "##we": 2203,
      "him": 2204,
      "act": 2205,
      "bl": 2206,
      "##wn": 2207,
      "##int": 2208,
      "dr": 2209,
      "ear": 2210,
      "##ates": 2211,
      "war": 2212,
      "str": 2213,
      "jo": 2214,
      "##ied": 2215,
      "##ick": 2216,
      "##able": 2217,
      "char": 2218,
      "bet": 2219,
      "more": 2220,
      "##nder": 2221,
      "##ose": 2222,
      "##ited": 2223,
      "##amp": 2224,
      "cent": 2225,
      "form": 2226,
      "##itt": 2227,
      "film": 2228,
      "par": 2229,
      "me": 2230,
      "##ents": 2231,
      "acc": 2232,
      "##les": 2233,
      "cons": 2234,
      "##ors": 2235,
      "##way": 2236,
      "el": 2237,
      "##old": 2238,
      "##ason": 2239,
      "##form": 2240,
      "##ings": 2241,
      "while": 2242,
      "mus": 2243,
      "##vel": 2244,
      "##ild": 2245,
      "##ces": 2246,
      "most": 2247,
      "game": 2248,
      "##att": 2249,
      "##ft": 2250,
      "##ind": 2251,
      "##ug": 2252,
      "thr": 2253,
      "there": 2254,
      "##gr": 2255,
      "kn": 2256,
      "##port": 2257,
      "rem": 2258,
      "nor": 2259,
      "gen": 2260,
      "##fer": 2261,
      "ass": 2262,
      "##aus": 2263,
      "##ake": 2264,
      "##ious": 2265,
      "wr": 2266,
      "how": 2267,
      "qu": 2268,
      "em": 2269,
      "##ican": 2270,
      "##reat": 2271,
      "no": 2272,
      "##iss": 2273,
      "prod": 2274,
      "later": 2275,
      "song": 2276,
      "##ra": 2277,
      "again": 2278,
      "only": 2279,
      "reg": 2280,
      "so": 2281,
      "##rib": 2282,
      "##gan": 2283,
      "##ved": 2284,
      "under": 2285,
      "work": 2286,
      "##ood": 2287,
      "##rop": 2288,
      "sy": 2289,
      "may": 2290,
      "##ey": 2291,
      "them": 2292,
      "ret": 2293,
      "than": 2294,
      "some": 2295,
      "po": 2296,
      "##als": 2297,
      "pe": 2298,
      "three": 2299,
      "about": 2300,
      "col": 2301,
      "##ubl": 2302,
      "##eld": 2303,
      "199": 2304,
      "##ix": 2305,
      "##ween": 2306,
      "##ath": 2307,
      "bu": 2308,
      "##ons": 2309,
      "between": 2310,
      "##ollow": 2311,
      "##oth": 2312,
      "day": 2313,
      "air": 2314,
      "##ered": 2315,
      "high": 2316,
      "bro": 2317,
      "rev": 2318,
      "mon": 2319,
      "##hip": 2320,
      "through": 2321,
      "record": 2322,
      "##te": 2323,
      "follow": 2324,
      "##ock": 2325,
      "ma": 2326,
      "eng": 2327,
      "##ational": 2328,
      "bas": 2329,
      "second": 2330,
      "##fore": 2331,
      "end": 2332,
      "li": 2333,
      "##outh": 2334,
      "releas": 2335,
      "ph": 2336,
      "ac": 2337,
      "num": 2338,
      "##ters": 2339,
      "sub": 2340,
      "min": 2341,
      "pres": 2342,
      "##hn": 2343,
      "##ph": 2344,
      "sa": 2345,
      "##orn": 2346,
      "##iew": 2347,
      "pol": 2348,
      "ed": 2349,
      "alb": 2350,
      "season": 2351,
      "##ced": 2352,
      "ep": 2353,
      "four": 2354,
      "##ics": 2355,
      "def": 2356,
      "amer": 2357,
      "pos": 2358,
      "world": 2359,
      "do": 2360,
      "north": 2361,
      "where": 2362,
      "cap": 2363,
      "before": 2364,
      "team": 2365,
      "mov": 2366,
      "##ular": 2367,
      "spec": 2368,
      "##ating": 2369,
      "##ames": 2370,
      "##ral": 2371,
      "arm": 2372,
      "lar": 2373,
      "sm": 2374,
      "made": 2375,
      "sch": 2376,
      "##urr": 2377,
      "##ision": 2378,
      "will": 2379,
      "gu": 2380,
      "##ived": 2381,
      "such": 2382,
      "##hes": 2383,
      "##son": 2384,
      "sing": 2385,
      "000": 2386,
      "##str": 2387,
      "album": 2388,
      "publ": 2389,
      "##ton": 2390,
      "##ep": 2391,
      "met": 2392,
      "##ished": 2393,
      "sever": 2394,
      "##ever": 2395,
      "years": 2396,
      "##ained": 2397,
      "##io": 2398,
      "##ode": 2399,
      "supp": 2400,
      "##ros": 2401,
      "loc": 2402,
      "call": 2403,
      "10": 2404,
      "gener": 2405,
      "count": 2406,
      "show": 2407,
      "back": 2408,
      "south": 2409,
      "add": 2410,
      "##ning": 2411,
      "##let": 2412,
      "inv": 2413,
      "both": 2414,
      "##ected": 2415,
      "##ual": 2416,
      "##tern": 2417,
      "then": 2418,
      "art": 2419,
      "##ily": 2420,
      "however": 2421,
      "epis": 2422,
      "##ery": 2423,
      "used": 2424,
      "mill": 2425,
      "##br": 2426,
      "rece": 2427,
      "##uction": 2428,
      "batt": 2429,
      "##ific": 2430,
      "being": 2431,
      "these": 2432,
      "well": 2433,
      "##ury": 2434,
      "##oup": 2435,
      "stud": 2436,
      "set": 2437,
      "##ection": 2438,
      "##ve": 2439,
      "series": 2440,
      "##uary": 2441,
      "against": 2442,
      "##air": 2443,
      "##ank": 2444,
      "charac": 2445,
      "##az": 2446,
      "##ale": 2447,
      "bel": 2448,
      "##velop": 2449,
      "##ife": 2450,
      "found": 2451,
      "number": 2452,
      "##led": 2453,
      "17": 2454,
      "lead": 2455,
      "many": 2456,
      "music": 2457,
      "sim": 2458,
      "##other": 2459,
      "##ement": 2460,
      "sur": 2461,
      "perform": 2462,
      "##ather": 2463,
      "long": 2464,
      "main": 2465,
      "mat": 2466,
      "##ert": 2467,
      "op": 2468,
      "##irect": 2469,
      "city": 2470,
      "pop": 2471,
      "##ool": 2472,
      "ter": 2473,
      "##ause": 2474,
      "##ince": 2475,
      "##oy": 2476,
      "develop": 2477,
      "##fl": 2478,
      "became": 2479,
      "united": 2480,
      "hist": 2481,
      "several": 2482,
      "including": 2483,
      "##igin": 2484,
      "direct": 2485,
      "sl": 2486,
      "cre": 2487,
      "state": 2488,
      "early": 2489,
      "##ise": 2490,
      "mil": 2491,
      "brit": 2492,
      "##ower": 2493,
      "##ier": 2494,
      "origin": 2495,
      "div": 2496,
      "##ised": 2497,
      "##vern": 2498,
      "ob": 2499,
      "15": 2500,
      "198": 2501,
      "12": 2502,
      "##au": 2503,
      "trans": 2504,
      "##its": 2505,
      "did": 2506,
      "##anc": 2507,
      "appear": 2508,
      "##ork": 2509,
      "##ures": 2510,
      "dist": 2511,
      "##iet": 2512,
      "nov": 2513,
      "194": 2514,
      "ext": 2515,
      "##ines": 2516,
      "##ities": 2517,
      "ship": 2518,
      "contin": 2519,
      "govern": 2520,
      "##ron": 2521,
      "pers": 2522,
      "conc": 2523,
      "##olog": 2524,
      "win": 2525,
      "##are": 2526,
      "prov": 2527,
      "episode": 2528,
      "##ole": 2529,
      "states": 2530,
      "##til": 2531,
      "##elf": 2532,
      "##ross": 2533,
      "john": 2534,
      "said": 2535,
      "##ird": 2536,
      "ann": 2537,
      "##ful": 2538,
      "following": 2539,
      "crit": 2540,
      "##ley": 2541,
      "est": 2542,
      "##ield": 2543,
      "design": 2544,
      "group": 2545,
      "exp": 2546,
      "could": 2547,
      "dif": 2548,
      "med": 2549,
      "##ative": 2550,
      "16": 2551,
      "return": 2552,
      "##ouse": 2553,
      "oper": 2554,
      "run": 2555,
      "desc": 2556,
      "##ought": 2557,
      "##ann": 2558,
      "american": 2559,
      "##sp": 2560,
      "bar": 2561,
      "alth": 2562,
      "##der": 2563,
      "known": 2564,
      "dep": 2565,
      "##eng": 2566,
      "although": 2567,
      "near": 2568,
      "any": 2569,
      "ger": 2570,
      "west": 2571,
      "##ivers": 2572,
      "aust": 2573,
      "sign": 2574,
      "serv": 2575,
      "har": 2576,
      "##ah": 2577,
      "197": 2578,
      "mod": 2579,
      "king": 2580,
      "jun": 2581,
      "##ase": 2582,
      "pass": 2583,
      "11": 2584,
      "down": 2585,
      "##ually": 2586,
      "196": 2587,
      "##ll": 2588,
      "##ued": 2589,
      "##uch": 2590,
      "land": 2591,
      "##ident": 2592,
      "fam": 2593,
      "disc": 2594,
      "##iam": 2595,
      "red": 2596,
      "##iver": 2597,
      "began": 2598,
      "gre": 2599,
      "like": 2600,
      "eff": 2601,
      "offic": 2602,
      "##ined": 2603,
      "until": 2604,
      "##row": 2605,
      "lo": 2606,
      "##emb": 2607,
      "feat": 2608,
      "##ople": 2609,
      "##ism": 2610,
      "ste": 2611,
      "##up": 2612,
      "##ject": 2613,
      "##ty": 2614,
      "##enn": 2615,
      "##ange": 2616,
      "##0s": 2617,
      "##aking": 2618,
      "##ern": 2619,
      "school": 2620,
      "own": 2621,
      "because": 2622,
      "along": 2623,
      "point": 2624,
      "##ided": 2625,
      "released": 2626,
      "rep": 2627,
      "port": 2628,
      "open": 2629,
      "##ccess": 2630,
      "inst": 2631,
      "##ele": 2632,
      "resp": 2633,
      "##ins": 2634,
      "##ized": 2635,
      "called": 2636,
      "imp": 2637,
      "prev": 2638,
      "national": 2639,
      "star": 2640,
      "maj": 2641,
      "##els": 2642,
      "##ists": 2643,
      "people": 2644,
      "##stem": 2645,
      "##ured": 2646,
      "##ys": 2647,
      "wee": 2648,
      "##ially": 2649,
      "##ution": 2650,
      "class": 2651,
      "adv": 2652,
      "million": 2653,
      "##ull": 2654,
      "##osed": 2655,
      "##xt": 2656,
      "##ium": 2657,
      "just": 2658,
      "system": 2659,
      "id": 2660,
      "cour": 2661,
      "ever": 2662,
      "british": 2663,
      "since": 2664,
      "13": 2665,
      "aut": 2666,
      "six": 2667,
      "##ession": 2668,
      "best": 2669,
      "head": 2670,
      "around": 2671,
      "cor": 2672,
      "aug": 2673,
      "award": 2674,
      "major": 2675,
      "life": 2676,
      "ju": 2677,
      "##ene": 2678,
      "writ": 2679,
      "var": 2680,
      "##ica": 2681,
      "##cept": 2682,
      "if": 2683,
      "each": 2684,
      "success": 2685,
      "##red": 2686,
      "##ains": 2687,
      "##ont": 2688,
      "##any": 2689,
      "##ets": 2690,
      "av": 2691,
      "sept": 2692,
      "bre": 2693,
      "la": 2694,
      "produc": 2695,
      "attack": 2696,
      "##gest": 2697,
      "##ments": 2698,
      "##ently": 2699,
      "coll": 2700,
      "character": 2701,
      "##ark": 2702,
      "##oot": 2703,
      "use": 2704,
      "arr": 2705,
      "describ": 2706,
      "september": 2707,
      "start": 2708,
      "##amed": 2709,
      "august": 2710,
      "same": 2711,
      "##ible": 2712,
      "tri": 2713,
      "road": 2714,
      "##ts": 2715,
      "ge": 2716,
      "occ": 2717,
      "east": 2718,
      "final": 2719,
      "##aced": 2720,
      "##ane": 2721,
      "result": 2722,
      "dem": 2723,
      "support": 2724,
      "oct": 2725,
      "hel": 2726,
      "another": 2727,
      "five": 2728,
      "##yp": 2729,
      "sw": 2730,
      "##aining": 2731,
      "14": 2732,
      "public": 2733,
      "build": 2734,
      "prom": 2735,
      "##rap": 2736,
      "##ired": 2737,
      "km": 2738,
      "##ik": 2739,
      "great": 2740,
      "##ended": 2741,
      "my": 2742,
      "old": 2743,
      "camp": 2744,
      "you": 2745,
      "##aving": 2746,
      "195": 2747,
      "gl": 2748,
      "det": 2749,
      "##ues": 2750,
      "took": 2751,
      "sk": 2752,
      "band": 2753,
      "austral": 2754,
      "german": 2755,
      "book": 2756,
      "##cl": 2757,
      "line": 2758,
      "ra": 2759,
      "mid": 2760,
      "area": 2761,
      "house": 2762,
      "##ob": 2763,
      "small": 2764,
      "complet": 2765,
      "##ner": 2766,
      "193": 2767,
      "report": 2768,
      "consid": 2769,
      "##ove": 2770,
      "century": 2771,
      "##und": 2772,
      "##ober": 2773,
      "##ott": 2774,
      "received": 2775,
      "turn": 2776,
      "##get": 2777,
      "contro": 2778,
      "october": 2779,
      "chr": 2780,
      "##ants": 2781,
      "stre": 2782,
      "##hern": 2783,
      "univers": 2784,
      "##ically": 2785,
      "##hing": 2786,
      "##ives": 2787,
      "rout": 2788,
      "##uss": 2789,
      "191": 2790,
      "##ble": 2791,
      "games": 2792,
      "what": 2793,
      "partic": 2794,
      "short": 2795,
      "##ison": 2796,
      "last": 2797,
      "due": 2798,
      "government": 2799,
      "##ility": 2800,
      "hal": 2801,
      "vers": 2802,
      "##ina": 2803,
      "leg": 2804,
      "rest": 2805,
      "march": 2806,
      "##ately": 2807,
      "ent": 2808,
      "ke": 2809,
      "##gin": 2810,
      "person": 2811,
      "command": 2812,
      "##ored": 2813,
      "##ink": 2814,
      "way": 2815,
      "mag": 2816,
      "##oss": 2817,
      "home": 2818,
      "jan": 2819,
      "june": 2820,
      "##ians": 2821,
      "prot": 2822,
      "mark": 2823,
      "del": 2824,
      "third": 2825,
      "##inc": 2826,
      "general": 2827,
      "single": 2828,
      "conv": 2829,
      "##app": 2830,
      "child": 2831,
      "squ": 2832,
      "july": 2833,
      "##ission": 2834,
      "tit": 2835,
      "capt": 2836,
      "##iving": 2837,
      "##sc": 2838,
      "men": 2839,
      "november": 2840,
      "track": 2841,
      "##urch": 2842,
      "apr": 2843,
      "##omet": 2844,
      "death": 2845,
      "care": 2846,
      "review": 2847,
      "fur": 2848,
      "event": 2849,
      "much": 2850,
      "##ute": 2851,
      "island": 2852,
      "york": 2853,
      "april": 2854,
      "differ": 2855,
      "top": 2856,
      "dam": 2857,
      "##enc": 2858,
      "cal": 2859,
      "large": 2860,
      "##lish": 2861,
      "accord": 2862,
      "soc": 2863,
      "power": 2864,
      "even": 2865,
      "left": 2866,
      "town": 2867,
      "che": 2868,
      "##ash": 2869,
      "cast": 2870,
      "##ilt": 2871,
      "##ural": 2872,
      "eu": 2873,
      "vide": 2874,
      "intern": 2875,
      "##res": 2876,
      "gun": 2877,
      "allow": 2878,
      "##ively": 2879,
      "ant": 2880,
      "##ric": 2881,
      "30": 2882,
      "##aim": 2883,
      "month": 2884,
      "##ger": 2885,
      "pat": 2886,
      "story": 2887,
      "##ting": 2888,
      "##idge": 2889,
      "progr": 2890,
      "kill": 2891,
      "appro": 2892,
      "vis": 2893,
      "based": 2894,
      "law": 2895,
      "family": 2896,
      "##bo": 2897,
      "##ague": 2898,
      "place": 2899,
      "now": 2900,
      "##ms": 2901,
      "vict": 2902,
      "##ales": 2903,
      "incre": 2904,
      "expl": 2905,
      "park": 2906,
      "black": 2907,
      "##bert": 2908,
      "right": 2909,
      "##ified": 2910,
      "spe": 2911,
      "##over": 2912,
      "ele": 2913,
      "enter": 2914,
      "company": 2915,
      "army": 2916,
      "conf": 2917,
      "##empt": 2918,
      "december": 2919,
      "25": 2920,
      "history": 2921,
      "##avy": 2922,
      "club": 2923,
      "##ted": 2924,
      "cond": 2925,
      "played": 2926,
      "addition": 2927,
      "##ten": 2928,
      "according": 2929,
      "##..": 2930,
      "post": 2931,
      "included": 2932,
      "##by": 2933,
      "storm": 2934,
      "name": 2935,
      "river": 2936,
      "##ats": 2937,
      "##rote": 2938,
      "water": 2939,
      "led": 2940,
      "192": 2941,
      "##ention": 2942,
      "january": 2943,
      "##ench": 2944,
      "battle": 2945,
      "##ograp": 2946,
      "hand": 2947,
      "##aged": 2948,
      "##ient": 2949,
      "##ared": 2950,
      "##ime": 2951,
      "ang": 2952,
      "wind": 2953,
      "##ling": 2954,
      "##ball": 2955,
      "wom": 2956,
      "##side": 2957,
      "ii": 2958,
      "wrote": 2959,
      "won": 2960,
      "##apan": 2961,
      "hum": 2962,
      "##hen": 2963,
      "##ony": 2964,
      "##ven": 2965,
      "##erg": 2966,
      "times": 2967,
      "##eal": 2968,
      "##ages": 2969,
      "##min": 2970,
      "organ": 2971,
      "opp": 2972,
      "...": 2973,
      "##ience": 2974,
      "val": 2975,
      "japan": 2976,
      "previous": 2977,
      "requ": 2978,
      "far": 2979,
      "within": 2980,
      "##ody": 2981,
      "make": 2982,
      "rad": 2983,
      "described": 2984,
      "init": 2985,
      "##ital": 2986,
      "##med": 2987,
      "those": 2988,
      "##uck": 2989,
      "bill": 2990,
      "still": 2991,
      "video": 2992,
      "champ": 2993,
      "stand": 2994,
      "##ides": 2995,
      "next": 2996,
      "##ption": 2997,
      "##erv": 2998,
      "##omin": 2999,
      "named": 3000,
      "late": 3001,
      "constr": 3002,
      "belie": 3003,
      "##hy": 3004,
      "bus": 3005,
      "week": 3006,
      "original": 3007,
      "release": 3008,
      "among": 3009,
      "##ract": 3010,
      "further": 3011,
      "##aff": 3012,
      "##ister": 3013,
      "attempt": 3014,
      "repl": 3015,
      "##por": 3016,
      "list": 3017,
      "##iven": 3018,
      "league": 3019,
      "##ilar": 3020,
      "##embers": 3021,
      "effect": 3022,
      "very": 3023,
      "dest": 3024,
      "foot": 3025,
      "force": 3026,
      "iss": 3027,
      "view": 3028,
      "poss": 3029,
      "##mer": 3030,
      "##na": 3031,
      "##iod": 3032,
      "real": 3033,
      "100": 3034,
      "deb": 3035,
      "##ior": 3036,
      "##itions": 3037,
      "route": 3038,
      "production": 3039,
      "commun": 3040,
      "exper": 3041,
      "species": 3042,
      "##ret": 3043,
      "##ps": 3044,
      "##hest": 3045,
      "##ached": 3046,
      "members": 3047,
      "sound": 3048,
      "##ne": 3049,
      "##ival": 3050,
      "polit": 3051,
      "cy": 3052,
      "europ": 3053,
      "infl": 3054,
      "inf": 3055,
      "christ": 3056,
      "ref": 3057,
      "former": 3058,
      "milit": 3059,
      "febr": 3060,
      "tak": 3061,
      "february": 3062,
      "tour": 3063,
      "sol": 3064,
      "similar": 3065,
      "elect": 3066,
      "white": 3067,
      "##ances": 3068,
      "##ences": 3069,
      "sold": 3070,
      "period": 3071,
      "nort": 3072,
      "though": 3073,
      "##ren": 3074,
      "repr": 3075,
      "division": 3076,
      "days": 3077,
      "built": 3078,
      "roy": 3079,
      "##ee": 3080,
      "match": 3081,
      "tele": 3082,
      "super": 3083,
      "nat": 3084,
      "control": 3085,
      "##augh": 3086,
      "side": 3087,
      "##hor": 3088,
      "prop": 3089,
      "tem": 3090,
      "held": 3091,
      "europe": 3092,
      "sout": 3093,
      "trop": 3094,
      "plan": 3095,
      "youn": 3096,
      "rock": 3097,
      "##ars": 3098,
      "##ney": 3099,
      "good": 3100,
      "university": 3101,
      "##ented": 3102,
      "light": 3103,
      "##rod": 3104,
      "cle": 3105,
      "french": 3106,
      "president": 3107,
      "##ness": 3108,
      "say": 3109,
      "service": 3110,
      "typ": 3111,
      "##ched": 3112,
      "fle": 3113,
      "local": 3114,
      "role": 3115,
      "desp": 3116,
      "estab": 3117,
      "help": 3118,
      "2010": 3119,
      "fre": 3120,
      "##wards": 3121,
      "equ": 3122,
      "21": 3123,
      "order": 3124,
      "eas": 3125,
      "coun": 3126,
      "came": 3127,
      "every": 3128,
      "##ax": 3129,
      "tot": 3130,
      "caus": 3131,
      "##ech": 3132,
      "beh": 3133,
      "having": 3134,
      "sen": 3135,
      "never": 3136,
      "william": 3137,
      "##oci": 3138,
      "cross": 3139,
      "##sh": 3140,
      "sum": 3141,
      "##ford": 3142,
      "##ipp": 3143,
      "sug": 3144,
      "few": 3145,
      "mor": 3146,
      "##ler": 3147,
      "##ulation": 3148,
      "##line": 3149,
      "##uted": 3150,
      "test": 3151,
      "associ": 3152,
      "##raft": 3153,
      "pa": 3154,
      "chart": 3155,
      "player": 3156,
      "prof": 3157,
      "mount": 3158,
      "2008": 3159,
      "often": 3160,
      "see": 3161,
      "common": 3162,
      "stat": 3163,
      "take": 3164,
      "24": 3165,
      "##ards": 3166,
      "##ices": 3167,
      "pet": 3168,
      "2009": 3169,
      "half": 3170,
      "career": 3171,
      "geor": 3172,
      "##itten": 3173,
      "##ying": 3174,
      "##par": 3175,
      "low": 3176,
      "continued": 3177,
      "pri": 3178,
      "sty": 3179,
      "ten": 3180,
      "claim": 3181,
      "histor": 3182,
      "##ator": 3183,
      "2011": 3184,
      "level": 3185,
      "sent": 3186,
      "press": 3187,
      "different": 3188,
      "##omb": 3189,
      "mich": 3190,
      "fire": 3191,
      "fun": 3192,
      "without": 3193,
      "##erc": 3194,
      "##estern": 3195,
      "despite": 3196,
      "##ese": 3197,
      "##ots": 3198,
      "england": 3199,
      "cover": 3200,
      "rom": 3201,
      "wat": 3202,
      "##af": 3203,
      "less": 3204,
      "je": 3205,
      "22": 3206,
      "##ology": 3207,
      "court": 3208,
      "considered": 3209,
      "comb": 3210,
      "##read": 3211,
      "party": 3212,
      "dav": 3213,
      "##ried": 3214,
      "##ops": 3215,
      "development": 3216,
      "fact": 3217,
      "##ves": 3218,
      "##aster": 3219,
      "field": 3220,
      "2007": 3221,
      "##iend": 3222,
      "repres": 3223,
      "don": 3224,
      "##me": 3225,
      "arch": 3226,
      "church": 3227,
      "##ru": 3228,
      "tre": 3229,
      "increas": 3230,
      "country": 3231,
      "night": 3232,
      "##atic": 3233,
      "##hel": 3234,
      "county": 3235,
      "influ": 3236,
      "##con": 3237,
      "champions": 3238,
      "##ham": 3239,
      "songs": 3240,
      "friend": 3241,
      "##iter": 3242,
      "royal": 3243,
      "version": 3244,
      "english": 3245,
      "##ittle": 3246,
      "hig": 3247,
      "##ones": 3248,
      "moved": 3249,
      "colle": 3250,
      "military": 3251,
      "written": 3252,
      "vol": 3253,
      "highway": 3254,
      "trad": 3255,
      "##essed": 3256,
      "##lex": 3257,
      "want": 3258,
      "position": 3259,
      "strong": 3260,
      "##vision": 3261,
      "program": 3262,
      "become": 3263,
      "2012": 3264,
      "anim": 3265,
      "mi": 3266,
      "lim": 3267,
      "##eder": 3268,
      "##alk": 3269,
      "chang": 3270,
      "ve": 3271,
      "23": 3272,
      "forces": 3273,
      "lost": 3274,
      "##ize": 3275,
      "lond": 3276,
      "international": 3277,
      "##urs": 3278,
      "son": 3279,
      "building": 3280,
      "little": 3281,
      "london": 3282,
      "given": 3283,
      "miss": 3284,
      "mo": 3285,
      "total": 3286,
      "##ened": 3287,
      "author": 3288,
      "tropical": 3289,
      "suggest": 3290,
      "invol": 3291,
      "##elt": 3292,
      "refer": 3293,
      "##craft": 3294,
      "vir": 3295,
      "ord": 3296,
      "announ": 3297,
      "let": 3298,
      "vi": 3299,
      "190": 3300,
      "phil": 3301,
      "##ald": 3302,
      "##ged": 3303,
      "lab": 3304,
      "##atter": 3305,
      "street": 3306,
      "read": 3307,
      "hour": 3308,
      "import": 3309,
      "project": 3310,
      "##ai": 3311,
      "sel": 3312,
      "##ising": 3313,
      "##irc": 3314,
      "free": 3315,
      "##iety": 3316,
      "get": 3317,
      "canad": 3318,
      "eight": 3319,
      "aff": 3320,
      "bur": 3321,
      "rail": 3322,
      "##sequ": 3323,
      "const": 3324,
      "surv": 3325,
      "performance": 3326,
      "gold": 3327,
      "ly": 3328,
      "##que": 3329,
      "sal": 3330,
      "station": 3331,
      "defe": 3332,
      "gave": 3333,
      "earl": 3334,
      "##bs": 3335,
      "went": 3336,
      "cop": 3337,
      "father": 3338,
      "find": 3339,
      "returned": 3340,
      "##ches": 3341,
      "somet": 3342,
      "##ailed": 3343,
      "##ae": 3344,
      "using": 3345,
      "jack": 3346,
      "need": 3347,
      "broad": 3348,
      "published": 3349,
      "coast": 3350,
      "produced": 3351,
      "arg": 3352,
      "conn": 3353,
      "western": 3354,
      "compet": 3355,
      "##oint": 3356,
      "##ead": 3357,
      "hun": 3358,
      "front": 3359,
      "reported": 3360,
      "popular": 3361,
      "##xim": 3362,
      "trav": 3363,
      "mass": 3364,
      "children": 3365,
      "recorded": 3366,
      "particular": 3367,
      "cult": 3368,
      "##ably": 3369,
      "television": 3370,
      "##roy": 3371,
      "##ional": 3372,
      "##ories": 3373,
      "2006": 3374,
      "ins": 3375,
      "##self": 3376,
      "stated": 3377,
      "aircraft": 3378,
      "mc": 3379,
      "##aign": 3380,
      "ball": 3381,
      "##ama": 3382,
      "special": 3383,
      "hol": 3384,
      "interest": 3385,
      "dev": 3386,
      "##ency": 3387,
      "ground": 3388,
      "campaign": 3389,
      "circ": 3390,
      "ships": 3391,
      "should": 3392,
      "##ned": 3393,
      "##echn": 3394,
      "include": 3395,
      "live": 3396,
      "making": 3397,
      "hit": 3398,
      "critic": 3399,
      "dou": 3400,
      "love": 3401,
      "age": 3402,
      "hom": 3403,
      "27": 3404,
      "women": 3405,
      "##ief": 3406,
      "hurr": 3407,
      "hurrican": 3408,
      "28": 3409,
      "##day": 3410,
      "##ef": 3411,
      "vo": 3412,
      "central": 3413,
      "throughout": 3414,
      "50": 3415,
      "prim": 3416,
      "upon": 3417,
      "##used": 3418,
      "once": 3419,
      "##iment": 3420,
      "young": 3421,
      "##iness": 3422,
      "terr": 3423,
      "cas": 3424,
      "##ength": 3425,
      "##ploy": 3426,
      "##yl": 3427,
      "##uced": 3428,
      "suff": 3429,
      "obs": 3430,
      "himself": 3431,
      "##osp": 3432,
      "official": 3433,
      "2013": 3434,
      "australia": 3435,
      "techn": 3436,
      "mot": 3437,
      "wall": 3438,
      "championship": 3439,
      "aud": 3440,
      "##cess": 3441,
      "depart": 3442,
      "##co": 3443,
      "characters": 3444,
      "tro": 3445,
      "ap": 3446,
      "non": 3447,
      "rich": 3448,
      "vill": 3449,
      "##ensive": 3450,
      "fav": 3451,
      "##play": 3452,
      "26": 3453,
      "present": 3454,
      "mad": 3455,
      "##rew": 3456,
      "relations": 3457,
      "players": 3458,
      "40": 3459,
      "##itive": 3460,
      "##alth": 3461,
      "##vers": 3462,
      "##ring": 3463,
      "sit": 3464,
      "tur": 3465,
      "ft": 3466,
      "##ither": 3467,
      "instead": 3468,
      "fall": 3469,
      "##iting": 3470,
      "squad": 3471,
      "southern": 3472,
      "title": 3473,
      "james": 3474,
      "writing": 3475,
      "seven": 3476,
      "##akes": 3477,
      "away": 3478,
      "189": 3479,
      "cost": 3480,
      "base": 3481,
      "hor": 3482,
      "fac": 3483,
      "begin": 3484,
      "sea": 3485,
      "fem": 3486,
      "##acy": 3487,
      "introd": 3488,
      "hall": 3489,
      "across": 3490,
      "cam": 3491,
      "died": 3492,
      "ir": 3493,
      "remained": 3494,
      "months": 3495,
      "center": 3496,
      "##ense": 3497,
      "##ges": 3498,
      "grand": 3499,
      "enc": 3500,
      "developed": 3501,
      "promot": 3502,
      "signific": 3503,
      "du": 3504,
      "full": 3505,
      "fort": 3506,
      "political": 3507,
      "look": 3508,
      "net": 3509,
      "##rict": 3510,
      "##ked": 3511,
      "various": 3512,
      "##uce": 3513,
      "manag": 3514,
      "mem": 3515,
      "##lo": 3516,
      "fif": 3517,
      "modern": 3518,
      "hot": 3519,
      "##ument": 3520,
      "cat": 3521,
      "##ape": 3522,
      "##utes": 3523,
      "pal": 3524,
      "hurricane": 3525,
      "wood": 3526,
      "put": 3527,
      "too": 3528,
      "hon": 3529,
      "hill": 3530,
      "aver": 3531,
      "ham": 3532,
      "ill": 3533,
      "##itted": 3534,
      "race": 3535,
      "##field": 3536,
      "decl": 3537,
      "##ael": 3538,
      "fight": 3539,
      "pra": 3540,
      "hy": 3541,
      "curr": 3542,
      "office": 3543,
      "bow": 3544,
      "##ries": 3545,
      "big": 3546,
      "##ucted": 3547,
      "##ille": 3548,
      "##isted": 3549,
      "hard": 3550,
      "##fic": 3551,
      "works": 3552,
      "america": 3553,
      "felt": 3554,
      "areas": 3555,
      "noted": 3556,
      "indust": 3557,
      "sil": 3558,
      "eventually": 3559,
      "mal": 3560,
      "style": 3561,
      "##ple": 3562,
      "russ": 3563,
      "announced": 3564,
      "born": 3565,
      "created": 3566,
      "college": 3567,
      "hop": 3568,
      "brother": 3569,
      "##ett": 3570,
      "thought": 3571,
      "reached": 3572,
      "##ering": 3573,
      "miles": 3574,
      "##dom": 3575,
      "destroy": 3576,
      "engine": 3577,
      "construction": 3578,
      "mer": 3579,
      "stri": 3580,
      "bri": 3581,
      "sun": 3582,
      "hold": 3583,
      "successful": 3584,
      "northern": 3585,
      "2005": 3586,
      "##most": 3587,
      "japanese": 3588,
      "san": 3589,
      "cro": 3590,
      "body": 3591,
      "seen": 3592,
      "cut": 3593,
      "pain": 3594,
      "29": 3595,
      "struct": 3596,
      "##ana": 3597,
      "esc": 3598,
      "sym": 3599,
      "toget": 3600,
      "heavy": 3601,
      "adm": 3602,
      "followed": 3603,
      "agre": 3604,
      "together": 3605,
      "range": 3606,
      "##ements": 3607,
      "meet": 3608,
      "performed": 3609,
      "brown": 3610,
      "civ": 3611,
      "served": 3612,
      "##ization": 3613,
      "##ress": 3614,
      "##ows": 3615,
      "2014": 3616,
      "member": 3617,
      "activ": 3618,
      "##work": 3619,
      "george": 3620,
      "##orts": 3621,
      "bridge": 3622,
      "hen": 3623,
      "mix": 3624,
      "football": 3625,
      "god": 3626,
      "cert": 3627,
      "tor": 3628,
      "que": 3629,
      "##idence": 3630,
      "significant": 3631,
      "killed": 3632,
      "saw": 3633,
      "round": 3634,
      "##olution": 3635,
      "taken": 3636,
      "able": 3637,
      "##ality": 3638,
      "establ": 3639,
      "bomb": 3640,
      "##elling": 3641,
      "##ature": 3642,
      "gar": 3643,
      "##ming": 3644,
      "mm": 3645,
      "impro": 3646,
      "ident": 3647,
      "sat": 3648,
      "##ration": 3649,
      "##ids": 3650,
      "becom": 3651,
      "##cent": 3652,
      "##aft": 3653,
      "action": 3654,
      "reb": 3655,
      "points": 3656,
      "human": 3657,
      "los": 3658,
      "does": 3659,
      "pi": 3660,
      "##enth": 3661,
      "##ecut": 3662,
      "mean": 3663,
      "established": 3664,
      "ur": 3665,
      "sn": 3666,
      "thom": 3667,
      "originally": 3668,
      "invest": 3669,
      "grow": 3670,
      "##yn": 3671,
      "insp": 3672,
      "subsequ": 3673,
      "##irl": 3674,
      "##tain": 3675,
      "others": 3676,
      "##enced": 3677,
      "entire": 3678,
      "##aval": 3679,
      "##ox": 3680,
      "appeared": 3681,
      "david": 3682,
      "australian": 3683,
      "director": 3684,
      "voc": 3685,
      "features": 3686,
      "located": 3687,
      "process": 3688,
      "crew": 3689,
      "stage": 3690,
      "##ground": 3691,
      "business": 3692,
      "##oon": 3693,
      "den": 3694,
      "playing": 3695,
      "##ara": 3696,
      "mother": 3697,
      "commission": 3698,
      "started": 3699,
      "expr": 3700,
      "##aves": 3701,
      "caused": 3702,
      "##odes": 3703,
      "decided": 3704,
      "critics": 3705,
      "##ects": 3706,
      "pot": 3707,
      "kingdom": 3708,
      "##ius": 3709,
      "civil": 3710,
      "##ogn": 3711,
      "word": 3712,
      "feet": 3713,
      "rather": 3714,
      "mater": 3715,
      "##ster": 3716,
      "rank": 3717,
      "##ript": 3718,
      "##bur": 3719,
      "##ators": 3720,
      "fourth": 3721,
      "##ament": 3722,
      "econ": 3723,
      "##epend": 3724,
      "fell": 3725,
      "inform": 3726,
      "econom": 3727,
      "independ": 3728,
      "behind": 3729,
      "resear": 3730,
      "##ani": 3731,
      "bi": 3732,
      "##cil": 3733,
      "ital": 3734,
      "represent": 3735,
      "magaz": 3736,
      "discover": 3737,
      "site": 3738,
      "formed": 3739,
      "added": 3740,
      "fleet": 3741,
      "afr": 3742,
      "important": 3743,
      "soon": 3744,
      "188": 3745,
      "pred": 3746,
      "31": 3747,
      "##ample": 3748,
      "##ateg": 3749,
      "##emy": 3750,
      "##ivid": 3751,
      "comment": 3752,
      "jud": 3753,
      "sam": 3754,
      "##reek": 3755,
      "mart": 3756,
      "know": 3757,
      "##wood": 3758,
      "##ped": 3759,
      "eastern": 3760,
      "educ": 3761,
      "damage": 3762,
      "##iers": 3763,
      "pen": 3764,
      "guns": 3765,
      "##be": 3766,
      "completed": 3767,
      "##ades": 3768,
      "green": 3769,
      "mult": 3770,
      "population": 3771,
      "sex": 3772,
      "##den": 3773,
      "almost": 3774,
      "##hic": 3775,
      "tom": 3776,
      "##omm": 3777,
      "##head": 3778,
      "robert": 3779,
      "##ata": 3780,
      "inj": 3781,
      "ru": 3782,
      "##aces": 3783,
      "peak": 3784,
      "neg": 3785,
      "lang": 3786,
      "cup": 3787,
      "##ction": 3788,
      "close": 3789,
      "interv": 3790,
      "##less": 3791,
      "jour": 3792,
      "er": 3793,
      "key": 3794,
      "##ination": 3795,
      "di": 3796,
      "awards": 3797,
      "initially": 3798,
      "indian": 3799,
      "##erm": 3800,
      "princ": 3801,
      "##ki": 3802,
      "##itar": 3803,
      "region": 3804,
      "treat": 3805,
      "loss": 3806,
      "2004": 3807,
      "##go": 3808,
      "social": 3809,
      "opened": 3810,
      "creat": 3811,
      "##eth": 3812,
      "##aps": 3813,
      "##oney": 3814,
      "lack": 3815,
      "scre": 3816,
      "case": 3817,
      "host": 3818,
      "midd": 3819,
      "michael": 3820,
      "##ino": 3821,
      "##arch": 3822,
      "pract": 3823,
      "proble": 3824,
      "girl": 3825,
      "relationship": 3826,
      "##itor": 3827,
      "##ship": 3828,
      "186": 3829,
      "ul": 3830,
      "nar": 3831,
      "individ": 3832,
      "##ceed": 3833,
      "pur": 3834,
      "fund": 3835,
      "sus": 3836,
      "sett": 3837,
      "##lin": 3838,
      "leading": 3839,
      "sour": 3840,
      "##ways": 3841,
      "weeks": 3842,
      "tradition": 3843,
      "bay": 3844,
      "instr": 3845,
      "radio": 3846,
      "working": 3847,
      "separ": 3848,
      "2015": 3849,
      "##ending": 3850,
      "prem": 3851,
      "##cast": 3852,
      "worked": 3853,
      "clos": 3854,
      "france": 3855,
      "recording": 3856,
      "diffic": 3857,
      "difficult": 3858,
      "lou": 3859,
      "secret": 3860,
      "draw": 3861,
      "exc": 3862,
      "towards": 3863,
      "mac": 3864,
      "appoint": 3865,
      "##ma": 3866,
      "##medi": 3867,
      "union": 3868,
      "##istic": 3869,
      "council": 3870,
      "mel": 3871,
      "scene": 3872,
      "laun": 3873,
      "##ky": 3874,
      "##umb": 3875,
      "##imes": 3876,
      "##ula": 3877,
      "goal": 3878,
      "republ": 3879,
      "wid": 3880,
      "rain": 3881,
      "##uel": 3882,
      "henry": 3883,
      "room": 3884,
      "angel": 3885,
      "norm": 3886,
      "##igned": 3887,
      "quick": 3888,
      "##anch": 3889,
      "rap": 3890,
      "material": 3891,
      "pit": 3892,
      "break": 3893,
      "records": 3894,
      "accept": 3895,
      "vot": 3896,
      "scored": 3897,
      "washing": 3898,
      "##ena": 3899,
      "training": 3900,
      "must": 3901,
      "provided": 3902,
      "navy": 3903,
      "least": 3904,
      "colon": 3905,
      "reach": 3906,
      "wanted": 3907,
      "rob": 3908,
      "fig": 3909,
      "500": 3910,
      "ey": 3911,
      "brought": 3912,
      "average": 3913,
      "dut": 3914,
      "##board": 3915,
      "recogn": 3916,
      "brig": 3917,
      "feder": 3918,
      "earth": 3919,
      "featured": 3920,
      "##iding": 3921,
      "##ze": 3922,
      "##ams": 3923,
      "##osition": 3924,
      "##ological": 3925,
      "troops": 3926,
      "##off": 3927,
      "tar": 3928,
      "foc": 3929,
      "either": 3930,
      "quar": 3931,
      "nomin": 3932,
      "proper": 3933,
      "cur": 3934,
      "187": 3935,
      "allowed": 3936,
      "fut": 3937,
      "past": 3938,
      "wife": 3939,
      "mur": 3940,
      "unc": 3941,
      "contract": 3942,
      "##ential": 3943,
      "fa": 3944,
      "respect": 3945,
      "##cher": 3946,
      "estim": 3947,
      "victory": 3948,
      "##here": 3949,
      "generally": 3950,
      "studio": 3951,
      "washington": 3952,
      "avail": 3953,
      "inn": 3954,
      "placed": 3955,
      "ach": 3956,
      "priv": 3957,
      "cho": 3958,
      "phys": 3959,
      "rul": 3960,
      "##aut": 3961,
      "example": 3962,
      "dark": 3963,
      "runs": 3964,
      "events": 3965,
      "magazine": 3966,
      "dro": 3967,
      "##antic": 3968,
      "chief": 3969,
      "##eter": 3970,
      "##aur": 3971,
      "board": 3972,
      "paul": 3973,
      "##li": 3974,
      "##oring": 3975,
      "##iction": 3976,
      "summer": 3977,
      "grad": 3978,
      "cred": 3979,
      "##to": 3980,
      "##gar": 3981,
      "battal": 3982,
      "eg": 3983,
      "staff": 3984,
      "2003": 3985,
      "particip": 3986,
      "joined": 3987,
      "designed": 3988,
      "surf": 3989,
      "wil": 3990,
      "##ville": 3991,
      "regular": 3992,
      "hours": 3993,
      "quest": 3994,
      "squadron": 3995,
      "##ells": 3996,
      "##chest": 3997,
      "employ": 3998,
      "35": 3999,
      "speed": 4000,
      "nine": 4001,
      "esp": 4002,
      "##mp": 4003,
      "bal": 4004,
      "shot": 4005,
      "##ka": 4006,
      "threat": 4007,
      "operation": 4008,
      "media": 4009,
      "opening": 4010,
      "believed": 4011,
      "relig": 4012,
      "##ving": 4013,
      "regard": 4014,
      "##iff": 4015,
      "##tim": 4016,
      "come": 4017,
      "der": 4018,
      "mary": 4019,
      "##omp": 4020,
      "##anks": 4021,
      "flight": 4022,
      "cycl": 4023,
      "ox": 4024,
      "bir": 4025,
      "transport": 4026,
      "step": 4027,
      "##aper": 4028,
      "replaced": 4029,
      "ide": 4030,
      "prior": 4031,
      "mph": 4032,
      "scen": 4033,
      "##uit": 4034,
      "pay": 4035,
      "##erous": 4036,
      "captain": 4037,
      "winds": 4038,
      "sequ": 4039,
      "##imin": 4040,
      "european": 4041,
      "stop": 4042,
      "stone": 4043,
      "police": 4044,
      "langu": 4045,
      "minutes": 4046,
      "district": 4047,
      "involved": 4048,
      "##gn": 4049,
      "##ification": 4050,
      "earlier": 4051,
      "mcc": 4052,
      "##ico": 4053,
      "infant": 4054,
      "##west": 4055,
      "finished": 4056,
      "research": 4057,
      "##fall": 4058,
      "committ": 4059,
      "society": 4060,
      "news": 4061,
      "##asion": 4062,
      "length": 4063,
      "contrib": 4064,
      "possible": 4065,
      "##ago": 4066,
      "saying": 4067,
      "##men": 4068,
      "pil": 4069,
      "immedi": 4070,
      "commerc": 4071,
      "change": 4072,
      "association": 4073,
      "depr": 4074,
      "keep": 4075,
      "##ray": 4076,
      "trib": 4077,
      "space": 4078,
      "##icated": 4079,
      "middle": 4080,
      "admin": 4081,
      "boy": 4082,
      "particularly": 4083,
      "highest": 4084,
      "2000": 4085,
      "films": 4086,
      "fly": 4087,
      "largest": 4088,
      "remov": 4089,
      "##for": 4090,
      "bad": 4091,
      "beginning": 4092,
      "scott": 4093,
      "exist": 4094,
      "lower": 4095,
      "##ecutive": 4096,
      "available": 4097,
      "##ishing": 4098,
      "piec": 4099,
      "uk": 4100,
      "roman": 4101,
      "virgin": 4102,
      "percent": 4103,
      "ny": 4104,
      "2001": 4105,
      "forced": 4106,
      "flor": 4107,
      "respons": 4108,
      "assist": 4109,
      "better": 4110,
      "section": 4111,
      "atl": 4112,
      "ver": 4113,
      "##ha": 4114,
      "deal": 4115,
      "achie": 4116,
      "disp": 4117,
      "##hib": 4118,
      "weak": 4119,
      "taking": 4120,
      "lear": 4121,
      "anti": 4122,
      "outside": 4123,
      "novel": 4124,
      "##anned": 4125,
      "meas": 4126,
      "##ems": 4127,
      "##reg": 4128,
      "heart": 4129,
      "plat": 4130,
      "grant": 4131,
      "charles": 4132,
      "##ography": 4133,
      "##of": 4134,
      "thomas": 4135,
      "##lement": 4136,
      "##itz": 4137,
      "##mar": 4138,
      "span": 4139,
      "increased": 4140,
      "turned": 4141,
      "ended": 4142,
      "##erson": 4143,
      "viol": 4144,
      "##ises": 4145,
      "reason": 4146,
      "feel": 4147,
      "clear": 4148,
      "calif": 4149,
      "reviews": 4150,
      "##bor": 4151,
      "##ested": 4152,
      "units": 4153,
      "community": 4154,
      "##ocr": 4155,
      "acad": 4156,
      "californ": 4157,
      "passed": 4158,
      "##ck": 4159,
      "praised": 4160,
      "es": 4161,
      "hous": 4162,
      "##oph": 4163,
      "product": 4164,
      "move": 4165,
      "##key": 4166,
      "##wer": 4167,
      "going": 4168,
      "emp": 4169,
      "##ios": 4170,
      "##heast": 4171,
      "future": 4172,
      "##iation": 4173,
      "##ude": 4174,
      "additional": 4175,
      "beat": 4176,
      "2002": 4177,
      "above": 4178,
      "appearance": 4179,
      "phot": 4180,
      "bird": 4181,
      "##oke": 4182,
      "thus": 4183,
      "beg": 4184,
      "guitar": 4185,
      "pan": 4186,
      "canada": 4187,
      "##sel": 4188,
      "lik": 4189,
      "ty": 4190,
      "enough": 4191,
      "##ership": 4192,
      "liter": 4193,
      "smith": 4194,
      "##aded": 4195,
      "castle": 4196,
      "lake": 4197,
      "daugh": 4198,
      "pun": 4199,
      "ordered": 4200,
      "lat": 4201,
      "##gress": 4202,
      "previously": 4203,
      "franc": 4204,
      "##ests": 4205,
      "personal": 4206,
      "##ush": 4207,
      "musical": 4208,
      "##oul": 4209,
      "account": 4210,
      "signed": 4211,
      "minor": 4212,
      "infantry": 4213,
      "doc": 4214,
      "##rison": 4215,
      "market": 4216,
      "##agon": 4217,
      "richard": 4218,
      "alex": 4219,
      "shar": 4220,
      "theat": 4221,
      "elements": 4222,
      "instit": 4223,
      "type": 4224,
      "##che": 4225,
      "rights": 4226,
      "dig": 4227,
      "##tr": 4228,
      "california": 4229,
      "##pped": 4230,
      "##arily": 4231,
      "positive": 4232,
      "ber": 4233,
      "##ida": 4234,
      "corn": 4235,
      "lyr": 4236,
      "nec": 4237,
      "pac": 4238,
      "##icket": 4239,
      "prob": 4240,
      "critical": 4241,
      "abs": 4242,
      "##ections": 4243,
      "parts": 4244,
      "lord": 4245,
      "food": 4246,
      "##ference": 4247,
      "##nal": 4248,
      "dead": 4249,
      "profession": 4250,
      "give": 4251,
      "female": 4252,
      "background": 4253,
      "travel": 4254,
      "##berg": 4255,
      "pow": 4256,
      "lines": 4257,
      "debut": 4258,
      "##ening": 4259,
      "reveal": 4260,
      "spent": 4261,
      "poor": 4262,
      "impr": 4263,
      "term": 4264,
      "##pper": 4265,
      "money": 4266,
      "told": 4267,
      "overall": 4268,
      "##ased": 4269,
      "ps": 4270,
      "mic": 4271,
      "##ilities": 4272,
      "tax": 4273,
      "##uation": 4274,
      "committee": 4275,
      "##back": 4276,
      "directed": 4277,
      "flood": 4278,
      "45": 4279,
      "victor": 4280,
      "blue": 4281,
      "##uter": 4282,
      "failed": 4283,
      "interview": 4284,
      "deep": 4285,
      "##elled": 4286,
      "##nes": 4287,
      "domin": 4288,
      "roll": 4289,
      "chap": 4290,
      "##usion": 4291,
      "required": 4292,
      "ren": 4293,
      "kil": 4294,
      "groups": 4295,
      "plot": 4296,
      "concert": 4297,
      "mach": 4298,
      "##nel": 4299,
      "broadcast": 4300,
      "happ": 4301,
      "scient": 4302,
      "##bers": 4303,
      "##ique": 4304,
      "##ston": 4305,
      "constit": 4306,
      "##ays": 4307,
      "germany": 4308,
      "anal": 4309,
      "env": 4310,
      "india": 4311,
      "##ume": 4312,
      "health": 4313,
      "itself": 4314,
      "peter": 4315,
      "evidence": 4316,
      "christian": 4317,
      "sometimes": 4318,
      "##my": 4319,
      "##isl": 4320,
      "frank": 4321,
      "fore": 4322,
      "object": 4323,
      "##gen": 4324,
      "appl": 4325,
      "60": 4326,
      "##ibility": 4327,
      "prison": 4328,
      "reception": 4329,
      "wal": 4330,
      "bank": 4331,
      "185": 4332,
      "##ites": 4333,
      "election": 4334,
      "occup": 4335,
      "##ga": 4336,
      "commercial": 4337,
      "asked": 4338,
      "battalion": 4339,
      "ha": 4340,
      "except": 4341,
      "parl": 4342,
      "investig": 4343,
      "##stand": 4344,
      "##erved": 4345,
      "transfer": 4346,
      "##ready": 4347,
      "##aker": 4348,
      "living": 4349,
      "##edy": 4350,
      "mex": 4351,
      "sov": 4352,
      "##ability": 4353,
      "our": 4354,
      "##apt": 4355,
      "administ": 4356,
      "whose": 4357,
      "cru": 4358,
      "study": 4359,
      "natural": 4360,
      "##airs": 4361,
      "complete": 4362,
      "claimed": 4363,
      "already": 4364,
      "doct": 4365,
      "##kn": 4366,
      "score": 4367,
      "##tt": 4368,
      "##ream": 4369,
      "approxim": 4370,
      "governor": 4371,
      "react": 4372,
      "clim": 4373,
      "bey": 4374,
      "##onna": 4375,
      "soviet": 4376,
      "ol": 4377,
      "square": 4378,
      "introduced": 4379,
      "minister": 4380,
      "bul": 4381,
      "##onse": 4382,
      "frequ": 4383,
      "whom": 4384,
      "usually": 4385,
      "32": 4386,
      "think": 4387,
      "students": 4388,
      "##bc": 4389,
      "##ii": 4390,
      "woman": 4391,
      "##ex": 4392,
      "burn": 4393,
      "amb": 4394,
      "education": 4395,
      "##wor": 4396,
      "##igan": 4397,
      "wild": 4398,
      "idea": 4399,
      "ben": 4400,
      "muse": 4401,
      "lu": 4402,
      "quickly": 4403,
      "bud": 4404,
      "limited": 4405,
      "##enue": 4406,
      "chic": 4407,
      "##aint": 4408,
      "occurr": 4409,
      "might": 4410,
      "effects": 4411,
      "stars": 4412,
      "guard": 4413,
      "rh": 4414,
      "concern": 4415,
      "##atory": 4416,
      "movement": 4417,
      "response": 4418,
      "issue": 4419,
      "syn": 4420,
      "subject": 4421,
      "queen": 4422,
      "tun": 4423,
      "polic": 4424,
      "rac": 4425,
      "centre": 4426,
      "##ump": 4427,
      "certain": 4428,
      "##bour": 4429,
      "surface": 4430,
      "commander": 4431,
      "your": 4432,
      "##ores": 4433,
      "slow": 4434,
      "lay": 4435,
      "plant": 4436,
      "lib": 4437,
      "espec": 4438,
      "fifth": 4439,
      "lie": 4440,
      "anc": 4441,
      "sand": 4442,
      "department": 4443,
      "arrived": 4444,
      "hosp": 4445,
      "especially": 4446,
      "services": 4447,
      "##ergy": 4448,
      "britain": 4449,
      "decision": 4450,
      "parliam": 4451,
      "face": 4452,
      "##oor": 4453,
      "contr": 4454,
      "voice": 4455,
      "compl": 4456,
      "box": 4457,
      "village": 4458,
      "self": 4459,
      "teams": 4460,
      "shows": 4461,
      "gard": 4462,
      "##esh": 4463,
      "structure": 4464,
      "diss": 4465,
      "##anded": 4466,
      "museum": 4467,
      "industry": 4468,
      "operations": 4469,
      "larger": 4470,
      "walk": 4471,
      "science": 4472,
      "writer": 4473,
      "impact": 4474,
      "fest": 4475,
      "##ounded": 4476,
      "ultim": 4477,
      "episodes": 4478,
      "becoming": 4479,
      "mas": 4480,
      "mont": 4481,
      "parliament": 4482,
      "remaining": 4483,
      "##val": 4484,
      "remain": 4485,
      "latter": 4486,
      "access": 4487,
      "estimated": 4488,
      "heav": 4489,
      "carried": 4490,
      "multip": 4491,
      "##ba": 4492,
      "defeated": 4493,
      "network": 4494,
      "##aries": 4495,
      "discuss": 4496,
      "ran": 4497,
      "##iron": 4498,
      "pressure": 4499,
      "flag": 4500,
      "kh": 4501,
      "surr": 4502,
      "blood": 4503,
      "gro": 4504,
      "1999": 4505,
      "tex": 4506,
      "##ully": 4507,
      "cm": 4508,
      "##wh": 4509,
      "36": 4510,
      "scenes": 4511,
      "##ties": 4512,
      "##ugg": 4513,
      "consider": 4514,
      "cand": 4515,
      "brief": 4516,
      "leaving": 4517,
      "virginia": 4518,
      "##ective": 4519,
      "##ulf": 4520,
      "changes": 4521,
      "sem": 4522,
      "running": 4523,
      "acqu": 4524,
      "##onstr": 4525,
      "##ift": 4526,
      "jew": 4527,
      "susp": 4528,
      "suggested": 4529,
      "meth": 4530,
      "entered": 4531,
      "##porary": 4532,
      "##wr": 4533,
      "nearly": 4534,
      "fail": 4535,
      "quarter": 4536,
      "##ania": 4537,
      "winning": 4538,
      "appointed": 4539,
      "influence": 4540,
      "naval": 4541,
      "date": 4542,
      "twent": 4543,
      "approximately": 4544,
      "dom": 4545,
      "depression": 4546,
      "van": 4547,
      "chall": 4548,
      "size": 4549,
      "##ander": 4550,
      "##ining": 4551,
      "##inct": 4552,
      "got": 4553,
      "leader": 4554,
      "capital": 4555,
      "language": 4556,
      "fant": 4557,
      "bat": 4558,
      "shortly": 4559,
      "##erve": 4560,
      "establish": 4561,
      "##oms": 4562,
      "islands": 4563,
      "jackson": 4564,
      "favor": 4565,
      "empire": 4566,
      "course": 4567,
      "script": 4568,
      "princip": 4569,
      "today": 4570,
      "finally": 4571,
      "tracks": 4572,
      "cann": 4573,
      "screen": 4574,
      "federal": 4575,
      "wide": 4576,
      "regiment": 4577,
      "emb": 4578,
      "oly": 4579,
      "mission": 4580,
      "##change": 4581,
      "upper": 4582,
      "louis": 4583,
      "amount": 4584,
      "kr": 4585,
      "proposed": 4586,
      "territ": 4587,
      "daughter": 4588,
      "##pre": 4589,
      "current": 4590,
      "##anced": 4591,
      "olymp": 4592,
      "##ulated": 4593,
      "wing": 4594,
      "##iser": 4595,
      "purch": 4596,
      "producer": 4597,
      "higher": 4598,
      "manager": 4599,
      "##ecting": 4600,
      "destroyed": 4601,
      "arrang": 4602,
      "75": 4603,
      "nature": 4604,
      "lad": 4605,
      "distrib": 4606,
      "experience": 4607,
      "ens": 4608,
      "gi": 4609,
      "aw": 4610,
      "pict": 4611,
      "corps": 4612,
      "environ": 4613,
      "##burg": 4614,
      "##abor": 4615,
      "fer": 4616,
      "##dr": 4617,
      "horse": 4618,
      "spanish": 4619,
      "canc": 4620,
      "300": 4621,
      "provide": 4622,
      "railway": 4623,
      "spir": 4624,
      "breed": 4625,
      "subsequently": 4626,
      "altern": 4627,
      "professional": 4628,
      "##ension": 4629,
      "##idents": 4630,
      "democr": 4631,
      "compared": 4632,
      "brigade": 4633,
      "concept": 4634,
      "##oid": 4635,
      "married": 4636,
      "battles": 4637,
      "cer": 4638,
      "liber": 4639,
      "cele": 4640,
      "emerg": 4641,
      "##uk": 4642,
      "immediately": 4643,
      "intended": 4644,
      "saf": 4645,
      "184": 4646,
      "private": 4647,
      "complex": 4648,
      "journal": 4649,
      "fans": 4650,
      "##ication": 4651,
      "temper": 4652,
      "##king": 4653,
      "supported": 4654,
      "##inese": 4655,
      "##ope": 4656,
      "stay": 4657,
      "entertain": 4658,
      "mr": 4659,
      "card": 4660,
      "model": 4661,
      "agreed": 4662,
      "##ronic": 4663,
      "80": 4664,
      "done": 4665,
      "shoot": 4666,
      "edward": 4667,
      "ca": 4668,
      "##alled": 4669,
      "imm": 4670,
      "feature": 4671,
      "initial": 4672,
      "awarded": 4673,
      "archit": 4674,
      "chicago": 4675,
      "compan": 4676,
      "bord": 4677,
      "celebr": 4678,
      "increasing": 4679,
      "fair": 4680,
      "display": 4681,
      "whether": 4682,
      "related": 4683,
      "weap": 4684,
      "##hem": 4685,
      "##tained": 4686,
      "helped": 4687,
      "intens": 4688,
      "jose": 4689,
      "books": 4690,
      "text": 4691,
      "##ria": 4692,
      "legisl": 4693,
      "planned": 4694,
      "1998": 4695,
      "ho": 4696,
      "chinese": 4697,
      "officer": 4698,
      "##ris": 4699,
      "##down": 4700,
      "##oles": 4701,
      "create": 4702,
      "bring": 4703,
      "artic": 4704,
      "penn": 4705,
      "trade": 4706,
      "longer": 4707,
      "kar": 4708,
      "soldiers": 4709,
      "gal": 4710,
      "here": 4711,
      "##uing": 4712,
      "##atively": 4713,
      "attract": 4714,
      "##aring": 4715,
      "color": 4716,
      "cause": 4717,
      "memor": 4718,
      "conserv": 4719,
      "valley": 4720,
      "33": 4721,
      "##thing": 4722,
      "plans": 4723,
      "yet": 4724,
      "buildings": 4725,
      "##ken": 4726,
      "##teen": 4727,
      "captured": 4728,
      "##icted": 4729,
      "changed": 4730,
      "winter": 4731,
      "martin": 4732,
      "forward": 4733,
      "sev": 4734,
      "unit": 4735,
      "##ector": 4736,
      "block": 4737,
      "conclud": 4738,
      "friends": 4739,
      "##ban": 4740,
      "##ching": 4741,
      "##aph": 4742,
      "dance": 4743,
      "mom": 4744,
      "something": 4745,
      "associated": 4746,
      "##ny": 4747,
      "pu": 4748,
      "spring": 4749,
      "coach": 4750,
      "officers": 4751,
      "singles": 4752,
      "##selves": 4753,
      "remains": 4754,
      "johnson": 4755,
      "billboard": 4756,
      "mostly": 4757,
      "subst": 4758,
      "standard": 4759,
      "##kin": 4760,
      "themselves": 4761,
      "pacific": 4762,
      "##abit": 4763,
      "##rupt": 4764,
      "rat": 4765,
      "countries": 4766,
      "lyrics": 4767,
      "mixed": 4768,
      "##riage": 4769,
      "hero": 4770,
      "exam": 4771,
      "really": 4772,
      "probably": 4773,
      "method": 4774,
      "uns": 4775,
      "extended": 4776,
      "draft": 4777,
      "##mon": 4778,
      "ray": 4779,
      "kore": 4780,
      "iron": 4781,
      "moving": 4782,
      "numerous": 4783,
      "financ": 4784,
      "sir": 4785,
      "ple": 4786,
      "##ta": 4787,
      "##umn": 4788,
      "information": 4789,
      "copies": 4790,
      "oce": 4791,
      "portray": 4792,
      "scot": 4793,
      "##asy": 4794,
      "goals": 4795,
      "rid": 4796,
      "contem": 4797,
      "always": 4798,
      "nation": 4799,
      "visit": 4800,
      "birth": 4801,
      "location": 4802,
      "sales": 4803,
      "37": 4804,
      "tas": 4805,
      "admir": 4806,
      "##isions": 4807,
      "individual": 4808,
      "##well": 4809,
      "##isc": 4810,
      "focus": 4811,
      "congress": 4812,
      "##olic": 4813,
      "##rd": 4814,
      "##gs": 4815,
      "##rol": 4816,
      "energy": 4817,
      "1997": 4818,
      "issued": 4819,
      "atlantic": 4820,
      "leave": 4821,
      "##ands": 4822,
      "includes": 4823,
      "counter": 4824,
      "cit": 4825,
      "confl": 4826,
      "artist": 4827,
      "status": 4828,
      "##andon": 4829,
      "mess": 4830,
      "singer": 4831,
      "conference": 4832,
      "edition": 4833,
      "suffered": 4834,
      "male": 4835,
      "jim": 4836,
      "traff": 4837,
      "via": 4838,
      "tal": 4839,
      "hospital": 4840,
      "florida": 4841,
      "prec": 4842,
      "albums": 4843,
      "maxim": 4844,
      "problems": 4845,
      "##rated": 4846,
      "gall": 4847,
      "##hood": 4848,
      "meeting": 4849,
      "termin": 4850,
      "70": 4851,
      "bene": 4852,
      "likely": 4853,
      "##aught": 4854,
      "revolution": 4855,
      "increase": 4856,
      "independent": 4857,
      "##ounds": 4858,
      "dog": 4859,
      "double": 4860,
      "hu": 4861,
      "carry": 4862,
      "assemb": 4863,
      "##hl": 4864,
      "##bury": 4865,
      "china": 4866,
      "approach": 4867,
      "movie": 4868,
      "removed": 4869,
      "00": 4870,
      "texas": 4871,
      "inspired": 4872,
      "##can": 4873,
      "##ypt": 4874,
      "morn": 4875,
      "##fact": 4876,
      "##bed": 4877,
      "##etic": 4878,
      "lin": 4879,
      "bond": 4880,
      "carol": 4881,
      "##ental": 4882,
      "foreign": 4883,
      "##atives": 4884,
      "##ously": 4885,
      "master": 4886,
      "##ili": 4887,
      "rang": 4888,
      "terms": 4889,
      "primary": 4890,
      "kind": 4891,
      "compos": 4892,
      "majority": 4893,
      "dv": 4894,
      "##itting": 4895,
      "##tic": 4896,
      "##ograph": 4897,
      "##jected": 4898,
      "offered": 4899,
      "sar": 4900,
      "creek": 4901,
      "##vin": 4902,
      "vehic": 4903,
      "ice": 4904,
      "consist": 4905,
      "qual": 4906,
      "stad": 4907,
      "minute": 4908,
      "##icans": 4909,
      "ut": 4910,
      "refl": 4911,
      "dail": 4912,
      "tons": 4913,
      "od": 4914,
      "##ette": 4915,
      "drum": 4916,
      "entertainment": 4917,
      "adop": 4918,
      "##lands": 4919,
      "inters": 4920,
      "makes": 4921,
      "attacks": 4922,
      "fox": 4923,
      "confir": 4924,
      "takes": 4925,
      "simp": 4926,
      "183": 4927,
      "composed": 4928,
      "oil": 4929,
      "raised": 4930,
      "environment": 4931,
      "canadian": 4932,
      "observ": 4933,
      "wa": 4934,
      "damaged": 4935,
      "ranked": 4936,
      "log": 4937,
      "combat": 4938,
      "africa": 4939,
      "##aches": 4940,
      "adult": 4941,
      "categ": 4942,
      "letter": 4943,
      "bor": 4944,
      "##era": 4945,
      "daily": 4946,
      "mun": 4947,
      "appears": 4948,
      "intell": 4949,
      "revealed": 4950,
      "cyclone": 4951,
      "##uth": 4952,
      "train": 4953,
      "und": 4954,
      "selected": 4955,
      "ath": 4956,
      "metal": 4957,
      "##ado": 4958,
      "discovered": 4959,
      "##ails": 4960,
      "##ucle": 4961,
      "determ": 4962,
      "mountain": 4963,
      "fighting": 4964,
      "active": 4965,
      "##chester": 4966,
      "ign": 4967,
      "era": 4968,
      "##ify": 4969,
      "34": 4970,
      "russian": 4971,
      "twenty": 4972,
      "ven": 4973,
      "conditions": 4974,
      "dun": 4975,
      "inside": 4976,
      "kent": 4977,
      "tv": 4978,
      "architect": 4979,
      "morning": 4980,
      "##uries": 4981,
      "greater": 4982,
      "unable": 4983,
      "accomp": 4984,
      "launched": 4985,
      "wrest": 4986,
      "##light": 4987,
      "##rect": 4988,
      "respectively": 4989,
      "angeles": 4990,
      "##umed": 4991,
      "38": 4992,
      "iv": 4993,
      "incor": 4994,
      "1995": 4995,
      "whole": 4996,
      "sched": 4997,
      "sister": 4998,
      "issues": 4999,
      "deg": 5000,
      "##ription": 5001,
      "numbers": 5002,
      "ali": 5003,
      "needed": 5004,
      "bed": 5005,
      "gas": 5006,
      "yard": 5007,
      "smaller": 5008,
      "lived": 5009,
      "thir": 5010,
      "contains": 5011,
      "schol": 5012,
      "##aj": 5013,
      "traditional": 5014,
      "dar": 5015,
      "touch": 5016,
      "##oud": 5017,
      "below": 5018,
      "wit": 5019,
      "shown": 5020,
      "newsp": 5021,
      "attempted": 5022,
      "##leg": 5023,
      "slight": 5024,
      "culture": 5025,
      "iii": 5026,
      "cart": 5027,
      "occurred": 5028,
      "##ste": 5029,
      "yards": 5030,
      "attacked": 5031,
      "religious": 5032,
      "##lor": 5033,
      "cab": 5034,
      "##uals": 5035,
      "##zz": 5036,
      "silver": 5037,
      "##uments": 5038,
      "nick": 5039,
      "##aging": 5040,
      "bab": 5041,
      "##oo": 5042,
      "##ortun": 5043,
      "##joy": 5044,
      "tourn": 5045,
      "ring": 5046,
      "sports": 5047,
      "actor": 5048,
      "festival": 5049,
      "elected": 5050,
      "annual": 5051,
      "defeat": 5052,
      "experi": 5053,
      "constant": 5054,
      "2016": 5055,
      "##ev": 5056,
      "larg": 5057,
      "1996": 5058,
      "##olk": 5059,
      "rein": 5060,
      "reform": 5061,
      "referred": 5062,
      "peace": 5063,
      "fear": 5064,
      "neigh": 5065,
      "##izing": 5066,
      "mind": 5067,
      "bon": 5068,
      "asp": 5069,
      "os": 5070,
      "sav": 5071,
      "##vert": 5072,
      "theme": 5073,
      "##amb": 5074,
      "ocean": 5075,
      "##ault": 5076,
      "psy": 5077,
      "19th": 5078,
      "audience": 5079,
      "magn": 5080,
      "ris": 5081,
      "##rial": 5082,
      "schools": 5083,
      "##ari": 5084,
      "largely": 5085,
      "prince": 5086,
      "express": 5087,
      "resulted": 5088,
      "##urity": 5089,
      "##enant": 5090,
      "link": 5091,
      "assigned": 5092,
      "covered": 5093,
      "listed": 5094,
      "fast": 5095,
      "##com": 5096,
      "variety": 5097,
      "collection": 5098,
      "italian": 5099,
      "90": 5100,
      "purp": 5101,
      "coup": 5102,
      "##ogue": 5103,
      "competition": 5104,
      "glob": 5105,
      "##uated": 5106,
      "indic": 5107,
      "1994": 5108,
      "cath": 5109,
      "ash": 5110,
      "pair": 5111,
      "conflict": 5112,
      "viet": 5113,
      "haw": 5114,
      "earned": 5115,
      "matt": 5116,
      "stadium": 5117,
      "cham": 5118,
      "expected": 5119,
      "controvers": 5120,
      "commented": 5121,
      "names": 5122,
      "recover": 5123,
      "##itude": 5124,
      "dvd": 5125,
      "attention": 5126,
      "nucle": 5127,
      "starting": 5128,
      "##ocks": 5129,
      "closed": 5130,
      "francis": 5131,
      "##quar": 5132,
      "question": 5133,
      "performances": 5134,
      "pick": 5135,
      "rapid": 5136,
      "imper": 5137,
      "##tered": 5138,
      "airport": 5139,
      "prevent": 5140,
      "extre": 5141,
      "giving": 5142,
      "spl": 5143,
      "legal": 5144,
      "figh": 5145,
      "##ims": 5146,
      "refused": 5147,
      "economic": 5148,
      "cust": 5149,
      "ros": 5150,
      "mir": 5151,
      "zeal": 5152,
      "crow": 5153,
      "##ya": 5154,
      "greatest": 5155,
      "##ees": 5156,
      "enjoy": 5157,
      "waters": 5158,
      "contact": 5159,
      "michigan": 5160,
      "##aped": 5161,
      "stories": 5162,
      "hus": 5163,
      "tower": 5164,
      "electric": 5165,
      "##asc": 5166,
      "ability": 5167,
      "notes": 5168,
      "disapp": 5169,
      "##rian": 5170,
      "serious": 5171,
      "##ker": 5172,
      "##bridge": 5173,
      "rate": 5174,
      "hund": 5175,
      "forest": 5176,
      "meant": 5177,
      "##ipped": 5178,
      "declared": 5179,
      "wales": 5180,
      "promin": 5181,
      "stan": 5182,
      "vocals": 5183,
      "native": 5184,
      "49": 5185,
      "poll": 5186,
      "matches": 5187,
      "things": 5188,
      "##use": 5189,
      "##yr": 5190,
      "##bre": 5191,
      "##isher": 5192,
      "hundred": 5193,
      "mention": 5194,
      "180": 5195,
      "levels": 5196,
      "##ples": 5197,
      "words": 5198,
      "swe": 5199,
      "progress": 5200,
      "abandon": 5201,
      "##ij": 5202,
      "chann": 5203,
      "athlet": 5204,
      "marriage": 5205,
      "nearby": 5206,
      "##iest": 5207,
      "fill": 5208,
      "die": 5209,
      "produce": 5210,
      "##yan": 5211,
      "nin": 5212,
      "kenn": 5213,
      "practice": 5214,
      "defense": 5215,
      "necess": 5216,
      "constitution": 5217,
      "mech": 5218,
      "constructed": 5219,
      "41": 5220,
      "source": 5221,
      "##itation": 5222,
      "wear": 5223,
      "##hold": 5224,
      "fantasy": 5225,
      "lot": 5226,
      "##odies": 5227,
      "candid": 5228,
      "advance": 5229,
      "doctor": 5230,
      "##ols": 5231,
      "##win": 5232,
      "1992": 5233,
      "##ona": 5234,
      "weather": 5235,
      "vocal": 5236,
      "mu": 5237,
      "##road": 5238,
      "emper": 5239,
      "kilomet": 5240,
      "##wide": 5241,
      "labor": 5242,
      "separate": 5243,
      "##overs": 5244,
      "highly": 5245,
      "oh": 5246,
      "means": 5247,
      "farm": 5248,
      "writers": 5249,
      "eth": 5250,
      "overs": 5251,
      "executive": 5252,
      "medical": 5253,
      "##ellow": 5254,
      "directly": 5255,
      "1st": 5256,
      "sle": 5257,
      "##acher": 5258,
      "african": 5259,
      "exhib": 5260,
      "mexico": 5261,
      "presented": 5262,
      "##ishop": 5263,
      "purs": 5264,
      "ultimately": 5265,
      "continue": 5266,
      "##onom": 5267,
      "cub": 5268,
      "reduced": 5269,
      "ess": 5270,
      "northwest": 5271,
      "zealand": 5272,
      "##ging": 5273,
      "direction": 5274,
      "positions": 5275,
      "##yst": 5276,
      "flow": 5277,
      "effort": 5278,
      "400": 5279,
      "##rie": 5280,
      "chem": 5281,
      "admiral": 5282,
      "##mas": 5283,
      "##rey": 5284,
      "dan": 5285,
      "##gl": 5286,
      "##ingu": 5287,
      "efforts": 5288,
      "brad": 5289,
      "##ibly": 5290,
      "animals": 5291,
      "##band": 5292,
      "formation": 5293,
      "mechan": 5294,
      "dism": 5295,
      "##oper": 5296,
      "55": 5297,
      "lieut": 5298,
      "defend": 5299,
      "chris": 5300,
      "houses": 5301,
      "dyn": 5302,
      "tried": 5303,
      "attended": 5304,
      "strateg": 5305,
      "accepted": 5306,
      "studies": 5307,
      "batter": 5308,
      "ram": 5309,
      "talk": 5310,
      "financial": 5311,
      "stating": 5312,
      "rule": 5313,
      "libr": 5314,
      "perm": 5315,
      "symb": 5316,
      "theatre": 5317,
      "stra": 5318,
      "lif": 5319,
      "specific": 5320,
      "##ror": 5321,
      "##rier": 5322,
      "memorial": 5323,
      "bob": 5324,
      "advent": 5325,
      "madonna": 5326,
      "1993": 5327,
      "##vement": 5328,
      "seem": 5329,
      "##uff": 5330,
      "mol": 5331,
      "20th": 5332,
      "##une": 5333,
      "recomm": 5334,
      "1991": 5335,
      "saint": 5336,
      "cerem": 5337,
      "incorpor": 5338,
      "##track": 5339,
      "prep": 5340,
      "favour": 5341,
      "jer": 5342,
      "begins": 5343,
      "bell": 5344,
      "##isation": 5345,
      "pilot": 5346,
      "inch": 5347,
      "prepar": 5348,
      "ending": 5349,
      "scotland": 5350,
      "##ung": 5351,
      "honor": 5352,
      "179": 5353,
      "cases": 5354,
      "true": 5355,
      "jones": 5356,
      "organization": 5357,
      "traffic": 5358,
      "mos": 5359,
      "multiple": 5360,
      "luc": 5361,
      "attend": 5362,
      "enemy": 5363,
      "39": 5364,
      "##ersey": 5365,
      "pack": 5366,
      "sides": 5367,
      "drive": 5368,
      "##ca": 5369,
      "##house": 5370,
      "thick": 5371,
      "mob": 5372,
      "##ita": 5373,
      "##ners": 5374,
      "chair": 5375,
      "hyd": 5376,
      "flying": 5377,
      "rough": 5378,
      "arab": 5379,
      "managed": 5380,
      "##iance": 5381,
      "greek": 5382,
      "meaning": 5383,
      "##illery": 5384,
      "forms": 5385,
      "responsible": 5386,
      "cold": 5387,
      "uses": 5388,
      "42": 5389,
      "kept": 5390,
      "resulting": 5391,
      "tournament": 5392,
      "##utions": 5393,
      "eye": 5394,
      "soundtrack": 5395,
      "48": 5396,
      "##olf": 5397,
      "ll": 5398,
      "dropped": 5399,
      "diam": 5400,
      "academy": 5401,
      "lieutenant": 5402,
      "showed": 5403,
      "compr": 5404,
      "repe": 5405,
      "182": 5406,
      "authority": 5407,
      "policy": 5408,
      "quality": 5409,
      "##like": 5410,
      "hors": 5411,
      "exped": 5412,
      "path": 5413,
      "prime": 5414,
      "bost": 5415,
      "strugg": 5416,
      "les": 5417,
      "apart": 5418,
      "spirit": 5419,
      "row": 5420,
      "ded": 5421,
      "##ceeded": 5422,
      "secretary": 5423,
      "founded": 5424,
      "acting": 5425,
      "rose": 5426,
      "administration": 5427,
      "##ada": 5428,
      "combined": 5429,
      "boat": 5430,
      "marked": 5431,
      "property": 5432,
      "passeng": 5433,
      "trial": 5434,
      "##ires": 5435,
      "continues": 5436,
      "systems": 5437,
      "artillery": 5438,
      "williams": 5439,
      "##nam": 5440,
      "emperor": 5441,
      "propos": 5442,
      "edge": 5443,
      "inches": 5444,
      "bound": 5445,
      "print": 5446,
      "subsequent": 5447,
      "##cend": 5448,
      "181": 5449,
      "artists": 5450,
      "encoun": 5451,
      "paris": 5452,
      "attempts": 5453,
      "hind": 5454,
      "territory": 5455,
      "contemporary": 5456,
      "search": 5457,
      "##essions": 5458,
      "##iated": 5459,
      "appar": 5460,
      "##osh": 5461,
      "marsh": 5462,
      "##thel": 5463,
      "planet": 5464,
      "viewers": 5465,
      "perf": 5466,
      "ban": 5467,
      "potential": 5468,
      "studios": 5469,
      "rear": 5470,
      "seg": 5471,
      "##essor": 5472,
      "steam": 5473,
      "convention": 5474,
      "ni": 5475,
      "thous": 5476,
      "rod": 5477,
      "suppl": 5478,
      "companies": 5479,
      "northeast": 5480,
      "presence": 5481,
      "##icip": 5482,
      "##ulations": 5483,
      "allowing": 5484,
      "coal": 5485,
      "egypt": 5486,
      "scale": 5487,
      "sixth": 5488,
      "target": 5489,
      "recent": 5490,
      "behav": 5491,
      "conducted": 5492,
      "officials": 5493,
      "fat": 5494,
      "##thur": 5495,
      "digital": 5496,
      "##ero": 5497,
      "job": 5498,
      "respond": 5499,
      "distinct": 5500,
      "##inem": 5501,
      "1942": 5502,
      "filming": 5503,
      "collabor": 5504,
      "surround": 5505,
      "machine": 5506,
      "##standing": 5507,
      "scoring": 5508,
      "contrast": 5509,
      "colour": 5510,
      "yellow": 5511,
      "parents": 5512,
      "metres": 5513,
      "opportun": 5514,
      "lee": 5515,
      "georg": 5516,
      "bott": 5517,
      "47": 5518,
      "corpor": 5519,
      "latin": 5520,
      "transferred": 5521,
      "maximum": 5522,
      "##ications": 5523,
      "ec": 5524,
      "stephen": 5525,
      "senior": 5526,
      "sac": 5527,
      "headquar": 5528,
      "##sen": 5529,
      "demonstr": 5530,
      "figure": 5531,
      "coming": 5532,
      "##enge": 5533,
      "theory": 5534,
      "65": 5535,
      "featuring": 5536,
      "opt": 5537,
      "##ket": 5538,
      "therefore": 5539,
      "diseas": 5540,
      "oxford": 5541,
      "owned": 5542,
      "primarily": 5543,
      "allied": 5544,
      "student": 5545,
      "peaked": 5546,
      "piece": 5547,
      "relatively": 5548,
      "elev": 5549,
      "torped": 5550,
      "joseph": 5551,
      "becomes": 5552,
      "titled": 5553,
      "##aga": 5554,
      "##oe": 5555,
      "actually": 5556,
      "torpedo": 5557,
      "hers": 5558,
      "##draw": 5559,
      "distance": 5560,
      "citiz": 5561,
      "portion": 5562,
      "beaut": 5563,
      "concluded": 5564,
      "mort": 5565,
      "##ils": 5566,
      "republic": 5567,
      "temple": 5568,
      "stock": 5569,
      "##orter": 5570,
      "ton": 5571,
      "##unt": 5572,
      "boston": 5573,
      "write": 5574,
      "harrison": 5575,
      "merc": 5576,
      "mut": 5577,
      "manchester": 5578,
      "jeff": 5579,
      "battleship": 5580,
      "premi": 5581,
      "transl": 5582,
      "bit": 5583,
      "bass": 5584,
      "withdraw": 5585,
      "situation": 5586,
      "psych": 5587,
      "52": 5588,
      "observed": 5589,
      "selling": 5590,
      "strength": 5591,
      "swed": 5592,
      "physical": 5593,
      "resist": 5594,
      "invasion": 5595,
      "46": 5596,
      "broke": 5597,
      "lov": 5598,
      "plays": 5599,
      "doll": 5600,
      "results": 5601,
      "share": 5602,
      "alongside": 5603,
      "suc": 5604,
      "concent": 5605,
      "paid": 5606,
      "##ini": 5607,
      "##istics": 5608,
      "rating": 5609,
      "calling": 5610,
      "divided": 5611,
      "sources": 5612,
      "seconds": 5613,
      "laws": 5614,
      "cities": 5615,
      "jersey": 5616,
      "ott": 5617,
      "1944": 5618,
      "security": 5619,
      "columb": 5620,
      "43": 5621,
      "personnel": 5622,
      "returning": 5623,
      "powerful": 5624,
      "slightly": 5625,
      "management": 5626,
      "tree": 5627,
      "##stein": 5628,
      "##ns": 5629,
      "inh": 5630,
      "##rick": 5631,
      "border": 5632,
      "historian": 5633,
      "historical": 5634,
      "kg": 5635,
      "44": 5636,
      "64": 5637,
      "arts": 5638,
      "shel": 5639,
      "##gu": 5640,
      "birds": 5641,
      "##anna": 5642,
      "conver": 5643,
      "mile": 5644,
      "minim": 5645,
      "##iced": 5646,
      "mis": 5647,
      "nothing": 5648,
      "##aming": 5649,
      "adj": 5650,
      "actions": 5651,
      "onto": 5652,
      "imperial": 5653,
      "beach": 5654,
      "sust": 5655,
      "else": 5656,
      "trust": 5657,
      "carl": 5658,
      "vess": 5659,
      "influenced": 5660,
      "platform": 5661,
      "ow": 5662,
      "freed": 5663,
      "activity": 5664,
      "innings": 5665,
      "##ding": 5666,
      "##za": 5667,
      "cricket": 5668,
      "tend": 5669,
      "##astic": 5670,
      "bbc": 5671,
      "fan": 5672,
      "cultural": 5673,
      "comedy": 5674,
      "nominated": 5675,
      "residents": 5676,
      "##osaur": 5677,
      "promoted": 5678,
      "ire": 5679,
      "resc": 5680,
      "et": 5681,
      "crown": 5682,
      "1990": 5683,
      "croat": 5684,
      "##ips": 5685,
      "appeal": 5686,
      "designated": 5687,
      "passing": 5688,
      "problem": 5689,
      "##ule": 5690,
      "completely": 5691,
      "guest": 5692,
      "weight": 5693,
      "sexual": 5694,
      "height": 5695,
      "mainly": 5696,
      "lane": 5697,
      "charts": 5698,
      "arms": 5699,
      "doub": 5700,
      "##istry": 5701,
      "encour": 5702,
      "poet": 5703,
      "trail": 5704,
      "charge": 5705,
      "avenue": 5706,
      "##iber": 5707,
      "sought": 5708,
      "content": 5709,
      "##ota": 5710,
      "webs": 5711,
      "struck": 5712,
      "1945": 5713,
      "replac": 5714,
      "sense": 5715,
      "seasons": 5716,
      "hands": 5717,
      "equip": 5718,
      "feed": 5719,
      "sr": 5720,
      "vari": 5721,
      "fish": 5722,
      "paper": 5723,
      "bowl": 5724,
      "pul": 5725,
      "subm": 5726,
      "1941": 5727,
      "document": 5728,
      "conduct": 5729,
      "150": 5730,
      "ancient": 5731,
      "reaching": 5732,
      "spect": 5733,
      "##mond": 5734,
      "##ider": 5735,
      "##iano": 5736,
      "cell": 5737,
      "##ills": 5738,
      "medal": 5739,
      "##while": 5740,
      "italy": 5741,
      "image": 5742,
      "dang": 5743,
      "weapons": 5744,
      "channel": 5745,
      "##olved": 5746,
      "widely": 5747,
      "instrument": 5748,
      "##oman": 5749,
      "##ques": 5750,
      "##cy": 5751,
      "americans": 5752,
      "habit": 5753,
      "appearances": 5754,
      "##don": 5755,
      "drug": 5756,
      "harv": 5757,
      "emot": 5758,
      "alone": 5759,
      "wars": 5760,
      "baseball": 5761,
      "##ysis": 5762,
      "shell": 5763,
      "confirmed": 5764,
      "gained": 5765,
      "##ylv": 5766,
      "hotel": 5767,
      "##ura": 5768,
      "fiction": 5769,
      "intellig": 5770,
      "liver": 5771,
      "##cle": 5772,
      "##pass": 5773,
      "compar": 5774,
      "beyond": 5775,
      "##adel": 5776,
      "##iles": 5777,
      "brothers": 5778,
      "join": 5779,
      "choice": 5780,
      "element": 5781,
      "older": 5782,
      "sport": 5783,
      "ireland": 5784,
      "versions": 5785,
      "##rative": 5786,
      "proved": 5787,
      "deliv": 5788,
      "library": 5789,
      "il": 5790,
      "##uled": 5791,
      "explained": 5792,
      "reign": 5793,
      "offer": 5794,
      "dw": 5795,
      "manu": 5796,
      "##erse": 5797,
      "steel": 5798,
      "expans": 5799,
      "murder": 5800,
      "2nd": 5801,
      "ahead": 5802,
      "##mans": 5803,
      "##oration": 5804,
      "says": 5805,
      "##ew": 5806,
      "negot": 5807,
      "headquarters": 5808,
      "1989": 5809,
      "bol": 5810,
      "serve": 5811,
      "##known": 5812,
      "floor": 5813,
      "sens": 5814,
      "comes": 5815,
      "51": 5816,
      "alt": 5817,
      "causing": 5818,
      "speech": 5819,
      "entr": 5820,
      "send": 5821,
      "defence": 5822,
      "rainfall": 5823,
      "sant": 5824,
      "##yer": 5825,
      "1943": 5826,
      "require": 5827,
      "##inn": 5828,
      "fal": 5829,
      "catholic": 5830,
      "suit": 5831,
      "victoria": 5832,
      "workers": 5833,
      "expressed": 5834,
      "charl": 5835,
      "equipment": 5836,
      "article": 5837,
      "growth": 5838,
      "ri": 5839,
      "reports": 5840,
      "roads": 5841,
      "##ety": 5842,
      "occasion": 5843,
      "##town": 5844,
      "gross": 5845,
      "drama": 5846,
      "pap": 5847,
      "surpr": 5848,
      "advanced": 5849,
      "prominent": 5850,
      "offensive": 5851,
      "##ancy": 5852,
      "branch": 5853,
      "rog": 5854,
      "##ym": 5855,
      "soft": 5856,
      "husband": 5857,
      "officially": 5858,
      "capture": 5859,
      "interact": 5860,
      "identified": 5861,
      "worldwide": 5862,
      "category": 5863,
      "setting": 5864,
      "dani": 5865,
      "armed": 5866,
      "##icient": 5867,
      "manufact": 5868,
      "jul": 5869,
      "tells": 5870,
      "##ano": 5871,
      "computer": 5872,
      "snow": 5873,
      "justice": 5874,
      "##ighth": 5875,
      "##har": 5876,
      "pattern": 5877,
      "joint": 5878,
      "reserve": 5879,
      "matter": 5880,
      "surre": 5881,
      "tay": 5882,
      "heavily": 5883,
      "##icks": 5884,
      "##bon": 5885,
      "extra": 5886,
      "spread": 5887,
      "represented": 5888,
      "activities": 5889,
      "clar": 5890,
      "##iring": 5891,
      "pieces": 5892,
      "##mark": 5893,
      "treatment": 5894,
      "adapt": 5895,
      "leaves": 5896,
      "escape": 5897,
      "places": 5898,
      "senate": 5899,
      "actress": 5900,
      "leaders": 5901,
      "meanwhile": 5902,
      "trees": 5903,
      "avoid": 5904,
      "soul": 5905,
      "expedition": 5906,
      "figures": 5907,
      "orb": 5908,
      "unf": 5909,
      "albert": 5910,
      "duke": 5911,
      "fired": 5912,
      "believe": 5913,
      "agreement": 5914,
      "injury": 5915,
      "why": 5916,
      "##abeth": 5917,
      "##een": 5918,
      "1980s": 5919,
      "##ube": 5920,
      "1940": 5921,
      "dutch": 5922,
      "data": 5923,
      "mit": 5924,
      "##ylvania": 5925,
      "##ece": 5926,
      "##igr": 5927,
      "lives": 5928,
      "toward": 5929,
      "illust": 5930,
      "eliz": 5931,
      "supply": 5932,
      "anth": 5933,
      "unknown": 5934,
      "doing": 5935,
      "barb": 5936,
      "##where": 5937,
      "editor": 5938,
      "unlike": 5939,
      "bart": 5940,
      "golden": 5941,
      "debuted": 5942,
      "##rel": 5943,
      "homer": 5944,
      "laid": 5945,
      "din": 5946,
      "##acity": 5947,
      "consisted": 5948,
      "casual": 5949,
      "exec": 5950,
      "##pool": 5951,
      "aired": 5952,
      "walls": 5953,
      "strike": 5954,
      "dream": 5955,
      "argued": 5956,
      "##emic": 5957,
      "stations": 5958,
      "##ds": 5959,
      "opin": 5960,
      "dur": 5961,
      "typically": 5962,
      "watch": 5963,
      "##ears": 5964,
      "##rical": 5965,
      "jon": 5966,
      "imag": 5967,
      "##osen": 5968,
      "opposition": 5969,
      "motor": 5970,
      "formula": 5971,
      "spin": 5972,
      "reference": 5973,
      "moment": 5974,
      "severe": 5975,
      "polish": 5976,
      "twice": 5977,
      "##dy": 5978,
      "##ushed": 5979,
      "affected": 5980,
      "claims": 5981,
      "animal": 5982,
      "mounted": 5983,
      "description": 5984,
      "1970s": 5985,
      "##inson": 5986,
      "600": 5987,
      "##bn": 5988,
      "nations": 5989,
      "powers": 5990,
      "actors": 5991,
      "##ads": 5992,
      "industrial": 5993,
      "technology": 5994,
      "sher": 5995,
      "##bi": 5996,
      "supre": 5997,
      "notable": 5998,
      "store": 5999,
      "##eman": 6000,
      "faced": 6001,
      "challeng": 6002,
      "maintained": 6003,
      "couple": 6004,
      "accident": 6005,
      "value": 6006,
      "horses": 6007,
      "emph": 6008,
      "##hew": 6009,
      "1960s": 6010,
      "trying": 6011,
      "knight": 6012,
      "##hire": 6013,
      "##worth": 6014,
      "tech": 6015,
      "visited": 6016,
      "##ifying": 6017,
      "fellow": 6018,
      "convers": 6019,
      "survey": 6020,
      "##ote": 6021,
      "spr": 6022,
      "orders": 6023,
      "protection": 6024,
      "criticized": 6025,
      "pros": 6026,
      "mul": 6027,
      "fuel": 6028,
      "hair": 6029,
      "delay": 6030,
      "carolina": 6031,
      "holly": 6032,
      "som": 6033,
      "landing": 6034,
      "##ockey": 6035,
      "assault": 6036,
      "broken": 6037,
      "label": 6038,
      "growing": 6039,
      "fully": 6040,
      "##cing": 6041,
      "53": 6042,
      "resident": 6043,
      "##uous": 6044,
      "motion": 6045,
      "abb": 6046,
      "chosen": 6047,
      "cool": 6048,
      "##ala": 6049,
      "twel": 6050,
      "institute": 6051,
      "##lines": 6052,
      "solo": 6053,
      "hat": 6054,
      "##intend": 6055,
      "scottish": 6056,
      "##gian": 6057,
      "sail": 6058,
      "cooper": 6059,
      "1987": 6060,
      "producers": 6061,
      "criticism": 6062,
      "twelve": 6063,
      "gil": 6064,
      "1988": 6065,
      "frequently": 6066,
      "##egr": 6067,
      "philos": 6068,
      "youth": 6069,
      "##ici": 6070,
      "85": 6071,
      "seventh": 6072,
      "##ux": 6073,
      "condition": 6074,
      "penns": 6075,
      "summ": 6076,
      "ce": 6077,
      "accompan": 6078,
      "looking": 6079,
      "##anes": 6080,
      "newspaper": 6081,
      "nuclear": 6082,
      "bac": 6083,
      "oppos": 6084,
      "vice": 6085,
      "lands": 6086,
      "independence": 6087,
      "##lam": 6088,
      "##more": 6089,
      "sky": 6090,
      "urban": 6091,
      "##stone": 6092,
      "chor": 6093,
      "billion": 6094,
      "lew": 6095,
      "degree": 6096,
      "composition": 6097,
      "register": 6098,
      "comic": 6099,
      "surrounding": 6100,
      "gh": 6101,
      "##rael": 6102,
      "##ordin": 6103,
      "wounded": 6104,
      "##agn": 6105,
      "md": 6106,
      "republican": 6107,
      "reinfor": 6108,
      "assembly": 6109,
      "operated": 6110,
      "##izes": 6111,
      "cinem": 6112,
      "moon": 6113,
      "creation": 6114,
      "serving": 6115,
      "grew": 6116,
      "simply": 6117,
      "##ayer": 6118,
      "dry": 6119,
      "expansion": 6120,
      "champion": 6121,
      "bc": 6122,
      "follows": 6123,
      "vote": 6124,
      "tel": 6125,
      "risk": 6126,
      "rival": 6127,
      "famous": 6128,
      "##ola": 6129,
      "contained": 6130,
      "incident": 6131,
      "agric": 6132,
      "tam": 6133,
      "herself": 6134,
      "##urb": 6135,
      "newly": 6136,
      "##ucky": 6137,
      "weekly": 6138,
      "losing": 6139,
      "##wise": 6140,
      "experiment": 6141,
      "southeast": 6142,
      "##yle": 6143,
      "honour": 6144,
      "killing": 6145,
      "christmas": 6146,
      "andrew": 6147,
      "oppon": 6148,
      "individuals": 6149,
      "caval": 6150,
      "passes": 6151,
      "54": 6152,
      "ends": 6153,
      "normal": 6154,
      "jac": 6155,
      "##wall": 6156,
      "##ivity": 6157,
      "##urt": 6158,
      "split": 6159,
      "perfect": 6160,
      "restrict": 6161,
      "heard": 6162,
      "attrib": 6163,
      "##ocked": 6164,
      "wilson": 6165,
      "##ends": 6166,
      "chronic": 6167,
      "emphas": 6168,
      "consecutive": 6169,
      "##isters": 6170,
      "aer": 6171,
      "##ledge": 6172,
      "homes": 6173,
      "nav": 6174,
      "measure": 6175,
      "website": 6176,
      "taylor": 6177,
      "##jo": 6178,
      "cannot": 6179,
      "95": 6180,
      "elizabeth": 6181,
      "##pton": 6182,
      "thing": 6183,
      "1986": 6184,
      "56": 6185,
      "supporting": 6186,
      "##la": 6187,
      "opposed": 6188,
      "chose": 6189,
      "97": 6190,
      "narrow": 6191,
      "##ickets": 6192,
      "parall": 6193,
      "volume": 6194,
      "##ographer": 6195,
      "alexander": 6196,
      "consequ": 6197,
      "note": 6198,
      "perman": 6199,
      "crossing": 6200,
      "agricult": 6201,
      "##fully": 6202,
      "joe": 6203,
      "von": 6204,
      "##water": 6205,
      "sequence": 6206,
      "wave": 6207,
      "themes": 6208,
      "leadership": 6209,
      "famil": 6210,
      "rare": 6211,
      "rise": 6212,
      "participated": 6213,
      "opera": 6214,
      "##resp": 6215,
      "##gend": 6216,
      "skin": 6217,
      "adopted": 6218,
      "disease": 6219,
      "eld": 6220,
      "capacity": 6221,
      "dub": 6222,
      "historic": 6223,
      "arc": 6224,
      "##azz": 6225,
      "##aine": 6226,
      "eyes": 6227,
      "rot": 6228,
      "defin": 6229,
      "standing": 6230,
      "colonel": 6231,
      "fresh": 6232,
      "max": 6233,
      "##ancing": 6234,
      "plants": 6235,
      "##iled": 6236,
      "visual": 6237,
      "filmed": 6238,
      "tall": 6239,
      "advant": 6240,
      "trip": 6241,
      "abandoned": 6242,
      "negative": 6243,
      "##imens": 6244,
      "evac": 6245,
      "basis": 6246,
      "democratic": 6247,
      "budget": 6248,
      "##anda": 6249,
      "sund": 6250,
      "pennsylvania": 6251,
      "straight": 6252,
      "177": 6253,
      "pier": 6254,
      "failure": 6255,
      "##rid": 6256,
      "benef": 6257,
      "mike": 6258,
      "##amm": 6259,
      "prompt": 6260,
      "gameplay": 6261,
      "creating": 6262,
      "##born": 6263,
      "##kins": 6264,
      "regarded": 6265,
      "rand": 6266,
      "possibly": 6267,
      "treaty": 6268,
      "irish": 6269,
      "girls": 6270,
      "deploy": 6271,
      "bodies": 6272,
      "##isers": 6273,
      "palace": 6274,
      "##under": 6275,
      "harry": 6276,
      "canal": 6277,
      "foundation": 6278,
      "distingu": 6279,
      "seat": 6280,
      "##greg": 6281,
      "##aver": 6282,
      "lady": 6283,
      "column": 6284,
      "sin": 6285,
      "kid": 6286,
      "lap": 6287,
      "pin": 6288,
      "excl": 6289,
      "legend": 6290,
      "gri": 6291,
      "horn": 6292,
      "domest": 6293,
      "##illy": 6294,
      "##uses": 6295,
      "kick": 6296,
      "worth": 6297,
      "merch": 6298,
      "eag": 6299,
      "ideas": 6300,
      "lind": 6301,
      "##ko": 6302,
      "interchange": 6303,
      "spain": 6304,
      "advert": 6305,
      "dismiss": 6306,
      "ped": 6307,
      "retired": 6308,
      "zone": 6309,
      "mist": 6310,
      "tank": 6311,
      "surrender": 6312,
      "hyp": 6313,
      "tell": 6314,
      "lic": 6315,
      "hockey": 6316,
      "sud": 6317,
      "extensive": 6318,
      "1990s": 6319,
      "##engt": 6320,
      "76": 6321,
      "178": 6322,
      "ba": 6323,
      "##ias": 6324,
      "nob": 6325,
      "younger": 6326,
      "##lers": 6327,
      "scholars": 6328,
      "dial": 6329,
      "roles": 6330,
      "aid": 6331,
      "atm": 6332,
      "garden": 6333,
      "explos": 6334,
      "ga": 6335,
      "analysis": 6336,
      "franch": 6337,
      "hope": 6338,
      "1939": 6339,
      "railroad": 6340,
      "bishop": 6341,
      "##uls": 6342,
      "##apped": 6343,
      "##ja": 6344,
      "function": 6345,
      "achieved": 6346,
      "improved": 6347,
      "repeated": 6348,
      "drew": 6349,
      "##set": 6350,
      "try": 6351,
      "lem": 6352,
      "economy": 6353,
      "##ram": 6354,
      "effective": 6355,
      "ridge": 6356,
      "basket": 6357,
      "classic": 6358,
      "piano": 6359,
      "orchest": 6360,
      "banks": 6361,
      "wed": 6362,
      "israel": 6363,
      "##han": 6364,
      "##oma": 6365,
      "briefly": 6366,
      "chamber": 6367,
      "gate": 6368,
      "hay": 6369,
      "##orters": 6370,
      "##ato": 6371,
      "glass": 6372,
      "aim": 6373,
      "61": 6374,
      "core": 6375,
      "household": 6376,
      "calc": 6377,
      "##iana": 6378,
      "southwest": 6379,
      "granted": 6380,
      "vehicles": 6381,
      "gather": 6382,
      "currently": 6383,
      "purpose": 6384,
      "citizens": 6385,
      "necessary": 6386,
      "rejected": 6387,
      "arthur": 6388,
      "sell": 6389,
      "##otyp": 6390,
      "regional": 6391,
      "fame": 6392,
      "66": 6393,
      "sche": 6394,
      "braz": 6395,
      "defensive": 6396,
      "##arked": 6397,
      "speak": 6398,
      "1968": 6399,
      "1985": 6400,
      "caught": 6401,
      "types": 6402,
      "recently": 6403,
      "turns": 6404,
      "organized": 6405,
      "receive": 6406,
      "atmosp": 6407,
      "expanded": 6408,
      "genus": 6409,
      "secondary": 6410,
      "authorities": 6411,
      "##lusion": 6412,
      "province": 6413,
      "commissioned": 6414,
      "flooding": 6415,
      "##het": 6416,
      "didn": 6417,
      "kilometres": 6418,
      "drop": 6419,
      "online": 6420,
      "ori": 6421,
      "##oln": 6422,
      "rhy": 6423,
      "cavalry": 6424,
      "##tv": 6425,
      "1970": 6426,
      "ohio": 6427,
      "letters": 6428,
      "##iments": 6429,
      "families": 6430,
      "roof": 6431,
      "performing": 6432,
      "transform": 6433,
      "successfully": 6434,
      "literature": 6435,
      "tail": 6436,
      "freedom": 6437,
      "marine": 6438,
      "kir": 6439,
      "##cel": 6440,
      "determined": 6441,
      "vac": 6442,
      "describes": 6443,
      "ble": 6444,
      "##utation": 6445,
      "safety": 6446,
      "assistant": 6447,
      "##adelph": 6448,
      "agent": 6449,
      "##iday": 6450,
      "dram": 6451,
      "fought": 6452,
      "ron": 6453,
      "custom": 6454,
      "picture": 6455,
      "##ases": 6456,
      "goes": 6457,
      "unus": 6458,
      "##uate": 6459,
      "prefer": 6460,
      "1984": 6461,
      "singing": 6462,
      "philadelph": 6463,
      "800": 6464,
      "acquired": 6465,
      "titles": 6466,
      "##umber": 6467,
      "da": 6468,
      "##de": 6469,
      "commonly": 6470,
      "journey": 6471,
      "##iate": 6472,
      "upgr": 6473,
      "##stream": 6474,
      "freeway": 6475,
      "gives": 6476,
      "suggests": 6477,
      "##alty": 6478,
      "centuries": 6479,
      "supreme": 6480,
      "##illa": 6481,
      "distribution": 6482,
      "planning": 6483,
      "57": 6484,
      "georgia": 6485,
      "revol": 6486,
      "##oted": 6487,
      "##ading": 6488,
      "mentioned": 6489,
      "ka": 6490,
      "##ifications": 6491,
      "az": 6492,
      "deck": 6493,
      "sets": 6494,
      "cambridge": 6495,
      "web": 6496,
      "myth": 6497,
      "controlled": 6498,
      "contain": 6499,
      "alternative": 6500,
      "scheduled": 6501,
      "philadelphia": 6502,
      "trains": 6503,
      "##inger": 6504,
      "dip": 6505,
      "kel": 6506,
      "cook": 6507,
      "120": 6508,
      "contest": 6509,
      "ell": 6510,
      "depict": 6511,
      "##och": 6512,
      "##attle": 6513,
      "protect": 6514,
      "chance": 6515,
      "shooting": 6516,
      "unique": 6517,
      "graph": 6518,
      "##haps": 6519,
      "##pi": 6520,
      "regarding": 6521,
      "decre": 6522,
      "principal": 6523,
      "sie": 6524,
      "perhaps": 6525,
      "virt": 6526,
      "fix": 6527,
      "1967": 6528,
      "save": 6529,
      "spot": 6530,
      "finds": 6531,
      "fro": 6532,
      "62": 6533,
      "integr": 6534,
      "##rec": 6535,
      "##umes": 6536,
      "russia": 6537,
      "reading": 6538,
      "gill": 6539,
      "extrem": 6540,
      "estate": 6541,
      "scientific": 6542,
      "reaction": 6543,
      "ss": 6544,
      "crime": 6545,
      "facilities": 6546,
      "demand": 6547,
      "witness": 6548,
      "##outs": 6549,
      "tag": 6550,
      "##shire": 6551,
      "rules": 6552,
      "##aven": 6553,
      "wrestling": 6554,
      "session": 6555,
      "##amin": 6556,
      "request": 6557,
      "1980": 6558,
      "gain": 6559,
      "lis": 6560,
      "arrival": 6561,
      "ok": 6562,
      "rum": 6563,
      "containing": 6564,
      "submar": 6565,
      "exchange": 6566,
      "publication": 6567,
      "linc": 6568,
      "teach": 6569,
      "ceremony": 6570,
      "liverpool": 6571,
      "rated": 6572,
      "recru": 6573,
      "accompanied": 6574,
      "thor": 6575,
      "belong": 6576,
      "nintend": 6577,
      "rub": 6578,
      "price": 6579,
      "fighter": 6580,
      "brook": 6581,
      "##hol": 6582,
      "locations": 6583,
      "deter": 6584,
      "ta": 6585,
      "##eck": 6586,
      "quite": 6587,
      "extr": 6588,
      "selection": 6589,
      "tact": 6590,
      "finish": 6591,
      "jenn": 6592,
      "##ete": 6593,
      "##hi": 6594,
      "nintendo": 6595,
      "mand": 6596,
      "brid": 6597,
      "touchdown": 6598,
      "hits": 6599,
      "brand": 6600,
      "moder": 6601,
      "mouth": 6602,
      "simple": 6603,
      "columbia": 6604,
      "tab": 6605,
      "entirely": 6606,
      "evening": 6607,
      "##once": 6608,
      "##unk": 6609,
      "cd": 6610,
      "om": 6611,
      "firm": 6612,
      "destr": 6613,
      "prote": 6614,
      "existing": 6615,
      "58": 6616,
      "asia": 6617,
      "singap": 6618,
      "dedicated": 6619,
      "fash": 6620,
      "##station": 6621,
      "##agan": 6622,
      "cloud": 6623,
      "legacy": 6624,
      "contributed": 6625,
      "resistance": 6626,
      "korean": 6627,
      "kings": 6628,
      "provides": 6629,
      "crowd": 6630,
      "ax": 6631,
      "remix": 6632,
      "74": 6633,
      "page": 6634,
      "boats": 6635,
      "purchased": 6636,
      "brazil": 6637,
      "windows": 6638,
      "1983": 6639,
      "resemb": 6640,
      "campus": 6641,
      "throw": 6642,
      "##itan": 6643,
      "adap": 6644,
      "##eg": 6645,
      "jewish": 6646,
      "##ulate": 6647,
      "##room": 6648,
      "battery": 6649,
      "##ington": 6650,
      "intensity": 6651,
      "##eless": 6652,
      "##inity": 6653,
      "francisco": 6654,
      "advantage": 6655,
      "sites": 6656,
      "##respond": 6657,
      "lincoln": 6658,
      "correspond": 6659,
      "singapore": 6660,
      "whit": 6661,
      "occupied": 6662,
      "table": 6663,
      "bron": 6664,
      "boys": 6665,
      "bes": 6666,
      "1964": 6667,
      "eighth": 6668,
      "##oses": 6669,
      "towns": 6670,
      "72": 6671,
      "casualties": 6672,
      "##iences": 6673,
      "1969": 6674,
      "grey": 6675,
      "holding": 6676,
      "alle": 6677,
      "occur": 6678,
      "bright": 6679,
      "promotion": 6680,
      "carey": 6681,
      "miller": 6682,
      "gay": 6683,
      "gulf": 6684,
      "##hens": 6685,
      "elimin": 6686,
      "trou": 6687,
      "protected": 6688,
      "astr": 6689,
      "hydro": 6690,
      "drawn": 6691,
      "resour": 6692,
      "disney": 6693,
      "regions": 6694,
      "nap": 6695,
      "structures": 6696,
      "playstation": 6697,
      "code": 6698,
      "##fort": 6699,
      "conqu": 6700,
      "##laim": 6701,
      "1914": 6702,
      "basketball": 6703,
      "coastal": 6704,
      "closely": 6705,
      "cars": 6706,
      "##onic": 6707,
      "receiving": 6708,
      "tenn": 6709,
      "1918": 6710,
      "opportunity": 6711,
      "hms": 6712,
      "nic": 6713,
      "##itled": 6714,
      "gib": 6715,
      "##kes": 6716,
      "##ompl": 6717,
      "lewis": 6718,
      "##ua": 6719,
      "generation": 6720,
      "1982": 6721,
      "##iny": 6722,
      "judge": 6723,
      "##fri": 6724,
      "##usc": 6725,
      "turning": 6726,
      "calls": 6727,
      "1971": 6728,
      "steve": 6729,
      "59": 6730,
      "consists": 6731,
      "unsu": 6732,
      "byz": 6733,
      "1966": 6734,
      "brian": 6735,
      "fit": 6736,
      "anderson": 6737,
      "##burgh": 6738,
      "symbol": 6739,
      "1972": 6740,
      "acts": 6741,
      "roughly": 6742,
      "##rig": 6743,
      "grade": 6744,
      "1979": 6745,
      "jr": 6746,
      "defined": 6747,
      "corner": 6748,
      "reserv": 6749,
      "heads": 6750,
      "olympic": 6751,
      "strengt": 6752,
      "##wick": 6753,
      "ast": 6754,
      "##rons": 6755,
      "##ware": 6756,
      "fashion": 6757,
      "byzant": 6758,
      "experienced": 6759,
      "hem": 6760,
      "anything": 6761,
      "rolling": 6762,
      "99": 6763,
      "heat": 6764,
      "flu": 6765,
      "##box": 6766,
      "losses": 6767,
      "bands": 6768,
      "##ocated": 6769,
      "protest": 6770,
      "##garian": 6771,
      "retire": 6772,
      "##awa": 6773,
      "ts": 6774,
      "1965": 6775,
      "daniel": 6776,
      "##eed": 6777,
      "viewed": 6778,
      "engaged": 6779,
      "hip": 6780,
      "nhl": 6781,
      "providing": 6782,
      "focused": 6783,
      "task": 6784,
      "politics": 6785,
      "religion": 6786,
      "##eb": 6787,
      "1975": 6788,
      "developing": 6789,
      "patrol": 6790,
      "relief": 6791,
      "phase": 6792,
      "uncle": 6793,
      "map": 6794,
      "##oster": 6795,
      "##mann": 6796,
      "semi": 6797,
      "males": 6798,
      "wond": 6799,
      "3rd": 6800,
      "oak": 6801,
      "shared": 6802,
      "shall": 6803,
      "tow": 6804,
      "hired": 6805,
      "bottom": 6806,
      "intelligence": 6807,
      "gram": 6808,
      "highlight": 6809,
      "germans": 6810,
      "credits": 6811,
      "temperature": 6812,
      "hollywood": 6813,
      "folk": 6814,
      "##ella": 6815,
      "enl": 6816,
      "solid": 6817,
      "walter": 6818,
      "rapidly": 6819,
      "faith": 6820,
      "investigation": 6821,
      "guy": 6822,
      "junior": 6823,
      "everything": 6824,
      "rene": 6825,
      "recognized": 6826,
      "equal": 6827,
      "launch": 6828,
      "exact": 6829,
      "1974": 6830,
      "18th": 6831,
      "davis": 6832,
      "missing": 6833,
      "flat": 6834,
      "introduction": 6835,
      "hart": 6836,
      "63": 6837,
      "##ifically": 6838,
      "belief": 6839,
      "##eper": 6840,
      "cou": 6841,
      "##heim": 6842,
      "1973": 6843,
      "lb": 6844,
      "hell": 6845,
      "##opher": 6846,
      "ans": 6847,
      "painting": 6848,
      "gam": 6849,
      "getting": 6850,
      "77": 6851,
      "armour": 6852,
      "rome": 6853,
      "73": 6854,
      "vent": 6855,
      "gord": 6856,
      "isol": 6857,
      "jean": 6858,
      "substant": 6859,
      "prepared": 6860,
      "serb": 6861,
      "mountains": 6862,
      "franchise": 6863,
      "shape": 6864,
      "falls": 6865,
      "##ilton": 6866,
      "opinion": 6867,
      "##mouth": 6868,
      "knew": 6869,
      "beyonce": 6870,
      "global": 6871,
      "domestic": 6872,
      "cens": 6873,
      "##rich": 6874,
      "thin": 6875,
      "descend": 6876,
      "1976": 6877,
      "significantly": 6878,
      "sort": 6879,
      "approved": 6880,
      "auth": 6881,
      "projects": 6882,
      "##pa": 6883,
      "adding": 6884,
      "lit": 6885,
      "sab": 6886,
      "##eds": 6887,
      "literary": 6888,
      "intersection": 6889,
      "##wart": 6890,
      "##etts": 6891,
      "##bound": 6892,
      "wings": 6893,
      "##rane": 6894,
      "han": 6895,
      "confeder": 6896,
      "pret": 6897,
      "penins": 6898,
      "##eals": 6899,
      "##ender": 6900,
      "reasons": 6901,
      "knowledge": 6902,
      "##iat": 6903,
      "playoff": 6904,
      "raid": 6905,
      "naz": 6906,
      "cris": 6907,
      "##sey": 6908,
      "##ishes": 6909,
      "musl": 6910,
      "##erted": 6911,
      "unsuccess": 6912,
      "nas": 6913,
      "challenge": 6914,
      "##iful": 6915,
      "wheel": 6916,
      "##ologist": 6917,
      "250": 6918,
      "##ographic": 6919,
      "hung": 6920,
      "cabin": 6921,
      "bull": 6922,
      "greg": 6923,
      "autom": 6924,
      "vic": 6925,
      "##ira": 6926,
      "syd": 6927,
      "unl": 6928,
      "##lav": 6929,
      "poem": 6930,
      "ari": 6931,
      "shaped": 6932,
      "bern": 6933,
      "stages": 6934,
      "views": 6935,
      "escort": 6936,
      "ward": 6937,
      "67": 6938,
      "evolution": 6939,
      "archae": 6940,
      "sed": 6941,
      "exerc": 6942,
      "settlement": 6943,
      "##ador": 6944,
      "storyline": 6945,
      "typh": 6946,
      "parallel": 6947,
      "rar": 6948,
      "internal": 6949,
      "labour": 6950,
      "operating": 6951,
      "##achus": 6952,
      "##break": 6953,
      "##istan": 6954,
      "shut": 6955,
      "reputation": 6956,
      "renamed": 6957,
      "##ek": 6958,
      "watched": 6959,
      "thirty": 6960,
      "##ati": 6961,
      "professor": 6962,
      "baby": 6963,
      "proceed": 6964,
      "humans": 6965,
      "fine": 6966,
      "##eral": 6967,
      "##unte": 6968,
      "popularity": 6969,
      "females": 6970,
      "neverthel": 6971,
      "nevertheless": 6972,
      "lun": 6973,
      "limit": 6974,
      "employed": 6975,
      "##asty": 6976,
      "allies": 6977,
      "##ping": 6978,
      "guide": 6979,
      "rebu": 6980,
      "##zen": 6981,
      "neut": 6982,
      "injured": 6983,
      "jam": 6984,
      "torn": 6985,
      "volunte": 6986,
      "cited": 6987,
      "increasingly": 6988,
      "##iro": 6989,
      "ross": 6990,
      "models": 6991,
      "cape": 6992,
      "##antly": 6993,
      "blues": 6994,
      "96": 6995,
      "consc": 6996,
      "kentucky": 6997,
      "wealth": 6998,
      "1946": 6999,
      "headed": 7000,
      "paint": 7001,
      "##awn": 7002,
      "las": 7003,
      "finding": 7004,
      "neither": 7005,
      "1981": 7006,
      "philipp": 7007,
      "collected": 7008,
      "declined": 7009,
      "connected": 7010,
      "hills": 7011,
      "violence": 7012,
      "details": 7013,
      "68": 7014,
      "grav": 7015,
      "scul": 7016,
      "82": 7017,
      "existence": 7018,
      "depth": 7019,
      "##onym": 7020,
      "enjoyed": 7021,
      "entry": 7022,
      "1950s": 7023,
      "##inum": 7024,
      "##aka": 7025,
      "converted": 7026,
      "consum": 7027,
      "norway": 7028,
      "learned": 7029,
      "connect": 7030,
      "volcan": 7031,
      "controversy": 7032,
      "ken": 7033,
      "sad": 7034,
      "sustained": 7035,
      "impl": 7036,
      "##tar": 7037,
      "outer": 7038,
      "##iger": 7039,
      "1917": 7040,
      "olympics": 7041,
      "championships": 7042,
      "applied": 7043,
      "cad": 7044,
      "nest": 7045,
      "##ients": 7046,
      "##istol": 7047,
      "massachus": 7048,
      "lev": 7049,
      "87": 7050,
      "premier": 7051,
      "gang": 7052,
      "allows": 7053,
      "##iform": 7054,
      "camera": 7055,
      "##ceived": 7056,
      "cells": 7057,
      "sculpt": 7058,
      "crimin": 7059,
      "teacher": 7060,
      "massachusetts": 7061,
      "clark": 7062,
      "##imet": 7063,
      "##rif": 7064,
      "synt": 7065,
      "##otic": 7066,
      "##ava": 7067,
      "arsen": 7068,
      "ways": 7069,
      "occas": 7070,
      "raw": 7071,
      "160": 7072,
      "tests": 7073,
      "decade": 7074,
      "approached": 7075,
      "##osis": 7076,
      "easily": 7077,
      "entrance": 7078,
      "interp": 7079,
      "gray": 7080,
      "##atures": 7081,
      "designs": 7082,
      "downlo": 7083,
      "##ropri": 7084,
      "foss": 7085,
      "duty": 7086,
      "carrying": 7087,
      "##onia": 7088,
      "technical": 7089,
      "responded": 7090,
      "##ali": 7091,
      "discovery": 7092,
      "confron": 7093,
      "vel": 7094,
      "sax": 7095,
      "chairman": 7096,
      "1948": 7097,
      "loy": 7098,
      "pitch": 7099,
      "breeding": 7100,
      "hang": 7101,
      "##roll": 7102,
      "bush": 7103,
      "buried": 7104,
      "700": 7105,
      "##ima": 7106,
      "extension": 7107,
      "##esc": 7108,
      "gradually": 7109,
      "succeeded": 7110,
      "tu": 7111,
      "1960": 7112,
      "programs": 7113,
      "##psons": 7114,
      "scar": 7115,
      "convoy": 7116,
      "specifically": 7117,
      "simpsons": 7118,
      "prize": 7119,
      "acres": 7120,
      "mayor": 7121,
      "jay": 7122,
      "mode": 7123,
      "sons": 7124,
      "showing": 7125,
      "69": 7126,
      "door": 7127,
      "items": 7128,
      "municip": 7129,
      "##ignment": 7130,
      "address": 7131,
      "install": 7132,
      "sections": 7133,
      "91": 7134,
      "prisoners": 7135,
      "raf": 7136,
      "stret": 7137,
      "genre": 7138,
      "exclus": 7139,
      "##itors": 7140,
      "arranged": 7141,
      "shr": 7142,
      "credited": 7143,
      "gone": 7144,
      "maria": 7145,
      "hull": 7146,
      "pear": 7147,
      "none": 7148,
      "teen": 7149,
      "1978": 7150,
      "statement": 7151,
      "plac": 7152,
      "##ogen": 7153,
      "similarly": 7154,
      "cryst": 7155,
      "producing": 7156,
      "util": 7157,
      "winner": 7158,
      "leon": 7159,
      "parties": 7160,
      "micro": 7161,
      "bath": 7162,
      "##inal": 7163,
      "seems": 7164,
      "bear": 7165,
      "shop": 7166,
      "improve": 7167,
      "additionally": 7168,
      "78": 7169,
      "vietnam": 7170,
      "ot": 7171,
      "triple": 7172,
      "scr": 7173,
      "presidential": 7174,
      "earliest": 7175,
      "##arm": 7176,
      "jes": 7177,
      "weakened": 7178,
      "##come": 7179,
      "landfall": 7180,
      "threatened": 7181,
      "warning": 7182,
      "rural": 7183,
      "candidate": 7184,
      "ottoman": 7185,
      "adam": 7186,
      "routes": 7187,
      "##va": 7188,
      "sounds": 7189,
      "fields": 7190,
      "engineer": 7191,
      "##inary": 7192,
      "1915": 7193,
      "sharp": 7194,
      "##entions": 7195,
      "inner": 7196,
      "divisions": 7197,
      "poland": 7198,
      "combination": 7199,
      "94": 7200,
      "retained": 7201,
      "##itch": 7202,
      "sydney": 7203,
      "spok": 7204,
      "brain": 7205,
      "1977": 7206,
      "maryland": 7207,
      "products": 7208,
      "lasted": 7209,
      "moore": 7210,
      "mtv": 7211,
      "jur": 7212,
      "hear": 7213,
      "kim": 7214,
      "##put": 7215,
      "dress": 7216,
      "ones": 7217,
      "evil": 7218,
      "1950": 7219,
      "##inking": 7220,
      "chemical": 7221,
      "##taining": 7222,
      "funct": 7223,
      "animated": 7224,
      "replace": 7225,
      "lam": 7226,
      "basic": 7227,
      "swim": 7228,
      "98": 7229,
      "81": 7230,
      "frag": 7231,
      "interior": 7232,
      "adapted": 7233,
      "inspir": 7234,
      "##issance": 7235,
      "supplies": 7236,
      "##rit": 7237,
      "speaking": 7238,
      "##itage": 7239,
      "grounds": 7240,
      "engines": 7241,
      "1963": 7242,
      "repair": 7243,
      "afterwards": 7244,
      "cul": 7245,
      "message": 7246,
      "tra": 7247,
      "dele": 7248,
      "##iel": 7249,
      "filled": 7250,
      "maintain": 7251,
      "peninsula": 7252,
      "lock": 7253,
      "delivered": 7254,
      "equival": 7255,
      "cow": 7256,
      "agency": 7257,
      "supporters": 7258,
      "crash": 7259,
      "magic": 7260,
      "entitled": 7261,
      "clean": 7262,
      "affairs": 7263,
      "permanent": 7264,
      "indicated": 7265,
      "climate": 7266,
      "architecture": 7267,
      "downtown": 7268,
      "stopped": 7269,
      "##oz": 7270,
      "engineering": 7271,
      "extremely": 7272,
      "surviv": 7273,
      "1916": 7274,
      "##oli": 7275,
      "correct": 7276,
      "causes": 7277,
      "alien": 7278,
      "diamond": 7279,
      "##rets": 7280,
      "##inton": 7281,
      "71": 7282,
      "wides": 7283,
      "##izations": 7284,
      "##hr": 7285,
      "fruit": 7286,
      "deaths": 7287,
      "proposal": 7288,
      "mulder": 7289,
      "restaur": 7290,
      "##leton": 7291,
      "##wa": 7292,
      "importance": 7293,
      "buff": 7294,
      "##ushing": 7295,
      "bos": 7296,
      "mine": 7297,
      "mars": 7298,
      "secure": 7299,
      "89": 7300,
      "##bl": 7301,
      "spons": 7302,
      "##apes": 7303,
      "returns": 7304,
      "gordon": 7305,
      "acid": 7306,
      "##emies": 7307,
      "##othes": 7308,
      "deleg": 7309,
      "mans": 7310,
      "ratings": 7311,
      "ches": 7312,
      "composer": 7313,
      "pig": 7314,
      "rhodes": 7315,
      "1919": 7316,
      "implement": 7317,
      "abd": 7318,
      "##book": 7319,
      "##math": 7320,
      "knots": 7321,
      "poly": 7322,
      "1962": 7323,
      "##aling": 7324,
      "##aud": 7325,
      "ak": 7326,
      "classical": 7327,
      "survived": 7328,
      "giant": 7329,
      "88": 7330,
      "streets": 7331,
      "references": 7332,
      "compon": 7333,
      "##ropol": 7334,
      "##osa": 7335,
      "aftermath": 7336,
      "armor": 7337,
      "describing": 7338,
      "##bourne": 7339,
      "fict": 7340,
      "##ela": 7341,
      "##aki": 7342,
      "classification": 7343,
      "writes": 7344,
      "alf": 7345,
      "##inois": 7346,
      "songwr": 7347,
      "convin": 7348,
      "holy": 7349,
      "medie": 7350,
      "typical": 7351,
      "sale": 7352,
      "##time": 7353,
      "##iversary": 7354,
      "bought": 7355,
      "##nic": 7356,
      "someone": 7357,
      "1938": 7358,
      "images": 7359,
      "concerns": 7360,
      "environmental": 7361,
      "ira": 7362,
      "remember": 7363,
      "entering": 7364,
      "flo": 7365,
      "rivers": 7366,
      "studied": 7367,
      "ruled": 7368,
      "universe": 7369,
      "na": 7370,
      "portrayed": 7371,
      "mah": 7372,
      "hug": 7373,
      "rab": 7374,
      "##entially": 7375,
      "preced": 7376,
      "arrested": 7377,
      "cruiser": 7378,
      "voted": 7379,
      "tanks": 7380,
      "reduce": 7381,
      "vul": 7382,
      "decline": 7383,
      "recalled": 7384,
      "simon": 7385,
      "eleven": 7386,
      "nel": 7387,
      "ago": 7388,
      "retreat": 7389,
      "sor": 7390,
      "kat": 7391,
      "##eton": 7392,
      "intention": 7393,
      "medieval": 7394,
      "79": 7395,
      "purchase": 7396,
      "corporation": 7397,
      "siege": 7398,
      "actual": 7399,
      "jane": 7400,
      "##met": 7401,
      "owner": 7402,
      "bang": 7403,
      "feeling": 7404,
      "subs": 7405,
      "objects": 7406,
      "##adow": 7407,
      "alliance": 7408,
      "##ansas": 7409,
      "typhoon": 7410,
      "capable": 7411,
      "##know": 7412,
      "liberal": 7413,
      "pav": 7414,
      "chapter": 7415,
      "nomination": 7416,
      "sessions": 7417,
      "princess": 7418,
      "recognition": 7419,
      "academic": 7420,
      "camer": 7421,
      "identity": 7422,
      "thousands": 7423,
      "hunting": 7424,
      "funds": 7425,
      "driving": 7426,
      "1956": 7427,
      "offers": 7428,
      "##una": 7429,
      "connection": 7430,
      "meters": 7431,
      "175": 7432,
      "concerned": 7433,
      "noting": 7434,
      "kong": 7435,
      "tony": 7436,
      "##aly": 7437,
      "equipped": 7438,
      "##ucks": 7439,
      "passage": 7440,
      "##po": 7441,
      "anniversary": 7442,
      "debate": 7443,
      "admitted": 7444,
      "colonial": 7445,
      "recommended": 7446,
      "##eline": 7447,
      "decades": 7448,
      "finals": 7449,
      "##icide": 7450,
      "historians": 7451,
      "interested": 7452,
      "##aints": 7453,
      "arsenal": 7454,
      "##oir": 7455,
      "subt": 7456,
      "1930s": 7457,
      "pip": 7458,
      "alan": 7459,
      "consisting": 7460,
      "sight": 7461,
      "invited": 7462,
      "jord": 7463,
      "adams": 7464,
      "wel": 7465,
      "92": 7466,
      "##eller": 7467,
      "thunder": 7468,
      "decor": 7469,
      "programme": 7470,
      "dipl": 7471,
      "universal": 7472,
      "dougl": 7473,
      "eat": 7474,
      "installed": 7475,
      "breaking": 7476,
      "##encies": 7477,
      "crossed": 7478,
      "warm": 7479,
      "quant": 7480,
      "1936": 7481,
      "##aked": 7482,
      "considerable": 7483,
      "##iques": 7484,
      "##ipping": 7485,
      "diet": 7486,
      "colony": 7487,
      "undert": 7488,
      "sequel": 7489,
      "##wich": 7490,
      "##ingly": 7491,
      "##ropical": 7492,
      "courts": 7493,
      "##aken": 7494,
      "starts": 7495,
      "hamilton": 7496,
      "##oked": 7497,
      "establishment": 7498,
      "veter": 7499,
      "dates": 7500,
      "manner": 7501,
      "charged": 7502,
      "##gers": 7503,
      "enemies": 7504,
      "improv": 7505,
      "##eston": 7506,
      "84": 7507,
      "##acks": 7508,
      "duties": 7509,
      "remainder": 7510,
      "130": 7511,
      "##ranean": 7512,
      "jump": 7513,
      "truth": 7514,
      "styles": 7515,
      "##cement": 7516,
      "##pread": 7517,
      "negoti": 7518,
      "##heas": 7519,
      "ready": 7520,
      "utc": 7521,
      "shield": 7522,
      "##chers": 7523,
      "communist": 7524,
      "salt": 7525,
      "##rate": 7526,
      "##aham": 7527,
      "1920": 7528,
      "conservative": 7529,
      "widespread": 7530,
      "promote": 7531,
      "pictures": 7532,
      "##osaurus": 7533,
      "bure": 7534,
      "1961": 7535,
      "nether": 7536,
      "##ilation": 7537,
      "pad": 7538,
      "bid": 7539,
      "behavior": 7540,
      "cos": 7541,
      "marc": 7542,
      "argent": 7543,
      "occasionally": 7544,
      "thro": 7545,
      "shore": 7546,
      "classes": 7547,
      "departure": 7548,
      "aspects": 7549,
      "##mus": 7550,
      "93": 7551,
      "animation": 7552,
      "slowly": 7553,
      "indones": 7554,
      "continuing": 7555,
      "credit": 7556,
      "nba": 7557,
      "electronic": 7558,
      "##ucing": 7559,
      "myst": 7560,
      "1953": 7561,
      "kennedy": 7562,
      "transition": 7563,
      "##iling": 7564,
      "beautiful": 7565,
      "hou": 7566,
      "romantic": 7567,
      "resources": 7568,
      "plate": 7569,
      "orchestra": 7570,
      "happy": 7571,
      "wearing": 7572,
      "acclaim": 7573,
      "monument": 7574,
      "rhyth": 7575,
      "freder": 7576,
      "##akers": 7577,
      "chapel": 7578,
      "destruction": 7579,
      "emergency": 7580,
      "scout": 7581,
      "disappoint": 7582,
      "turk": 7583,
      "sweet": 7584,
      "sunday": 7585,
      "pure": 7586,
      "ride": 7587,
      "howard": 7588,
      "assistance": 7589,
      "posted": 7590,
      "indiana": 7591,
      "senator": 7592,
      "norwe": 7593,
      "formal": 7594,
      "##athan": 7595,
      "occurs": 7596,
      "transportation": 7597,
      "scully": 7598,
      "treas": 7599,
      "pleas": 7600,
      "##ager": 7601,
      "carbon": 7602,
      "alleg": 7603,
      "##atch": 7604,
      "1930": 7605,
      "##hetic": 7606,
      "##ashed": 7607,
      "accur": 7608,
      "certified": 7609,
      "##zer": 7610,
      "hitler": 7611,
      "strip": 7612,
      "populations": 7613,
      "superior": 7614,
      "mathem": 7615,
      "vessels": 7616,
      "memory": 7617,
      "income": 7618,
      "dated": 7619,
      "17th": 7620,
      "1947": 7621,
      "cant": 7622,
      "properties": 7623,
      "hur": 7624,
      "attached": 7625,
      "conservation": 7626,
      "chorus": 7627,
      "##icit": 7628,
      "1958": 7629,
      "##after": 7630,
      "ryan": 7631,
      "86": 7632,
      "portug": 7633,
      "demol": 7634,
      "dean": 7635,
      "pound": 7636,
      "amend": 7637,
      "equivalent": 7638,
      "##icate": 7639,
      "##otted": 7640,
      "ancest": 7641,
      "passengers": 7642,
      "##ione": 7643,
      "adventure": 7644,
      "shots": 7645,
      "wwe": 7646,
      "dor": 7647,
      "involving": 7648,
      "reun": 7649,
      "##ophy": 7650,
      "desert": 7651,
      "circum": 7652,
      "rig": 7653,
      "##oard": 7654,
      "heritage": 7655,
      "1957": 7656,
      "medic": 7657,
      "expand": 7658,
      "tunnel": 7659,
      "##veland": 7660,
      "acknow": 7661,
      "oldest": 7662,
      "settled": 7663,
      "sleep": 7664,
      "terminus": 7665,
      "pink": 7666,
      "catch": 7667,
      "##ovic": 7668,
      "barr": 7669,
      "1937": 7670,
      "fisher": 7671,
      "##regon": 7672,
      "##aware": 7673,
      "obtained": 7674,
      "##anian": 7675,
      "rescue": 7676,
      "bombard": 7677,
      "authors": 7678,
      "worst": 7679,
      "wins": 7680,
      "derived": 7681,
      "mexican": 7682,
      "ninth": 7683,
      "accused": 7684,
      "circuit": 7685,
      "##agues": 7686,
      "finishing": 7687,
      "inher": 7688,
      "collect": 7689,
      "incorporated": 7690,
      "cleveland": 7691,
      "##ivals": 7692,
      "reviewers": 7693,
      "ker": 7694,
      "lenn": 7695,
      "oregon": 7696,
      "favorite": 7697,
      "illinois": 7698,
      "navig": 7699,
      "douglas": 7700,
      "kit": 7701,
      "mediter": 7702,
      "##etime": 7703,
      "prey": 7704,
      "charges": 7705,
      "belt": 7706,
      "crisis": 7707,
      "moves": 7708,
      "bou": 7709,
      "sword": 7710,
      "junction": 7711,
      "replacement": 7712,
      "##oes": 7713,
      "dynasty": 7714,
      "##heastern": 7715,
      "##ables": 7716,
      "hosted": 7717,
      "bringing": 7718,
      "vehicle": 7719,
      "grass": 7720,
      "missions": 7721,
      "committed": 7722,
      "andy": 7723,
      "##uge": 7724,
      "segment": 7725,
      "##bar": 7726,
      "audio": 7727,
      "pope": 7728,
      "assumed": 7729,
      "supposed": 7730,
      "##western": 7731,
      "##orney": 7732,
      "1959": 7733,
      "denied": 7734,
      "stanley": 7735,
      "4th": 7736,
      "interpret": 7737,
      "110": 7738,
      "##ommod": 7739,
      "rooms": 7740,
      "recre": 7741,
      "clubs": 7742,
      "circulation": 7743,
      "rebell": 7744,
      "representatives": 7745,
      "unusual": 7746,
      "fictional": 7747,
      "musicians": 7748,
      "premiere": 7749,
      "dens": 7750,
      "transm": 7751,
      "lanc": 7752,
      "roger": 7753,
      "##ruption": 7754,
      "##agonist": 7755,
      "shear": 7756,
      "intercept": 7757,
      "meg": 7758,
      "##ooth": 7759,
      "beatles": 7760,
      "mediterranean": 7761,
      "outstanding": 7762,
      "deput": 7763,
      "kevin": 7764,
      "theater": 7765,
      "deem": 7766,
      "bruce": 7767,
      "seeing": 7768,
      "strongly": 7769,
      "##lee": 7770,
      "##wan": 7771,
      "1954": 7772,
      "commanded": 7773,
      "reality": 7774,
      "solar": 7775,
      "norwegian": 7776,
      "anton": 7777,
      "wickets": 7778,
      "monarch": 7779,
      "completion": 7780,
      "1955": 7781,
      "begun": 7782,
      "neighbor": 7783,
      "cathed": 7784,
      "bristol": 7785,
      "consult": 7786,
      "costs": 7787,
      "rug": 7788,
      "characteristics": 7789,
      "materials": 7790,
      "mes": 7791,
      "persu": 7792,
      "gust": 7793,
      "exception": 7794,
      "desire": 7795,
      "methods": 7796,
      "alleged": 7797,
      "tied": 7798,
      "possibility": 7799,
      "isbn": 7800,
      "haz": 7801,
      "philip": 7802,
      "surviving": 7803,
      "passenger": 7804,
      "vision": 7805,
      "craft": 7806,
      "sailed": 7807,
      "##omy": 7808,
      "everyone": 7809,
      "praise": 7810,
      "##ji": 7811,
      "responsibility": 7812,
      "##friend": 7813,
      "attorney": 7814,
      "buy": 7815,
      "ford": 7816,
      "opposite": 7817,
      "atmosphere": 7818,
      "driven": 7819,
      "differences": 7820,
      "lisa": 7821,
      "pel": 7822,
      "carrier": 7823,
      "##borne": 7824,
      "ku": 7825,
      "wet": 7826,
      "habitat": 7827,
      "dragon": 7828,
      "missed": 7829,
      "thereafter": 7830,
      "voy": 7831,
      "##ami": 7832,
      "representative": 7833,
      "scheme": 7834,
      "rif": 7835,
      "mig": 7836,
      "##state": 7837,
      "otherwise": 7838,
      "##burn": 7839,
      "##works": 7840,
      "##rus": 7841,
      "##onto": 7842,
      "gor": 7843,
      "vary": 7844,
      "##char": 7845,
      "orange": 7846,
      "obl": 7847,
      "##ules": 7848,
      "##erged": 7849,
      "wrong": 7850,
      "nich": 7851,
      "platinum": 7852,
      "funding": 7853,
      "korea": 7854,
      "##anth": 7855,
      "recovered": 7856,
      "consp": 7857,
      "massive": 7858,
      "throne": 7859,
      "phill": 7860,
      "strategy": 7861,
      "attributed": 7862,
      "sid": 7863,
      "83": 7864,
      "retirement": 7865,
      "##iant": 7866,
      "ceas": 7867,
      "##aza": 7868,
      "effectively": 7869,
      "stayed": 7870,
      "communities": 7871,
      "##urray": 7872,
      "shif": 7873,
      "1952": 7874,
      "warri": 7875,
      "serves": 7876,
      "predec": 7877,
      "cancer": 7878,
      "emerged": 7879,
      "fu": 7880,
      "##ien": 7881,
      "morris": 7882,
      "ministry": 7883,
      "##alf": 7884,
      "weapon": 7885,
      "adults": 7886,
      "outbreak": 7887,
      "##weight": 7888,
      "##cer": 7889,
      "punk": 7890,
      "##aug": 7891,
      "morgan": 7892,
      "aboard": 7893,
      "norman": 7894,
      "##organ": 7895,
      "twin": 7896,
      "accommod": 7897,
      "robinson": 7898,
      "classified": 7899,
      "##opes": 7900,
      "politic": 7901,
      "regularly": 7902,
      "documentary": 7903,
      "nelson": 7904,
      "partn": 7905,
      "elections": 7906,
      "mobile": 7907,
      "accounts": 7908,
      "township": 7909,
      "jazz": 7910,
      "cem": 7911,
      "##elsh": 7912,
      "##bell": 7913,
      "hawai": 7914,
      "enterpr": 7915,
      "catal": 7916,
      "wonder": 7917,
      "underground": 7918,
      "mint": 7919,
      "176": 7920,
      "expect": 7921,
      "1933": 7922,
      "##rett": 7923,
      "factor": 7924,
      "strengthen": 7925,
      "dal": 7926,
      "stead": 7927,
      "inspiration": 7928,
      "##oslav": 7929,
      "satis": 7930,
      "crosses": 7931,
      "##arian": 7932,
      "##isms": 7933,
      "falling": 7934,
      "dissip": 7935,
      "illeg": 7936,
      "attracted": 7937,
      "forming": 7938,
      "circle": 7939,
      "crop": 7940,
      "stood": 7941,
      "##riers": 7942,
      "bag": 7943,
      "lith": 7944,
      "trials": 7945,
      "submarine": 7946,
      "lies": 7947,
      "##ito": 7948,
      "parks": 7949,
      "batting": 7950,
      "lyn": 7951,
      "criminal": 7952,
      "races": 7953,
      "##enses": 7954,
      "racing": 7955,
      "pull": 7956,
      "##pective": 7957,
      "##ersed": 7958,
      "movements": 7959,
      "renew": 7960,
      "lut": 7961,
      "ko": 7962,
      "injuries": 7963,
      "##rupted": 7964,
      "vert": 7965,
      "##mes": 7966,
      "needs": 7967,
      "raise": 7968,
      "votes": 7969,
      "sweden": 7970,
      "##pping": 7971,
      "eric": 7972,
      "1935": 7973,
      "##apping": 7974,
      "##eted": 7975,
      "separated": 7976,
      "ech": 7977,
      "symph": 7978,
      "shark": 7979,
      "1910": 7980,
      "commem": 7981,
      "##oking": 7982,
      "advis": 7983,
      "chain": 7984,
      "relative": 7985,
      "##uting": 7986,
      "allen": 7987,
      "publisher": 7988,
      "garrison": 7989,
      "photograph": 7990,
      "cu": 7991,
      "nom": 7992,
      "sudden": 7993,
      "##lets": 7994,
      "patrick": 7995,
      "wy": 7996,
      "battleships": 7997,
      "earn": 7998,
      "1949": 7999,
      "1951": 8000,
      "##idden": 8001,
      "temporary": 8002,
      "distinguished": 8003,
      "soph": 8004,
      "toronto": 8005,
      "welsh": 8006,
      "standards": 8007,
      "difficulty": 8008,
      "##eness": 8009,
      "atom": 8010,
      "partner": 8011,
      "##da": 8012,
      "queens": 8013,
      "byzantine": 8014,
      "ports": 8015,
      "facility": 8016,
      "surrounded": 8017,
      "seemed": 8018,
      "delayed": 8019,
      "ah": 8020,
      "plane": 8021,
      "enth": 8022,
      "harm": 8023,
      "eggs": 8024,
      "gets": 8025,
      "##teenth": 8026,
      "rud": 8027,
      "pir": 8028,
      "arn": 8029,
      "hoped": 8030,
      "remn": 8031,
      "elder": 8032,
      "13th": 8033,
      "restored": 8034,
      "toll": 8035,
      "##war": 8036,
      "##rog": 8037,
      "##imate": 8038,
      "childhood": 8039,
      "requested": 8040,
      "##ogy": 8041,
      "metropol": 8042,
      "penalty": 8043,
      "flank": 8044,
      "netherlands": 8045,
      "shir": 8046,
      "angle": 8047,
      "hut": 8048,
      "amaz": 8049,
      "uss": 8050,
      "matthew": 8051,
      "16th": 8052,
      "tub": 8053,
      "claiming": 8054,
      "internet": 8055,
      "##rell": 8056,
      "##oyd": 8057,
      "jordan": 8058,
      "ages": 8059,
      "temperatures": 8060,
      "bridges": 8061,
      "divers": 8062,
      "reviewer": 8063,
      "elsewhere": 8064,
      "##bing": 8065,
      "##abil": 8066,
      "astronom": 8067,
      "greatly": 8068,
      "cathedral": 8069,
      "##yard": 8070,
      "publishing": 8071,
      "convinced": 8072,
      "moderate": 8073,
      "murd": 8074,
      "dangerous": 8075,
      "wolf": 8076,
      "##real": 8077,
      "lor": 8078,
      "frame": 8079,
      "stands": 8080,
      "##omot": 8081,
      "jacob": 8082,
      "jews": 8083,
      "cycle": 8084,
      "meets": 8085,
      "reconstr": 8086,
      "kiss": 8087,
      "instruct": 8088,
      "examples": 8089,
      "dod": 8090,
      "convection": 8091,
      "##gy": 8092,
      "appropri": 8093,
      "mete": 8094,
      "painted": 8095,
      "##abled": 8096,
      "adaptation": 8097,
      "construct": 8098,
      "accompl": 8099,
      "alco": 8100,
      "spoke": 8101,
      "molec": 8102,
      "##iva": 8103,
      "wright": 8104,
      "recordings": 8105,
      "learn": 8106,
      "hundreds": 8107,
      "iraq": 8108,
      "easy": 8109,
      "drag": 8110,
      "involvement": 8111,
      "pitt": 8112,
      "##ez": 8113,
      "1900": 8114,
      "scrap": 8115,
      "##erto": 8116,
      "immediate": 8117,
      "fled": 8118,
      "##lying": 8119,
      "##iley": 8120,
      "parish": 8121,
      "excell": 8122,
      "anyone": 8123,
      "tries": 8124,
      "techniques": 8125,
      "thomp": 8126,
      "coin": 8127,
      "anne": 8128,
      "satell": 8129,
      "7th": 8130,
      "insur": 8131,
      "salv": 8132,
      "encouraged": 8133,
      "appearing": 8134,
      "learning": 8135,
      "leaf": 8136,
      "##dh": 8137,
      "armen": 8138,
      "somewh": 8139,
      "somewhat": 8140,
      "prohib": 8141,
      "kelly": 8142,
      "##lan": 8143,
      "wooden": 8144,
      "hub": 8145,
      "safe": 8146,
      "veget": 8147,
      "suffering": 8148,
      "legislation": 8149,
      "premiered": 8150,
      "russell": 8151,
      "graphics": 8152,
      "displ": 8153,
      "thompson": 8154,
      "croatian": 8155,
      "synthes": 8156,
      "islam": 8157,
      "assass": 8158,
      "horror": 8159,
      "determine": 8160,
      "##cop": 8161,
      "flash": 8162,
      "journalist": 8163,
      "dismissed": 8164,
      "##agement": 8165,
      "pak": 8166,
      "##pe": 8167,
      "bears": 8168,
      "patri": 8169,
      "hud": 8170,
      "measures": 8171,
      "margin": 8172,
      "ensure": 8173,
      "interests": 8174,
      "absor": 8175,
      "06": 8176,
      "##asing": 8177,
      "5th": 8178,
      "dating": 8179,
      "upd": 8180,
      "whereas": 8181,
      "nickn": 8182,
      "fighters": 8183,
      "trophy": 8184,
      "carter": 8185,
      "chur": 8186,
      "##going": 8187,
      "depend": 8188,
      "usa": 8189,
      "attempting": 8190,
      "facing": 8191,
      "nfl": 8192,
      "##agre": 8193,
      "puerto": 8194,
      "bats": 8195,
      "holds": 8196,
      "theor": 8197,
      "thousand": 8198,
      "##bro": 8199,
      "hend": 8200,
      "poetry": 8201,
      "questions": 8202,
      "gent": 8203,
      "##rad": 8204,
      "extreme": 8205,
      "depos": 8206,
      "spears": 8207,
      "bypass": 8208,
      "formerly": 8209,
      "##body": 8210,
      "biggest": 8211,
      "enfor": 8212,
      "fitted": 8213,
      "option": 8214,
      "visible": 8215,
      "##itzer": 8216,
      "conclusion": 8217,
      "##arn": 8218,
      "starred": 8219,
      "##ighter": 8220,
      "attacking": 8221,
      "##agu": 8222,
      "influences": 8223,
      "closer": 8224,
      "absence": 8225,
      "productions": 8226,
      "##rete": 8227,
      "commonwe": 8228,
      "buck": 8229,
      "##ses": 8230,
      "##alo": 8231,
      "hungarian": 8232,
      "6th": 8233,
      "modified": 8234,
      "lion": 8235,
      "reprod": 8236,
      "neck": 8237,
      "instruments": 8238,
      "cloth": 8239,
      "batman": 8240,
      "1913": 8241,
      "deemed": 8242,
      "bronze": 8243,
      "commonwealth": 8244,
      "scand": 8245,
      "novels": 8246,
      "laboratory": 8247,
      "##elsen": 8248,
      "parker": 8249,
      "apparently": 8250,
      "narrative": 8251,
      "controversial": 8252,
      "diplom": 8253,
      "landsc": 8254,
      "distributed": 8255,
      "locomot": 8256,
      "harris": 8257,
      "##uv": 8258,
      "stor": 8259,
      "fred": 8260,
      "longest": 8261,
      "territories": 8262,
      "leads": 8263,
      "1926": 8264,
      "##ester": 8265,
      "files": 8266,
      "murray": 8267,
      "understand": 8268,
      "alph": 8269,
      "operate": 8270,
      "landed": 8271,
      "trained": 8272,
      "12th": 8273,
      "discip": 8274,
      "1927": 8275,
      "gallery": 8276,
      "rhythm": 8277,
      "creative": 8278,
      "900": 8279,
      "restoration": 8280,
      "unp": 8281,
      "arrangement": 8282,
      "acknowled": 8283,
      "mamm": 8284,
      "1921": 8285,
      "settle": 8286,
      "mainstream": 8287,
      "victims": 8288,
      "visitors": 8289,
      "1934": 8290,
      "dre": 8291,
      "finn": 8292,
      "sees": 8293,
      "releases": 8294,
      "dna": 8295,
      "uniform": 8296,
      "08": 8297,
      "##astr": 8298,
      "coins": 8299,
      "representing": 8300,
      "unsuccessful": 8301,
      "tone": 8302,
      "dynam": 8303,
      "##chang": 8304,
      "abbey": 8305,
      "##aya": 8306,
      "liqu": 8307,
      "weekend": 8308,
      "substit": 8309,
      "sang": 8310,
      "yug": 8311,
      "resolution": 8312,
      "refuge": 8313,
      "yan": 8314,
      "##aws": 8315,
      "owners": 8316,
      "believes": 8317,
      "houston": 8318,
      "enh": 8319,
      "influential": 8320,
      "excess": 8321,
      "looked": 8322,
      "##apers": 8323,
      "depicted": 8324,
      "wol": 8325,
      "##ixon": 8326,
      "berlin": 8327,
      "##ares": 8328,
      "videos": 8329,
      "kw": 8330,
      "wag": 8331,
      "basin": 8332,
      "comics": 8333,
      "exit": 8334,
      "secured": 8335,
      "informed": 8336,
      "dominated": 8337,
      "##eler": 8338,
      "churches": 8339,
      "harbor": 8340,
      "1912": 8341,
      "##roit": 8342,
      "notably": 8343,
      "##ivan": 8344,
      "casting": 8345,
      "##aska": 8346,
      "giants": 8347,
      "lod": 8348,
      "##illing": 8349,
      "legs": 8350,
      "santa": 8351,
      "watching": 8352,
      "driver": 8353,
      "cov": 8354,
      "swedish": 8355,
      "##itable": 8356,
      "neighbour": 8357,
      "##zy": 8358,
      "simpson": 8359,
      "languages": 8360,
      "guardian": 8361,
      "relationships": 8362,
      "##atically": 8363,
      "behavi": 8364,
      "apparent": 8365,
      "1932": 8366,
      "##ultane": 8367,
      "indians": 8368,
      "simultane": 8369,
      "offices": 8370,
      "meteor": 8371,
      "bh": 8372,
      "##ois": 8373,
      "##gets": 8374,
      "##night": 8375,
      "device": 8376,
      "terror": 8377,
      "imposs": 8378,
      "cabinet": 8379,
      "jesus": 8380,
      "housing": 8381,
      "##dd": 8382,
      "##owa": 8383,
      "testing": 8384,
      "##acent": 8385,
      "dies": 8386,
      "ye": 8387,
      "skills": 8388,
      "##illed": 8389,
      "diagn": 8390,
      "tie": 8391,
      "##vis": 8392,
      "pregn": 8393,
      "cock": 8394,
      "dick": 8395,
      "concurr": 8396,
      "raaf": 8397,
      "sull": 8398,
      "##apse": 8399,
      "09": 8400,
      "achieve": 8401,
      "opponents": 8402,
      "cemet": 8403,
      "liz": 8404,
      "deliver": 8405,
      "cemetery": 8406,
      "khan": 8407,
      "hearing": 8408,
      "emotional": 8409,
      "cod": 8410,
      "factors": 8411,
      "##coming": 8412,
      "bun": 8413,
      "warner": 8414,
      "deployed": 8415,
      "##rations": 8416,
      "aftern": 8417,
      "pale": 8418,
      "jason": 8419,
      "intense": 8420,
      "fab": 8421,
      "nbc": 8422,
      "dialogue": 8423,
      "bapt": 8424,
      "##mun": 8425,
      "impressed": 8426,
      "yugoslav": 8427,
      "##osure": 8428,
      "surg": 8429,
      "operational": 8430,
      "##olph": 8431,
      "generated": 8432,
      "reportedly": 8433,
      "##igg": 8434,
      "download": 8435,
      "detail": 8436,
      "drums": 8437,
      "si": 8438,
      "agents": 8439,
      "render": 8440,
      "##ucture": 8441,
      "##iously": 8442,
      "anthony": 8443,
      "commit": 8444,
      "happened": 8445,
      "experiences": 8446,
      "window": 8447,
      "mainten": 8448,
      "agricultural": 8449,
      "##rant": 8450,
      "disappear": 8451,
      "footage": 8452,
      "trek": 8453,
      "employees": 8454,
      "##arts": 8455,
      "maintenance": 8456,
      "gaga": 8457,
      "##ternal": 8458,
      "somers": 8459,
      "##fare": 8460,
      "satur": 8461,
      "kal": 8462,
      "##ache": 8463,
      "successor": 8464,
      "hans": 8465,
      "dj": 8466,
      "mud": 8467,
      "cob": 8468,
      "scientists": 8469,
      "um": 8470,
      "croatia": 8471,
      "commemor": 8472,
      "rising": 8473,
      "firing": 8474,
      "clay": 8475,
      "detroit": 8476,
      "##otype": 8477,
      "lose": 8478,
      "zero": 8479,
      "gilbert": 8480,
      "negotiations": 8481,
      "lowest": 8482,
      "##icial": 8483,
      "##hanna": 8484,
      "##igen": 8485,
      "ark": 8486,
      "cher": 8487,
      "fishing": 8488,
      "1929": 8489,
      "##aled": 8490,
      "laur": 8491,
      "fried": 8492,
      "sure": 8493,
      "defended": 8494,
      "belg": 8495,
      "personality": 8496,
      "revolutionary": 8497,
      "1911": 8498,
      "stem": 8499,
      "##ture": 8500,
      "teeth": 8501,
      "medium": 8502,
      "discussed": 8503,
      "sic": 8504,
      "treated": 8505,
      "executed": 8506,
      "kon": 8507,
      "normally": 8508,
      "format": 8509,
      "atlant": 8510,
      "seas": 8511,
      "sympt": 8512,
      "##tw": 8513,
      "feud": 8514,
      "140": 8515,
      "ay": 8516,
      "stewart": 8517,
      "##anny": 8518,
      "asian": 8519,
      "resign": 8520,
      "1931": 8521,
      "1922": 8522,
      "tenth": 8523,
      "carib": 8524,
      "radar": 8525,
      "drawing": 8526,
      "tribute": 8527,
      "lob": 8528,
      "##ontin": 8529,
      "enters": 8530,
      "tornado": 8531,
      "breat": 8532,
      "interstate": 8533,
      "resigned": 8534,
      "##achment": 8535,
      "advoc": 8536,
      "difference": 8537,
      "melbourne": 8538,
      "detailed": 8539,
      "flew": 8540,
      "evans": 8541,
      "arrest": 8542,
      "accompany": 8543,
      "nielsen": 8544,
      "raj": 8545,
      "origins": 8546,
      "portra": 8547,
      "boil": 8548,
      "partnership": 8549,
      "residential": 8550,
      "formally": 8551,
      "goods": 8552,
      "##iliar": 8553,
      "pointed": 8554,
      "ethnic": 8555,
      "vessel": 8556,
      "xbox": 8557,
      "aged": 8558,
      "synd": 8559,
      "clinton": 8560,
      "innov": 8561,
      "##oen": 8562,
      "preferred": 8563,
      "afternoon": 8564,
      "05": 8565,
      "storms": 8566,
      "inhabit": 8567,
      "glac": 8568,
      "##inces": 8569,
      "reveals": 8570,
      "loop": 8571,
      "militia": 8572,
      "##sk": 8573,
      "cz": 8574,
      "##itter": 8575,
      "stable": 8576,
      "recon": 8577,
      "institution": 8578,
      "huge": 8579,
      "3d": 8580,
      "##ertain": 8581,
      "prevented": 8582,
      "fung": 8583,
      "keeping": 8584,
      "##vens": 8585,
      "forb": 8586,
      "manh": 8587,
      "directors": 8588,
      "tempor": 8589,
      "neighborhood": 8590,
      "##orous": 8591,
      "prosp": 8592,
      "apprec": 8593,
      "pushed": 8594,
      "forty": 8595,
      "arriving": 8596,
      "muslim": 8597,
      "substantial": 8598,
      "cha": 8599,
      "sisters": 8600,
      "technique": 8601,
      "marshall": 8602,
      "isolated": 8603,
      "handed": 8604,
      "organizations": 8605,
      "samuel": 8606,
      "moments": 8607,
      "##using": 8608,
      "phen": 8609,
      "founder": 8610,
      "disturb": 8611,
      "benn": 8612,
      "##arf": 8613,
      "exposed": 8614,
      "sevent": 8615,
      "##otes": 8616,
      "partly": 8617,
      "fel": 8618,
      "linked": 8619,
      "##mad": 8620,
      "##rees": 8621,
      "##oral": 8622,
      "federation": 8623,
      "avo": 8624,
      "turkish": 8625,
      "sarah": 8626,
      "mall": 8627,
      "herald": 8628,
      "factory": 8629,
      "##vere": 8630,
      "designer": 8631,
      "tan": 8632,
      "##asts": 8633,
      "continental": 8634,
      "enthus": 8635,
      "forec": 8636,
      "erect": 8637,
      "departed": 8638,
      "imprison": 8639,
      "instrumental": 8640,
      "lennon": 8641,
      "existed": 8642,
      "recip": 8643,
      "grace": 8644,
      "pione": 8645,
      "proced": 8646,
      "##rose": 8647,
      "baltim": 8648,
      "wedding": 8649,
      "periods": 8650,
      "frequent": 8651,
      "fifteen": 8652,
      "mack": 8653,
      "##bit": 8654,
      "conte": 8655,
      "##phy": 8656,
      "##bean": 8657,
      "##ila": 8658,
      "greece": 8659,
      "ranking": 8660,
      "170": 8661,
      "extent": 8662,
      "austria": 8663,
      "mathemat": 8664,
      "baltimore": 8665,
      "insc": 8666,
      "shock": 8667,
      "metro": 8668,
      "##20": 8669,
      "symp": 8670,
      "moral": 8671,
      "impossible": 8672,
      "dramatic": 8673,
      "participate": 8674,
      "hunt": 8675,
      "mail": 8676,
      "occupation": 8677,
      "##iner": 8678,
      "instance": 8679,
      "concerts": 8680,
      "##inder": 8681,
      "##spec": 8682,
      "scholar": 8683,
      "alter": 8684,
      "initi": 8685,
      "seeking": 8686,
      "deputy": 8687,
      "anticip": 8688,
      "taught": 8689,
      "##aria": 8690,
      "finale": 8691,
      "teamm": 8692,
      "load": 8693,
      "colorado": 8694,
      "specimens": 8695,
      "nag": 8696,
      "armament": 8697,
      "cruisers": 8698,
      "##usted": 8699,
      "apple": 8700,
      "turb": 8701,
      "##rest": 8702,
      "seek": 8703,
      "aqu": 8704,
      "gates": 8705,
      "lawr": 8706,
      "oxy": 8707,
      "ghost": 8708,
      "##ran": 8709,
      "##oust": 8710,
      "ern": 8711,
      "##olas": 8712,
      "##olis": 8713,
      "verse": 8714,
      "creator": 8715,
      "newspapers": 8716,
      "rarely": 8717,
      "amendment": 8718,
      "rick": 8719,
      "malays": 8720,
      "dave": 8721,
      "andre": 8722,
      "##osing": 8723,
      "spending": 8724,
      "aware": 8725,
      "##music": 8726,
      "dir": 8727,
      "##uts": 8728,
      "smooth": 8729,
      "15th": 8730,
      "sullivan": 8731,
      "ml": 8732,
      "friendly": 8733,
      "absol": 8734,
      "doesn": 8735,
      "rav": 8736,
      "##ressed": 8737,
      "joy": 8738,
      "##ologists": 8739,
      "##lie": 8740,
      "metropolitan": 8741,
      "diameter": 8742,
      "listen": 8743,
      "chase": 8744,
      "precip": 8745,
      "arena": 8746,
      "##away": 8747,
      "genes": 8748,
      "helic": 8749,
      "##drew": 8750,
      "1928": 8751,
      "alab": 8752,
      "divor": 8753,
      "frederick": 8754,
      "mario": 8755,
      "assess": 8756,
      "##umin": 8757,
      "##obi": 8758,
      "pounds": 8759,
      "##eu": 8760,
      "relie": 8761,
      "##iami": 8762,
      "timber": 8763,
      "lect": 8764,
      "poison": 8765,
      "##phone": 8766,
      "withdrew": 8767,
      "chanc": 8768,
      "exhibition": 8769,
      "swift": 8770,
      "pc": 8771,
      "picked": 8772,
      "permission": 8773,
      "##boy": 8774,
      "procl": 8775,
      "joining": 8776,
      "somerset": 8777,
      "rates": 8778,
      "##sa": 8779,
      "upgraded": 8780,
      "gab": 8781,
      "jess": 8782,
      "changing": 8783,
      "encountered": 8784,
      "policies": 8785,
      "cous": 8786,
      "10th": 8787,
      "affair": 8788,
      "covers": 8789,
      "inaug": 8790,
      "plus": 8791,
      "1925": 8792,
      "difficulties": 8793,
      "multi": 8794,
      "refere": 8795,
      "inqu": 8796,
      "##col": 8797,
      "##idae": 8798,
      "collaps": 8799,
      "##aire": 8800,
      "schedule": 8801,
      "trend": 8802,
      "legislature": 8803,
      "##anium": 8804,
      "suicide": 8805,
      "##sea": 8806,
      "anna": 8807,
      "##ora": 8808,
      "##roke": 8809,
      "infr": 8810,
      "##opter": 8811,
      "anglo": 8812,
      "##borough": 8813,
      "advice": 8814,
      "miami": 8815,
      "sank": 8816,
      "merchant": 8817,
      "##hu": 8818,
      "partially": 8819,
      "##mi": 8820,
      "seattle": 8821,
      "boss": 8822,
      "pilots": 8823,
      "roc": 8824,
      "margar": 8825,
      "anch": 8826,
      "disaster": 8827,
      "bombers": 8828,
      "adjacent": 8829,
      "athletic": 8830,
      "1924": 8831,
      "turrets": 8832,
      "holl": 8833,
      "unn": 8834,
      "comments": 8835,
      "traveled": 8836,
      "phr": 8837,
      "gap": 8838,
      "napole": 8839,
      "seed": 8840,
      "skull": 8841,
      "philosophy": 8842,
      "kl": 8843,
      "agree": 8844,
      "loan": 8845,
      "refers": 8846,
      "explo": 8847,
      "gardens": 8848,
      "jar": 8849,
      "waves": 8850,
      "##imb": 8851,
      "aggress": 8852,
      "seats": 8853,
      "signs": 8854,
      "physic": 8855,
      "param": 8856,
      "07": 8857,
      "marry": 8858,
      "##amese": 8859,
      "proport": 8860,
      "plain": 8861,
      "pref": 8862,
      "1920s": 8863,
      "sector": 8864,
      "meat": 8865,
      "shakes": 8866,
      "iowa": 8867,
      "py": 8868,
      "criticised": 8869,
      "danc": 8870,
      "mines": 8871,
      "rebellion": 8872,
      "##chell": 8873,
      "soil": 8874,
      "##enh": 8875,
      "coordin": 8876,
      "minimum": 8877,
      "eagle": 8878,
      "harbour": 8879,
      "remove": 8880,
      "compete": 8881,
      "municipal": 8882,
      "##rot": 8883,
      "struggle": 8884,
      "alabama": 8885,
      "carp": 8886,
      "soldier": 8887,
      "prompted": 8888,
      "bom": 8889,
      "manusc": 8890,
      "overl": 8891,
      "mississ": 8892,
      "indicate": 8893,
      "##eing": 8894,
      "bases": 8895,
      "caribbean": 8896,
      "##ugh": 8897,
      "whil": 8898,
      "halo": 8899,
      "pitched": 8900,
      "##inction": 8901,
      "communication": 8902,
      "destroyers": 8903,
      "medicine": 8904,
      "manuscript": 8905,
      "##attan": 8906,
      "surprise": 8907,
      "neutral": 8908,
      "bros": 8909,
      "spiritual": 8910,
      "lawrence": 8911,
      "branc": 8912,
      "string": 8913,
      "collapse": 8914,
      "grown": 8915,
      "enterprise": 8916,
      "##isd": 8917,
      "copy": 8918,
      "teaching": 8919,
      "1923": 8920,
      "powered": 8921,
      "collaboration": 8922,
      "##power": 8923,
      "yanke": 8924,
      "indeed": 8925,
      "14th": 8926,
      "restaurant": 8927,
      "##uster": 8928,
      "walker": 8929,
      "whilst": 8930,
      "blow": 8931,
      "km2": 8932,
      "protagonist": 8933,
      "charlie": 8934,
      "yor": 8935,
      "electron": 8936,
      "sufficient": 8937,
      "##eland": 8938,
      "marketing": 8939,
      "##udes": 8940,
      "minnes": 8941,
      "citing": 8942,
      "designation": 8943,
      "potter": 8944,
      "ian": 8945,
      "stream": 8946,
      "fifty": 8947,
      "##attered": 8948,
      "context": 8949,
      "forcing": 8950,
      "uncertain": 8951,
      "values": 8952,
      "multipl": 8953,
      "paintings": 8954,
      "9th": 8955,
      "myster": 8956,
      "appointment": 8957,
      "benefit": 8958,
      "dim": 8959,
      "possession": 8960,
      "ry": 8961,
      "provinc": 8962,
      "satellite": 8963,
      "approval": 8964,
      "##die": 8965,
      "describe": 8966,
      "armored": 8967,
      "ecc": 8968,
      "covering": 8969,
      "nam": 8970,
      "pretty": 8971,
      "survivors": 8972,
      "##pan": 8973,
      "depending": 8974,
      "candidates": 8975,
      "##nings": 8976,
      "check": 8977,
      "rounds": 8978,
      "understanding": 8979,
      "fortress": 8980,
      "encounter": 8981,
      "pant": 8982,
      "dispute": 8983,
      "cot": 8984,
      "charter": 8985,
      "femin": 8986,
      "brill": 8987,
      "balance": 8988,
      "tip": 8989,
      "cyl": 8990,
      "orbit": 8991,
      "##ascar": 8992,
      "##gas": 8993,
      "bowling": 8994,
      "capit": 8995,
      "benj": 8996,
      "nazi": 8997,
      "hungary": 8998,
      "01": 8999,
      "oxygen": 9000,
      "##usal": 9001,
      "villages": 9002,
      "articles": 9003,
      "hamp": 9004,
      "situated": 9005,
      "brun": 9006,
      "travelled": 9007,
      "dollars": 9008,
      "controll": 9009,
      "displayed": 9010,
      "pine": 9011,
      "listing": 9012,
      "victories": 9013,
      "minimal": 9014,
      "rit": 9015,
      "survive": 9016,
      "violent": 9017,
      "dock": 9018,
      "australians": 9019,
      "##encing": 9020,
      "priest": 9021,
      "software": 9022,
      "belgium": 9023,
      "serial": 9024,
      "playoffs": 9025,
      "symptoms": 9026,
      "jok": 9027,
      "ski": 9028,
      "christopher": 9029,
      "##rom": 9030,
      "prol": 9031,
      "closing": 9032,
      "legislative": 9033,
      "diego": 9034,
      "reconna": 9035,
      "sib": 9036,
      "telling": 9037,
      "dancing": 9038,
      "wake": 9039,
      "sugar": 9040,
      "funeral": 9041,
      "earthqu": 9042,
      "shakesp": 9043,
      "gear": 9044,
      "assisted": 9045,
      "amongst": 9046,
      "nad": 9047,
      "forests": 9048,
      "clock": 9049,
      "helping": 9050,
      "alive": 9051,
      "interpre": 9052,
      "publications": 9053,
      "riders": 9054,
      "shakespear": 9055,
      "hipp": 9056,
      "benjamin": 9057,
      "acted": 9058,
      "##ni": 9059,
      "cargo": 9060,
      "michel": 9061,
      "eliminated": 9062,
      "marks": 9063,
      "asks": 9064,
      "monster": 9065,
      "degrees": 9066,
      "##avery": 9067,
      "poems": 9068,
      "battalions": 9069,
      "behaviour": 9070,
      "bot": 9071,
      "monitor": 9072,
      "guil": 9073,
      "rugby": 9074,
      "concrete": 9075,
      "##ecraft": 9076,
      "alfred": 9077,
      "drivers": 9078,
      "reconnaissance": 9079,
      "##velt": 9080,
      "simpl": 9081,
      "purposes": 9082,
      "colonies": 9083,
      "1905": 9084,
      "1908": 9085,
      "##yt": 9086,
      "pron": 9087,
      "1909": 9088,
      "tomb": 9089,
      "administrative": 9090,
      "##atus": 9091,
      "fatal": 9092,
      "circumst": 9093,
      "mason": 9094,
      "##car": 9095,
      "##jan": 9096,
      "pars": 9097,
      "occasions": 9098,
      "compilation": 9099,
      "repairs": 9100,
      "roose": 9101,
      "quiet": 9102,
      "##iller": 9103,
      "statue": 9104,
      "##uits": 9105,
      "vietn": 9106,
      "##elle": 9107,
      "blind": 9108,
      "alcohol": 9109,
      "vietnamese": 9110,
      "crus": 9111,
      "lists": 9112,
      "tang": 9113,
      "03": 9114,
      "inland": 9115,
      "attendance": 9116,
      "minnesota": 9117,
      "##ouri": 9118,
      "ric": 9119,
      "11th": 9120,
      "voiced": 9121,
      "mental": 9122,
      "##esses": 9123,
      "##inals": 9124,
      "abilities": 9125,
      "preserved": 9126,
      "21st": 9127,
      "cannon": 9128,
      "grammy": 9129,
      "##sky": 9130,
      "pool": 9131,
      "publicly": 9132,
      "hong": 9133,
      "sick": 9134,
      "anime": 9135,
      "console": 9136,
      "04": 9137,
      "##gate": 9138,
      "##agen": 9139,
      "manhattan": 9140,
      "kin": 9141,
      "105": 9142,
      "illness": 9143,
      "franklin": 9144,
      "##lev": 9145,
      "organisation": 9146,
      "##ographical": 9147,
      "export": 9148,
      "##uman": 9149,
      "preparation": 9150,
      "defeating": 9151,
      "kurt": 9152,
      "125": 9153,
      "horiz": 9154,
      "wider": 9155,
      "communications": 9156,
      "argument": 9157,
      "businesses": 9158,
      "trouble": 9159,
      "signal": 9160,
      "##otten": 9161,
      "roosevelt": 9162,
      "touring": 9163,
      "jet": 9164,
      "##lus": 9165,
      "elabor": 9166,
      "##imeter": 9167,
      "recurr": 9168,
      "dc": 9169,
      "highways": 9170,
      "sas": 9171,
      "##rain": 9172,
      "##ounced": 9173,
      "residence": 9174,
      "##sex": 9175,
      "1907": 9176,
      "##orph": 9177,
      "##uda": 9178,
      "##mo": 9179,
      "##lyn": 9180,
      "coff": 9181,
      "##rum": 9182,
      "dollar": 9183,
      "surge": 9184,
      "icon": 9185,
      "proc": 9186,
      "##ivated": 9187,
      "ammun": 9188,
      "backing": 9189,
      "telegr": 9190,
      "fallen": 9191,
      "resumed": 9192,
      "##atherine": 9193,
      "vs": 9194,
      "alignment": 9195,
      "164": 9196,
      "montreal": 9197,
      "bureau": 9198,
      "##kel": 9199,
      "archb": 9200,
      "thinking": 9201,
      "kansas": 9202,
      "##acle": 9203,
      "flights": 9204,
      "competed": 9205,
      "mississipp": 9206,
      "##ras": 9207,
      "believing": 9208,
      "opponent": 9209,
      "spar": 9210,
      "##ishment": 9211,
      "nash": 9212,
      "counties": 9213,
      "signing": 9214,
      "crews": 9215,
      "##aun": 9216,
      "intensified": 9217,
      "ammunition": 9218,
      "documents": 9219,
      "subjects": 9220,
      "assists": 9221,
      "amate": 9222,
      "portland": 9223,
      "##ulating": 9224,
      "genetic": 9225,
      "alternate": 9226,
      "##fire": 9227,
      "willing": 9228,
      "biographer": 9229,
      "dri": 9230,
      "friendship": 9231,
      "walking": 9232,
      "interesting": 9233,
      "ceremon": 9234,
      "atomic": 9235,
      "usual": 9236,
      "audiences": 9237,
      "excav": 9238,
      "cinema": 9239,
      "usd": 9240,
      "abol": 9241,
      "destro": 9242,
      "strategic": 9243,
      "deliber": 9244,
      "forg": 9245,
      "liv": 9246,
      "doubt": 9247,
      "suitable": 9248,
      "woods": 9249,
      "feelings": 9250,
      "engineers": 9251,
      "rush": 9252,
      "##emen": 9253,
      "curt": 9254,
      "saturday": 9255,
      "pic": 9256,
      "noble": 9257,
      "##chen": 9258,
      "165": 9259,
      "select": 9260,
      "provincial": 9261,
      "radical": 9262,
      "chand": 9263,
      "##ensions": 9264,
      "##point": 9265,
      "airborne": 9266,
      "tribes": 9267,
      "vinc": 9268,
      "guards": 9269,
      "ownership": 9270,
      "completing": 9271,
      "percentage": 9272,
      "functions": 9273,
      "waiting": 9274,
      "submitted": 9275,
      "##donald": 9276,
      "goth": 9277,
      "ther": 9278,
      "autobi": 9279,
      "alexand": 9280,
      "explosion": 9281,
      "asking": 9282,
      "underw": 9283,
      "loyal": 9284,
      "pearl": 9285,
      "tast": 9286,
      "charity": 9287,
      "chest": 9288,
      "disord": 9289,
      "##itated": 9290,
      "artistic": 9291,
      "##iveness": 9292,
      "behalf": 9293,
      "ramp": 9294,
      "scor": 9295,
      "hook": 9296,
      "adopt": 9297,
      "guer": 9298,
      "tenness": 9299,
      "shakespeare": 9300,
      "nit": 9301,
      "polar": 9302,
      "stick": 9303,
      "lex": 9304,
      "retail": 9305,
      "##ifer": 9306,
      "hindu": 9307,
      "chronicle": 9308,
      "shaw": 9309,
      "evolved": 9310,
      "campbell": 9311,
      "##odore": 9312,
      "quad": 9313,
      "por": 9314,
      "steven": 9315,
      "##oto": 9316,
      "revenue": 9317,
      "ted": 9318,
      "frust": 9319,
      "registered": 9320,
      "##onymous": 9321,
      "rice": 9322,
      "retrie": 9323,
      "##ods": 9324,
      "false": 9325,
      "birthday": 9326,
      "dimens": 9327,
      "wire": 9328,
      "##ader": 9329,
      "cartoon": 9330,
      "remark": 9331,
      "obv": 9332,
      "targets": 9333,
      "##ova": 9334,
      "hole": 9335,
      "##dale": 9336,
      "lucas": 9337,
      "nep": 9338,
      "suspended": 9339,
      "mik": 9340,
      "butter": 9341,
      "borough": 9342,
      "reluct": 9343,
      "movies": 9344,
      "poorly": 9345,
      "favorable": 9346,
      "pup": 9347,
      "ideal": 9348,
      "egyptian": 9349,
      "margaret": 9350,
      "mississippi": 9351,
      "hob": 9352,
      "heading": 9353,
      "forth": 9354,
      "warren": 9355,
      "cass": 9356,
      "comfort": 9357,
      "##elli": 9358,
      "pace": 9359,
      "##gression": 9360,
      "stevens": 9361,
      "civilian": 9362,
      "guilty": 9363,
      "frig": 9364,
      "migr": 9365,
      "measured": 9366,
      "replacing": 9367,
      "stores": 9368,
      "josh": 9369,
      "##reck": 9370,
      "cliff": 9371,
      "liked": 9372,
      "solution": 9373,
      "boundary": 9374,
      "offering": 9375,
      "missouri": 9376,
      "tennessee": 9377,
      "lakes": 9378,
      "aimed": 9379,
      "underst": 9380,
      "armies": 9381,
      "360": 9382,
      "louisiana": 9383,
      "brick": 9384,
      "carn": 9385,
      "provision": 9386,
      "expensive": 9387,
      "1906": 9388,
      "acceler": 9389,
      "##fe": 9390,
      "##azy": 9391,
      "##inea": 9392,
      "palest": 9393,
      "##lec": 9394,
      "engagement": 9395,
      "shells": 9396,
      "simultaneously": 9397,
      "##lah": 9398,
      "##iac": 9399,
      "osc": 9400,
      "rocks": 9401,
      "mush": 9402,
      "clearly": 9403,
      "ze": 9404,
      "aviation": 9405,
      "1904": 9406,
      "temporarily": 9407,
      "feather": 9408,
      "galax": 9409,
      "##bu": 9410,
      "shipping": 9411,
      "execut": 9412,
      "filed": 9413,
      "##athy": 9414,
      "recognised": 9415,
      "sequences": 9416,
      "##uable": 9417,
      "craw": 9418,
      "chel": 9419,
      "billy": 9420,
      "##ski": 9421,
      "stu": 9422,
      "asc": 9423,
      "monaster": 9424,
      "gene": 9425,
      "##yon": 9426,
      "philippines": 9427,
      "tox": 9428,
      "represents": 9429,
      "vulner": 9430,
      "agriculture": 9431,
      "wore": 9432,
      "gran": 9433,
      "##enna": 9434,
      "readers": 9435,
      "saved": 9436,
      "##din": 9437,
      "coverage": 9438,
      "mitchell": 9439,
      "storage": 9440,
      "wants": 9441,
      "harvey": 9442,
      "##ige": 9443,
      "##rix": 9444,
      "recommend": 9445,
      "essential": 9446,
      "remnants": 9447,
      "clin": 9448,
      "err": 9449,
      "sket": 9450,
      "kirk": 9451,
      "phoen": 9452,
      "talent": 9453,
      "pok": 9454,
      "coinc": 9455,
      "cancelled": 9456,
      "patterns": 9457,
      "##oming": 9458,
      "mining": 9459,
      "propag": 9460,
      "comparison": 9461,
      "blocks": 9462,
      "##father": 9463,
      "subspec": 9464,
      "karl": 9465,
      "surgery": 9466,
      "tight": 9467,
      "phone": 9468,
      "##ante": 9469,
      "spotted": 9470,
      "coc": 9471,
      "faster": 9472,
      "perspective": 9473,
      "institutions": 9474,
      "matters": 9475,
      "aside": 9476,
      "##essive": 9477,
      "continu": 9478,
      "stern": 9479,
      "##ribed": 9480,
      "reflected": 9481,
[...]
